#version: 0.2
Ġ Ġ
ĠĠ ĠĠ
ĠĠ Ġ
Ċ ĠĠĠĠ
i n
e n
o n
e r
a t
o r
e l
Ġ t
ĊĠĠĠĠ ĠĠĠ
ĊĠĠĠĠ ĠĠĠĠ
e s
Ġ s
u t
Ġ =
a s
a l
i on
e d
o d
e t
Ċ ĠĠĠ
a r
h e
a n
ĊĠĠĠĠĠĠĠĠ ĠĠĠ
Ġ i
s t
c h
r o
el f
Ġ d
in g
i t
Ġ c
Ġ f
p ut
i d
i c
Ġ "
r e
Ġ p
l e
i g
Ġ m
Ġ in
l o
en t
od el
s e
Ġt he
i z
m p
Ġ n
ĊĠĠĠĠĠĠĠĠ ĠĠĠĠ
a d
Ġ o
Ġs elf
p e
Ġt o
r a
e x
Ġ b
l a
Ġ w
m a
u r
k en
c e
Ġ r
u m
on f
onf ig
ĊĠĠĠĠĠĠĠĠĠĠĠĠ ĠĠĠ
) :
Ġ (
c t
Ġ a
at t
t o
as s
g e
a m
Ġd e
p t
u n
ut put
u l
iz e
ã ģ
on e
an d
Ġi s
c od
" ,
q u
i m
or ch
at ion
er s
or m
Ġi f
h t
i s
Ġ `
( )
e m
Ġ l
es t
Ġ T
ra in
s or
Ċ ĊĠĠĠĠĠĠĠ
N one
ent ion
Ġ -
s elf
p o
i l
o t
Ġo f
c k
ar g
Ġ [
i f
Ġf or
at e
as k
att ention
m odel
s ize
Ġ #
d en
Ġm odel
o l
Ċ ĊĠĠĠ
ex t
ro m
u s
Ġ h
Ġ *
u e
id den
d e
Ġde f
l ass
ma ge
Ġ None
u p
cod er
at ch
ur n
et urn
p ro
t h
en sor
v al
it h
" :
c onfig
er t
or t
to ken
ã ĥ
a b
em b
Ġ g
Ġ and
v e
p s
y pe
in t
ĊĠĠĠĠĠĠĠĠĠĠĠĠ ĠĠĠĠ
i st
am e
Ġ )
o m
Ġr eturn
ic t
Ġ {
arg s
" )
at es
ã Ĥ
la y
emb ed
ig ht
_ _
k e
in put
ion al
ul t
i p
/ /
Ġn ot
m ask
al l
Ġ A
i r
Ġt h
Ġs t
st ates
o utput
mp ort
iz er
id s
t orch
l en
f orm
r an
Ġ lo
c lass
" "
d ing
c es
p r
h a
Ġ C
Ġo utput
h idden
Ġin put
a mp
- -
` `
Ġ re
> >
t ype
la b
pt ional
Ġ L
Ġ S
f rom
] ,
Ġto ken
ic e
Ġ O
Ġ I
. .
in e
el s
Ġ el
he ad
ran s
en ce
Ġc onfig
at as
atas et
g g
o c
( "
Ġ or
st r
Ġt orch
c he
p y
r ue
ĊĠĠĠĠĠĠĠĠĠĠĠĠĠĠĠĠ ĠĠĠ
ha pe
Ġb e
Ġw ith
ke y
r es
s s
c on
at h
as t
g th
n ame
e ight
M odel
" ]
u b
en coder
en er
Ġ v
Ġ e
at a
) ,
lay er
u se
Ġ P
Ġ ex
mp t
ar e
Ġn um
= "
rain ed
Ċ Ċ
Ġi mport
Ġp ro
Ġc on
d ict
o w
Ġs e
r i
f a
rans form
T ensor
Ġm a
c o
ĠĠĠĠ ĠĠĠĠ
i le
ab le
v ice
Ġ F
n um
Ġ +
: //
ht t
Ġ D
t ext
) .
len gth
[ "
ic en
Ġ un
b atch
i x
i al
Ġf rom
Ġel se
Ġ y
t er
o s
lo ck
d er
if f
: :
gg ing
i mage
ass ert
lo at
Ġ on
c al
Ġ ì
e w
l y
e at
Ġ( `
e ct
embed ding
in it
ad d
htt ps
al se
t est
o u
) )
u re
Ġ attention
b o
as e
e ps
` ,
p p
Ġh idden
ar d
T rue
Ġi mage
ar t
p ath
d im
it ion
val u
et rained
k w
Ġ" ""
Ġ }
amp le
kw args
an ce
Ġ as
# #
e p
en d
Ġ W
od u
rain ing
v er
qu ence
a ge
icen se
ĠO ptional
in d
Ġ R
Ġ _
Ġ M
Ġ B
ar am
Ġ use
u gging
lab els
Ġ us
s hape
input s
Ġr es
w eight
>> >
ent s
iff us
l es
an n
Ġw h
ip el
p re
F or
valu es
i ve
odu le
a ult
Ġdef ault
it s
if ic
val ue
an t
ch ed
pe c
f f
`` `
or e
po int
I N
Ġ V
de vice
c om
g es
Ġth at
Ġp r
p a
Ġ* *
Ġ= =
ransform ers
p er
o ptional
d ataset
ĠT he
ĠL icense
at or
po s
Ġt est
i se
ces sor
embedding s
fa ce
* *
c a
att n
Ġ '
Ġ x
lay ers
ipel ine
a ve
] (
lo ad
Ġc o
pr etrained
ã Ģ
T o
ct or
Ġ an
n orm
pro mpt
ma x
Ġb atch
head s
embed s
il l
attention s
lo g
t ensor
ck point
i v
a v
Ġth is
c c
ct ion
token s
Ġ are
ces s
e g
Ċ ĊĠĠĠĠĠĠĠĠĠĠĠ
d ir
l i
ch ann
lo w
f t
d s
ow n
Ġl et
r or
w ard
ched ul
Ġt ext
ugging face
b lock
.. .
ì Ŀ
Ġy ou
f or
Ġst r
t rain
g et
Ġ ë
o ut
-- --
Ġ en
i as
C onfig
Ċ Ġ
ut o
f eat
i o
To ken
Ġb y
up le
a y
Ġg ener
h uggingface
cod e
ur es
Ġ- >
de coder
u d
O N
Ġ U
Ġin t
Ġinput s
p l
po ut
Ġi t
i mport
ro pout
Ġ E
at ed
id e
j ect
f ile
b a
ma ges
chedul er
cal e
í ķ
Ġs h
Ġl en
d ata
n et
chann els
st ate
Ġ k
ar y
f er
Ġc an
Ġ all
Ġw e
Ġg et
Ġ al
Ġ N
Ġ G
ĠĠĠĠ ĠĠĠ
c l
ri b
t im
an g
et h
is ion
] )
Ġtoken izer
n ing
s et
Ġ encoder
Ġp re
Ġd ataset
o ol
Ġ H
ific ation
r ad
F alse
pe ct
oc ab
Ġ |
` ):
output s
amp les
ion s
it y
Ġ __
o ur
Ġre qu
__ (
rib ut
L I
g ener
at ive
Ġn n
' ,
qu al
iffus ion
a i
con v
Ġc lass
Ġse quence
Ġ layer
Ġm ask
i re
Ġma x
] ]
ed ict
Ġ at
ra y
u st
Ġ- -
ĠI n
r ror
et a
Ġs et
um ent
Ġs up
Ġt f
er n
() .
m ent
Ġw ill
il s
d oc
Ġ key
o k
t a
E rror
Ġd o
` ]
. _
Ġ ra
Ġ qu
od e
ë ĭ
pro b
Ġc he
Ġ[ `
Ġt raining
Ġw eight
f loat
Ġ j
token izer
Ġoutput s
Ġun der
ro ss
Ġ >>>
st eps
ĊĠĠĠĠĠĠĠĠĠĠĠĠĠĠĠĠ ĠĠĠĠĠĠĠ
p aram
Ġc om
ad ding
Ġlo ad
u al
R A
st ance
er e
b ias
o b
L M
Ġ //
h is
t f
Ġ <
ic es
Token izer
a pt
p i
ãģ ®
lab le
in al
Ġ &
de f
* ,
s c
"" "
Ġs pec
pos ition
Ġs hape
Ġ :
Ġ \
a ct
on g
Ġ @
A R
Ġ assert
d type
T I
s er
model s
Ġd ata
ar ray
ers ion
Ġp ass
N et
et r
Ġdefault s
Ġ .
bo ol
Ġ[ "
um m
Ġ add
b u
Ġpro mpt
che ckpoint
` .
Ġt ransformers
ãģ Ļ
if i
ind ex
c ol
d ropout
Ġn ame
e e
ist ribut
Ġus ed
er m
( [
A S
ut ils
es s
pect ed
Ġde coder
p ar
a ch
s w
st art
la x
Ġn ew
F loat
Ġlo ss
P U
n n
Ġd im
Float Tensor
ai lable
log its
n p
ro p
ul d
Ġde vice
Ġra ise
Ġ args
pl it
ine ar
ĠF alse
r it
E qual
ca che
s ample
iz ation
fer ence
S T
b ert
Ġn o
ce pt
lo ss
Ġ /
el er
se q
Ġh as
cc eler
Ġp ar
e c
id x
Ġrequ ir
Ġ value
er y
g rad
ext ra
i ent
O utput
f ix
Ġt im
re ate
Ġp os
al ue
r un
Ġf ile
D E
istribut ed
Ġin d
s cale
i mages
p u
Ġ ...
ith ub
lab el
Ġin st
i b
feat ures
ãĢ ģ
g ithub
P ro
Ġ ch
I n
o uld
in stance
Ġco mp
iz ed
ãĥ ¼
a pp
} .
pro cess
C on
ãĢ Ĥ
ri pt
I mage
p are
Ġin it
up y
upy ter
Ġt ype
Ġn e
Ġs ize
ãĤ Ĵ
j upyter
ĠT F
or g
or y
Ġl ist
r g
ma in
( ):
w or
Ġo b
Ġt ensor
Ġo ut
arg et
p ort
lo b
ang u
ransform er
Ġs o
p en
Ġf eat
ation s
ĠT rue
ĠU n
id th
w w
ta in
b ase
ro up
str ing
E R
[ :
Ġn p
Ġp aram
f o
ad apt
Ġma y
s pec
Ġd type
= =
Ġ head
Ġtoken s
pro cessor
m o
f il
i es
Ġt rain
C lass
iffus ers
at ents
Ġ le
v ocab
ĠV alue
Ġwh en
ra m
E S
weight s
n o
E N
Ġ >
d own
Ġlo g
Ġs c
l ist
etr ic
angu age
P re
ĊĠĠĠĠ Ġ
th on
pt im
i ch
S e
* ):
) ;
ĠA uto
L ay
e mp
P ipeline
u mp
ur ation
Ġis instance
eth od
ar ning
Ġex pected
Ġsup er
gg er
an ge
ba ck
T est
or es
eg ative
r c
Ġel if
ĊĠĠĠĠĠĠĠĠ Ġ
() ,
ãģ «
s h
ĠT his
t ro
M A
ĠĠĠĠĠĠĠĠ ĠĠĠĠĠĠĠĠ
arg ument
Ġb ool
con d
b er
t able
Ġa pp
or a
um n
el p
Ġweight s
un ction
Ġfor ward
et ers
) ?
pro j
e ch
ĠI f
n ew
Y ou
] .
Ġd istributed
L ist
IN G
umm y
Ġsh ould
ĉ ĉ
ix el
t t
ir st
ĠC o
m odule
l ic
ar ch
n am
Ġh ave
r ate
ĠValue Error
O C
Ġcon v
---- ----
O R
Ġ up
as h
Ġe ach
Ġ labels
' s
w ith
z er
ud io
Ġ la
Ġpos ition
ma p
class es
assert Equal
av ailable
ig n
ãģ Ĺ
à °
ãģ ¾
att r
and om
re e
Ġi mp
D I
Ġres ult
v i
' :
u id
Ġus ing
s o
P T
Ġp adding
e ad
it ional
p ast
Ġb lock
n d
m l
Ġ K
t raining
he ight
( (
a f
Ġ= >
Ġ` (
Lay er
e val
test er
tro l
Pro cessor
D e
s on
Ġ attn
l ice
e am
Ġche ckpoint
amp l
ifi er
" ],
pa che
Ġw or
Ġy our
p atch
Class ification
e an
v ision
M odule
icen s
Ġ ê
Ġ https
. "
ern el
ig inal
p la
} ,
Ġc all
Ġmodel s
ĠR es
en s
adapt er
Ġp ast
Pre T
is s
") ,
m b
ì Ĺ
en ces
Ġm odule
st ep
o ad
h ub
pre fix
N orm
cod ing
key s
T he
ro w
est ion
app end
ĠC on
t ransformers
ãĥ ³
Ġon ly
Ġp a
Ġ í
dataset s
Ġ one
Ġc a
i e
c ken
ar k
t r
pe ech
E T
s cheduler
ult ip
ãĤ ĭ
s ave
C H
val id
o ver
che ck
Ġst ate
ãģ ¯
t he
Ġcon st
fa ult
Ġwh ich
all y
sw er
ol ut
Ġ u
it em
E n
S E
ĠI mage
spec ial
tim e
in es
Ġne ed
c y
em ory
uid ance
> <
f g
ĠP y
o g
py torch
un d
ãģ §
Ġp er
s plit
re qu
ĠA rg
a e
Ġ( "
l l
TI ON
c at
E D
ëĭ ¤
a ce
ĠS ee
( &
re ad
r el
r eturn
Ġ embeddings
ãĥ Ī
p ad
ä ¸
Ġ !
pr edict
ĠD e
i ate
Ġinit ial
for ward
us al
k ip
bo ok
pt h
Ġf loat
[ -
Ã ©
a x
h o
Ġcom put
Ġl anguage
Ġpr edict
o ff
ul l
"] )
Ġr un
Ġb ut
se quence
pla ce
Ġo s
ĠW h
Ġc ol
Ġf il
ï ¼
íķ ĺ
u ct
re g
v ed
PreT rained
ba cken
Ġpar ser
i el
ar i
c all
O DE
ĊĠĠĠĠĠĠĠĠĠĠĠĠĠĠĠĠ ĠĠĠĠĠĠĠĠ
est eps
py thon
Ġn orm
param s
` :
a k
Ġm ore
F I
Ġ{ "
ĠArg s
om e
ð Ł
Ċ ĊĠĠĠĠĠĠĠĠĠĠĠĠĠĠĠ
lob al
cceler ator
ëĭ Ī
pre pare
eth er
m on
Ġi mages
Ġ ):
bu il
(). __
Ġst art
s lice
en ame
Ġm ethod
() )
B ert
r ight
Ġse q
Ġp ipeline
un k
y p
Ġ layers
LI P
in fo
< /
ot e
it er
Ġi d
Ġv ocab
â ĸ
ë Ĭ
po ch
a g
ëĭĪ ëĭ¤
= '
et ad
block s
Ġd own
ve c
Ġex cept
ump y
Ġf n
etad ata
n g
Ġa g
a ck
Ġh elp
l m
P R
i mp
ur l
model ing
Ġnum ber
Ġb u
Ġ} ,
d iffusion
T H
ultip le
g roup
## ##
Ġrequir ed
ãģ¾ ãģĻ
Ġd ict
z e
i pe
co mp
Ġlog its
ĠL ist
in ference
Ġ! =
backen ds
st able
Ġf unction
Ġ You
tt ention
les s
Ġ ]
Ġw idth
o p
j o
feat ure
ç Ķ
ì Ħ
a ut
Ġlen gth
Ġconfig uration
Ġr ange
G ener
( **
d o
Ġc reate
D OC
v el
nam es
ĠH ugging
f n
ë ¥
de fault
sc ores
iz ers
" {
ctor y
ëĬ Ķ
Ġche ck
ab s
Ġco py
= {
Ġc or
Ġpro cess
Ġr el
res s
col umn
c ross
ith er
un et
ĠT ensor
, )
run c
j son
Ġc ross
ãĤ ¹
Ġp ad
= (
iel d
Ġt arget
Ġex ample
Ġ q
ud a
Ġ values
Ġ end
Ġw rit
A M
U T
ot h
à ¤
tensor s
ìĿ ´
p on
Ġp ipe
norm al
Ġs rc
p an
ex amples
[: ,
Ġ+ =
Ġspec ific
cl s
âĸ Ī
Ġn egative
U n
Ġl ast
[ [
ãģ ¦
t rans
Ġf irst
' t
vi ew
ãĥ «
Ġe ither
ul es
Ġf ol
M ix
ur r
l ip
p ipeline
c pu
Ġin ter
ran ge
se ed
. __
ptim izer
Ġs ample
ODE L
bo x
jo in
âĸĪ âĸĪ
m od
)? ;
ìĹ Ĳ
x t
ĠF lax
ì ļ
if y
Ġd oc
D iffusion
") ;
l ora
ar ge
T F
Ġp o
Ġrequir es
Ġs cheduler
Ġso ft
im g
ä ½
. {
Ġf orm
ed iate
Ġd iff
m an
Ġt r
Ġinst all
T orch
Ġdataset s
ĠT uple
fil es
init ial
Ġl atents
li ed
T ype
olut ion
doc string
Ġpr etrained
res ult
I S
PreTrained Model
Ġqu ery
] :
mpt y
ind ices
nd array
s um
Ġfeat ure
ì Ĭ
Q u
form at
Ġno ise
Ġt ask
im it
Ġlo cal
d ate
pp ing
um ents
Ġob tain
Ġs ame
Ġo ver
ww w
w e
po ol
zer o
c fg
Ġlo gger
RA N
as ed
etric s
fa ctor
u g
el ect
P E
Ġpro cessor
ff ic
O UT
Ġ Model
htt p
ãĤ Į
ë ¡
ind ow
urr ent
B lock
ãģ ¨
ë¥ ¼
ìĿ Ħ
Ġind ex
er ror
Ġ ðŁ
un t
w are
F OR
Ġd iffusers
con t
Ġor iginal
f ore
Ġ[ ]
wor d
Ġ kwargs
t al
oad er
l ast
p h
Ġo ur
Se quence
Ġsup port
c ript
pr ed
Ġma ke
th er
m ean
ãģ Į
m in
ãģ Ħ
ĠUn ion
us h
cceler ate
af et
â Ķ
docstring s
qu ery
i T
v it
Ġ height
ens ion
Ġp ath
Ġn ext
Ġpro v
ampl ing
prob s
F ace
Ġpr int
Ġpass ed
Ġp erm
form er
et er
ire ctory
Ġs ub
l atents
gener ate
t mp
ent ence
id ual
str uct
Ġtim e
ĊĠĠĠĠĠĠĠĠĠĠĠĠĠĠĠĠĠĠĠĠĠĠĠĠ ĠĠĠ
( -
S t
t uple
Mix in
Model For
S cheduler
res net
s qu
pe ed
) ]
ì ł
pr ess
Ġan y
b s
Ġgener ator
Ġp y
ãģ Ł
ffic ient
V ec
f low
Ġì ŀ
ject ion
ĠA N
} )
ing le
Ġa ct
cod ed
c uda
ãĥ ĩ
() ;
l inear
Ġ %
qu ences
Con v
t arget
Ġa v
pa ce
pi pe
f l
g n
and le
y n
ĠWh ether
Ġ` "
assert True
Ġgener ation
re ed
po se
( '
ment ation
doc s
ĠC ON
Ġt uple
¤ Ĺ
Ġto p
Ġ arg
T ext
h f
pre c
M ODEL
MA P
Ġdiff er
ĠAN Y
L inear
valid ation
== ==
ãģ ĵ
Ġcon t
Ġfeat ures
. ")
Ġr andom
Model Output
d iffusers
ĠPy Torch
Ġp ixel
re am
C T
i a
n e
ĠR eturn
ĠG PU
} ")
o f
ĠHugging Face
Ġ` ``
Ġapp lic
s ub
swer ing
py right
extra ctor
W ith
Ġm od
ãĤ ¯
A n
A ttention
I L
e mpty
t ransformer
m all
d rop
w idth
ĠW e
ee ze
it le
Ġconv ert
b y
LI C
Ġr ight
c reate
L ong
at ic
ol der
"] .
çĶ ¨
Ġ[` ~
I TH
class ifier
cl ip
Ġ ro
re place
Layer Norm
Ġl imit
Ġlo gging
Ġfol low
Ġk ernel
orm er
ĠO R
Ġcon tain
a usal
d ummy
el l
Ġin to
tim esteps
off set
e poch
Ġb ias
ĠO F
Ġp ool
ãģĻ ãĤĭ
RA IN
pi ed
Ġex press
T uple
ust om
ĠI S
Ġ{ }
V E
it test
Ġ" --
ĠV ersion
Ġb et
ib le
gener ation
Ġinst ead
table Diffusion
er as
v ersion
Ġbu il
Ġm atch
Ġst ep
ä »
Ġg rad
Ġv ersion
Test er
DI TION
Ġapplic able
ç ļ
ĠW AR
param eters
k s
ol ve
çļ Ħ
k v
Ġwrit ing
Ġsoft ware
ST R
ãģ ª
ke ep
c ast
ĠA pache
down load
p ixel
Ġal so
EN SE
v ae
Ġc ode
ab il
Ġ z
iss ions
b e
o us
Ġp atch
Ġs ave
ĠA d
a pache
w o
Ġ ],
icens ed
IN D
å Ĳ
En coder
LIC ENSE
p ha
ãĥ¼ ãĥ
Ġla w
ult i
icens es
L icense
D ict
ĠP re
ĠB AS
Ġof f
TI ES
ĠWAR RAN
ITH OUT
Ġi ds
l icenses
Ġperm issions
ĠCON DITION
mask ed
ãģ ķ
Ġimp lied
ĠK IND
ĠWARRAN TIES
Ġreturn ed
Ġcomp li
Ġt emp
Ġdo es
Ġag reed
ĠCONDITION S
Ġcompli ance
__ ()
ĠBAS IS
ed u
un c
A uto
w rit
ĠT o
po p
gener ator
Ġg over
n umpy
p adding
ER T
Ġsc ript
ausal LM
C ON
mo ve
ar n
ë¡ ľ
Ġgover ning
s amples
ET RAIN
ĠRes ult
R es
Ġs u
Ġb ase
g uidance
Ġj np
ĠW ITHOUT
ex p
par se
Ġs ure
Ġgener ated
id ed
ĠCo pied
Ġd is
g y
Ġa ccelerator
} "
Ġex amples
Ġget attr
m ut
Ġlimit ations
Ġd es
b in
m emory
at io
un e
S elf
i ke
ETRAIN ED
Con d
Ċ ĉĉ
Ġ embed
ĠCon v
l d
Ġ X
pt ion
iv ation
od oc
aut odoc
our ce
Ġo ther
t e
FI G
l ate
STR ING
° Ģ
Ġì Ŀ
Ġform at
l ed
Ġm etadata
at ent
est ep
v ir
Ġca che
grad ient
l arge
n egative
mod ules
o og
Ġattention s
## #
b ject
de code
Ġs cale
Ġ) ,
initial izer
-------- --------
Ġ embedding
ĠA ll
âĶ ģ
r id
Ġstr ide
ol d
Ġdiffer ent
s d
squ eeze
lo gger
C ausalLM
sc ore
att en
Ġs plit
ent ity
com mon
extra ct
ĠReturn s
a ke
at al
oog le
ifi ed
ĠE x
f older
Ġc l
Ġtensor s
Ġstr ing
a udio
le ase
Ġt runc
position s
item s
Sequence Classification
Long Tensor
ì §
d is
Ġind ices
t ask
Ġw as
requ ire
. ,
âĶģ âĶģ
Ġ// /
mb ed
A T
") )
d ist
re ct
x iv
pr es
res hape
ve ctor
Ġcom m
Ġnorm al
a ges
N AM
Ġpre pare
T ip
et ri
g ress
b one
b it
Ġparam eters
PR ETRAINED
Ġf ield
res olve
l ong
Ġth an
zer os
n ext
Ġm in
DOC STRING
ar xiv
str ide
li b
vir on
ãĤ ¤
class ification
trans pose
Ġ heads
W h
b lob
: ]
es e
den se
Ġfil es
Ġh ow
Ġcon trol
_ (
c ase
a cc
s kip
c or
k ernel
T S
a in
ic k
iz es
ĠR e
N ot
Ġun et
.. /
¨ ë
at ing
is h
) `,
= -
Qu estion
a uto
ĠðŁ ¤Ĺ
Ġob ject
atal oader
f lax
t es
Ġw ant
= [
ec ut
yp es
Ġm o
conv ert
" ):
O bject
r ary
ãĥ ¢
ument ation
å ®
ob j
res pon
Ġh f
Ġp ub
n ot
Ġb o
. ",
dim s
un ct
Ġl ib
Ġd ropout
Ġc urrent
Ġ argument
Ġu size
m g
AR CH
Ġcomput e
Ġst eps
s cal
ĠCo pyright
CON FIG
ex ample
d a
Ġb ack
po st
" `
r andom
Ġ label
u ra
ãĥ ĥ
ĠF or
m eta
b ash
d iv
co pe
o pen
Ġf a
ist er
lo cal
Ġp art
Ġdown load
checkpoint ing
ĠD ataset
en code
on ents
ìĿ ĺ
ê ³
ca y
Ġ http
Ġmask ed
c ed
Ġd el
pr int
De coder
C LIP
Ġv ari
mbed ding
å Ī
ess age
rain er
e ft
Ġt itle
ä½ ¿
I VE
Ġgener ate
Gener ation
to p
ĠO k
Ġfollow ing
ĠA n
g t
L E
Ġa udio
f ter
h er
Ġpre v
Ġclass ification
Ġresult s
ARCH IVE
l ation
r and
bert a
qu ant
Ġcol umn
g pt
in s
ar m
test ing
Ġë ª
b ar
ut f
s rc
å ı
par ent
D ataset
token izers
Ġst d
ä½¿ çĶ¨
( *
L o
o id
æ ľ
et erm
if t
Ġo ptimizer
er ved
Ī ĺ
in ed
st d
Ġtr y
w ra
at ure
process ing
Ġcon text
el y
Ġ J
ide o
F ormer
tim m
re po
Ġl ike
`] .
p ert
o und
g en
ĠD ata
Ġd eta
] ],
ff er
m t
is ual
ãĤ Ĭ
V ision
s afet
ĠT ransformers
writ e
Ġj ust
à ±
Ġg lobal
chann el
ann ot
g lobal
f p
Ġa ut
t ing
ìĬ µ
Ġright s
ì§ Ģ
Ġm ust
P O
all el
f ree
al f
Ġpro b
wor k
S I
o ice
or age
Ġres erved
Ġper form
ĠL icensed
so ft
co unt
um ul
ĠUn less
er ies
um er
Se q
Ġapp ly
ipel ines
P r
it ect
Ġg uidance
ent er
V iT
pe ft
M ask
we en
put e
Ġa c
Ġspec ial
T his
umer ate
Ġe val
An swering
Ġa bo
" >
m ethod
! (
Ġt ra
Question Answering
h elp
P ING
: `
( {
Ġg roup
con trol
ix ed
l ang
ch unk
Ġst ates
o se
ãĥ¢ ãĥĩ
Ġsc ores
un ing
a p
Ġin ference
m ark
ĠM ask
Ġwh ere
f ram
m ents
Ġs ome
Ġo pen
Ġa x
up date
b eam
int erm
ï¼ Į
- >
Image Processor
MAP PING
Ġs ingle
Ġ error
con st
interm ediate
imp l
ction s
cl u
Ġre g
Ġ[ [
Ġimp le
Ġ att
Ġf alse
") .
en se
ìĦ ľ
Ĥ ¬
C o
Ġm emory
Ġe valu
Ġt wo
Ġprov ided
A rg
t emp
E mbedding
g oogle
Ġt mp
Ġa fter
¸ °
com m
ì ŀ
ext end
Ġf inal
Ġ ass
la ma
ĠI t
ĠAuto Tokenizer
Ġg iv
Ġs elect
cont ent
etri e
ĠE n
Ġa cc
ob ile
buil d
w ay
m ode
f irst
L A
[ `
Ġ keep
ãĥ¢ãĥĩ ãĥ«
r atio
iz ing
Ġs kip
log prob
' )
ĠC LIP
D ummy
Ġc ase
. """
w h
et e
m s
abil ity
re f
d ataloader
ãģĹ ãģ¦
F eat
he ck
Ġpa ir
For SequenceClassification
© ëĭĪëĭ¤
Ġre po
or iginal
? ;
Ġh ere
p ush
Ġparam s
ĠT raining
pres ent
Ġrequ ire
Ġma in
Ġcall back
it e
int er
f unction
Ġì ł
Ġm ultiple
" .
´ ë
è ¦
Ġ adapter
ĠD iffusion
P y
m etrics
ìļ ©
B ERT
in y
AR T
se g
ĠAuto ModelFor
) [
ck et
io us
Ġm ean
et ect
dir name
arm up
G PT
Ġlib rary
e ed
form ation
Ġëª ¨ë
ex pected
âĸĪâĸĪ âĸĪâĸĪ
Ġ arch
ch s
ĠI D
ist ic
c lo
Ġd on
pro jection
Ġìŀ Ī
Ġbet ween
ãģķ ãĤĮ
un ed
Ġth en
i an
ob ject
A L
Ġt rue
Ġen coding
s peech
gener ated
t ra
Ġen umerate
Ġto tal
add ed
predict ions
ĠS elf
Ġwor k
eterm in
A D
l r
íķ ľ
å ¤
ĠH ub
ãĥ¼ ãĤ
co py
f c
or k
it ial
ra w
ic al
meta class
x l
im um
y s
ht ml
Dummy Object
F ast
reg ister
A d
#### ####
wra p
) ),
ãĥ Ĺ
Ġn am
le vel
Ġwor d
att ern
Ġcor respon
s cope
o pt
s entence
on ly
l ine
Ġhas attr
]( ../
m ediate
group s
Ġ` [
face book
or der
Ġd rop
t ypes
w indow
el u
Ġqu ant
æ ĸ
Ġi gn
Ġax is
Ġs cal
Ġbe fore
le ct
w ise
Ġen coded
ire ct
u ff
c r
e os
H ead
itect ure
Ċ ĉ
Ġe ps
C E
Ġspec ified
C L
Ġpr ed
Ġde pth
R e
[ '
ver y
con text
t xt
~ ~
Ġcor rect
ìĬµ ëĭĪëĭ¤
C K
å Ĭ
on es
Ġres idual
Ġthe m
or ed
Ġin formation
fl atten
Ġre fer
Ġì Ĥ¬
Ġc od
í Ĭ
imp le
in et
s mall
Ġt yp
ar ed
ĠD ict
Ġgiv en
ĠS e
lo c
ĠL o
' ]
Ġtim esteps
s v
Ġarg uments
Ġit s
em ent
or d
ãĥ ª
ensor s
ul ary
Ġì Īĺ
l ator
ĠG PT
unct ional
low er
Ġ: ,
le an
] `,
rel ative
Ġ url
ĠĠĠĠ Ġ
ut il
n er
Mask ed
t ransform
m etric
r on
f ill
Ġg o
ä º
Ġm ut
w av
Ġth ere
r w
pa ir
m at
en v
le x
P ath
Ġf ine
Ġf ram
box es
no ise
clo se
A N
g pu
Ġs av
xt ra
Cond itional
ent ial
g ram
ĠS cript
ura cy
E X
ĠP IL
Ġadd ed
ert a
Ġtrain er
call back
a ccelerate
f ul
ãģĹ ãģ¾ãģĻ
Ġcl s
ĠT ransformer
viron ment
ĠS tableDiffusion
l p
r t
ãĥ Ĩ
ĠC lass
Ġre ad
e fficient
us ed
pro pert
ab led
íĬ ¸
Ġd en
ml p
Ġw arning
={ "
Ġw indow
ĠĠĠĠĠĠĠĠĠĠĠĠĠĠĠĠ ĠĠĠĠĠĠĠĠĠĠĠĠĠĠĠĠ
pe at
ĠS ome
s p
com pute
å ħ
im il
ch ar
se quences
Ġ ent
į ¸
Ġex ist
ìĿ Ģ
imil ar
Ġt rans
ë ł
// //
ran k
ĠB ert
exp and
L O
ver age
Ġ íķ
ma pping
Ġ# [
s izes
de pth
Ġp l
ãĥ ©
clu de
u ous
Gener ator
Ġ $
by tes
un ittest
ate gy
n x
Ġ et
as es
ĠT eam
ë Ĳ
res h
s pan
) ):
ê °Ģ
al pha
il on
Ġrel ative
F lax
act ivation
en ch
U N
ur ing
Ġblock s
G E
ern al
è ¿
ĭ ¤
ob erta
Ġn on
length s
eps peed
Ġbuil d
Ġ channels
m atch
s ig
T O
s ampling
Tokenizer Fast
it ies
p ng
ĠB atch
ĠS t
ĠC heck
d iff
ase ModelOutput
Feat ure
umul ation
( __
. /
c ing
d f
æ ķ
re m
train er
Ġ array
U p
s ide
Ġm ode
Ġsupport ed
qu estion
Conditional Generation
st em
s q
pos it
ãĥ³ ãĤ
Ġt ransform
** **
fil ename
ĠIn itial
In put
p ipelines
} }
= _
Ġpre fix
T rainer
Ġtim estep
ĠIn d
P I
ast er
Ġse quences
E x
t iny
Ġt gt
res ize
ew ork
o ptim
ìĬ ¤
! [
Ġs in
tr ing
] ;
en able
m ul
Ġre move
L U
Ġëª¨ë į¸
) `
t rue
b le
d ump
propert y
Ġ( )
æ Ī
# [
h s
ĠL ay
ha p
Ġn umpy
Ġ ..
Ġde prec
Ġtest s
M E
to tal
n ect
For ConditionalGeneration
en coding
Ġg u
Ġpredict ions
st age
Ġb oth
ath er
f ull
Ġs d
q a
ãĤ Ī
Tester Mixin
ãģ į
d ed
ãģ Ĥ
X L
Ġal low
E xtra
Ġdef ined
Ġse cond
Ġinter mediate
edu ce
s umm
D own
sw ith
mb da
Ġpool ed
Ġch ar
Ġcod ing
P ar
p ub
test s
] [
"] [
in to
CH E
M Scheduler
un squeeze
config uration
est s
e v
" }
Ġse e
Ġe os
Ġ> =
etermin istic
ig uous
Ġqu estion
NAM E
Ġf l
Ġê ²
ĠTo ken
U L
ĠC an
Ġres net
man ual
For QuestionAnswering
sc ript
D P
Ġpredict ion
ĠN ote
Ġload ing
ĠIn c
b os
R E
y nam
s ampl
buil der
i k
ul ar
int ernal
ig h
ĠT h
Ġv ae
w arning
Ġtyp ing
s low
en den
Ġl ong
read y
Ġm an
Ġparam eter
Ġdim ension
Ġu int
Ġt ransformer
ĠC h
> ,
um e
ì ľ
e arch
u il
all close
predict ion
ab les
ĠìĤ¬ ìļ©
Un ion
p ip
ca use
D ata
Ġv er
ra ph
Ġj son
ê ¸°
Ġc ustom
off load
ĠP lease
Ġl ora
result s
A v
ë ĵ
Ġtrunc ation
u le
_ {
ĠF ace
LI ST
epoch s
s up
Ġc re
IN PU
Ġp t
ro und
lo gging
Ġx s
Ġp res
// /
(" --
um ber
comp onents
D ep
Ġ Ã
w armup
in k
Ġthe y
R L
C ase
Ġm at
pt r
Ġl atent
control net
Ġv ision
Ġt eam
m er
M S
h as
Ġs er
Ġconst ant
column s
yn c
Ġin stance
Ġra w
f unctional
A I
ight man
Ġinitial izer
I s
__ )
Ġnot e
Masked LM
Token Classification
Ġpa per
For CausalLM
Ġse g
Ġ: ]
Ġlo w
il ation
==== ====
m etadata
u x
c re
ìĿ ¸
u ally
Ġor der
o is
o ptimizer
Ġz ip
ign ature
un ch
ìĹĲ ìĦľ
T emp
Ġun ittest
r en
Ġal ready
ition ing
Ġlo ok
f inal
S peech
Ġ Q
Ġi mg
Ġtemp file
è¦ ģ
le ft
L e
t ree
Ġwh ile
tt n
F low
Ġav oid
struct ure
Ġselect ed
b eta
v ari
Ġj ax
li ke
Ġr ename
bu ffer
res olution
m ultiple
Ġe very
as on
y le
Ġcont in
) `.
C ross
I d
ãĤ ī
Test Case
Ġd uring
e q
Ġkey s
Ġc andle
ri or
Ġload ed
Ġl ine
è ¡
an k
Ġcon d
Ġmethod s
safet ensors
ãģ ĭ
pre v
Ġ row
bs z
ant ic
Ġre present
m d
íķ ł
Ġgrad ient
íķ ´
Ġ( (
Ġbo x
Ġav ailable
ãģĵ ãģ¨
:: <
pi e
normal ize
back bone
Ġp eft
fil ter
bu cket
S tableDiffusion
n b
est ed
ĠM ark
I f
Ġa ction
assert List
i or
t y
Ġl inear
Ġë °
INPU TS
ãģ ı
om atic
cat en
ë ¦
l anguage
Ġd set
ĠS ize
Lo ss
"] ["
un wrap
Ġabo ut
Ġk eras
i er
b ot
Ġse ed
Ġ} ;
) `):
iss ing
åĲ Ī
è ª
A B
ar row
assertList Equal
h or
Ġf ound
ri x
Ġdoc umentation
ĠU Net
check er
Ġm etrics
Ġsu ch
Dep enden
d m
Ġs ampling
ir d
ĠW av
Ġat ol
Ġo ld
im e
P A
Ġd s
d irectory
Ġun cond
Ġbe cause
ST ART
: ,
T ransformer
ool ing
With P
Av ailable
en cy
his per
Dependen cy
c ut
posit ory
Ġvocab ulary
cript ion
N e
P aram
d eta
íķĺ ëĬĶ
âĶģâĶģ âĶģâĶģ
ĠA l
Ġind ic
Arg uments
m id
ì ĸ
Ġtask s
Extra ctor
T E
ic ro
for ce
Ġfil ename
Ġle arning
Ġi ter
Ġ ad
Ġb eta
Not Available
Dependency NotAvailable
py test
D ropout
ĠOptional DependencyNotAvailable
ion ary
prec ision
b f
ut ure
L og
re peat
L P
Ġt able
rw ightman
g elu
ynam ic
D O
pa int
m essage
D ense
ãĤ ģ
Ġspec ify
R oberta
ex port
Ġprev ious
= ["
ma k
Ġ es
h ash
Ġm etric
F T
m em
Ġ à¤
Ġoff set
Ġ extra
f ast
buil t
â Ģ
sh ard
CHE CK
ĠA ttention
orm al
) ).
Auto ModelFor
Ġf ind
la p
str ategy
assert Is
ä¸ Ģ
j ax
Ġl r
Ġt rained
str ip
etrained Config
ĠInd ices
layer norm
j np
è ¨
ched ule
Ġf ree
cl one
Ġnam es
k eras
m m
le arning
Ġal pha
Ġd iffusion
Ġê °
s ource
íķ ©ëĭĪëĭ¤
cont iguous
ĠAn y
de cay
ĠG ener
pro gress
ãĥ ¬
Ġqu e
Ġpo ss
u es
Ġs um
il y
or ary
Ġm ath
ĠLo RA
r ng
Ġ ext
Ġd i
ur se
Ġre mo
ä» ¥
Ġs p
C h
Ġd irect
Ġcon s
Ġ vec
Ġen vironment
Ġmodel ing
Ġth ese
For TokenClassification
vector s
k y
Ġadd itional
w n
ãĥ Ń
Ġthe ir
PT ext
({ "
S eg
tmp dirname
Ġd ummy
c enter
Wh at
] ["
bu g
ug h
R O
LI PText
C om
Ġbe en
Ġo ptim
il ed
a it
Ġd st
patch es
Ġa ccelerate
** .
ch o
Ġwith out
m e
chedul ers
ĠT O
ĠP r
pp ed
) }
ĠC onfig
` )
Ġch unk
é Ģ
token ization
ds et
ok i
Ġs ig
Ġatt ribut
For MaskedLM
on nx
ag er
ĠP aram
Ġmax imum
ĠImage Net
de v
ãĥ³ãĤ °
C ho
G B
per mut
ecut ter
oki ecutter
f ct
Ġs pan
pie ce
Ġd irectory
ãĤ¹ ãĥĪ
ĠClass ification
Ġo ptional
trol Net
offset s
rem ote
en c
Ġ( [`
acc umulation
Ġe poch
a ccelerator
ì ĭ
ment ed
ate g
u ch
co s
mask s
de ep
pa ck
ĠS et
ĠìŀĪ ìĬµëĭĪëĭ¤
A l
Ġh uggingface
Ġv b
Ġid x
cept ion
A ttn
app ly
ar ange
Ġbe am
ãģ§ ãģĻ
Ġì Ħ
Ġup date
S tring
å Ń
ë ©
Ġf p
pro ject
ĠW eight
af e
Ġdeta ils
an s
ro ad
Ġmask s
C A
t s
m ulti
For Image
l atent
lay out
ä ¾
Ġcheckpoint s
res earch
ench mark
Ċ ĠĠ
at ial
Ġ) .
i qu
Ġs peech
qu eries
a w
Ġe v
ìľ ¼
ĠP ath
d istributed
ro ugh
qu ential
ca usal
s z
ìĦ ±
doc umentation
I T
L oader
eg at
ï¼ ļ
soft max
Ġa p
eps ilon
ãģ§ ãģį
s ingle
Ġ à°
Ġs afet
IN T
ìļ Ķ
Ġevalu ation
. <
Ġp la
ĠU se
at er
Ġ adapt
. *
ĠID s
pon se
Ġb est
r y
' re
t runc
ign ore
and ard
Ġst age
Ġpro per
der ed
Ġen able
! ("
ĠP ro
Log its
e qual
g s
w in
Ġde coding
pr ior
Ġmod ules
ı Ħ
re ak
Ġbe ha
road cast
W e
Ġca ched
Ġarch itecture
ĠMark down
way s
n ly
Ġ Z
eg r
i ated
dis able
l et
å ¿
ëĵ ľ
c rop
n ow
Ġus es
as ic
ĠC PU
M ultiple
ist il
ìĦ ¸
Ġm er
Ġh alf
pp er
g it
re move
Cho ice
( |
.. =
Ġ< =
Ġ` --
ĠN ormal
se e
Ġs mall
ĠN umber
sq rt
Ġgu ide
q dm
Ġch oice
B uil
c ul
n ode
ãģ Ĩ
ãĤĴ ä½¿çĶ¨
f unc
st atic
ol s
requ ir
j it
po lation
de epspeed
p g
Ġc lip
Ġre place
Ġcontin ue
" `):
Ġc rop
scal ing
Ġf ull
m y
Ġstr uct
ê³ ł
æķ °
ê ²
Ġclass ifier
Ġs entence
I MA
str u
c ur
er r
co okiecutter
Ġ channel
ãĥ ķ
Ġd eterministic
ĠL e
ĠU s
V alue
p attern
] `:
a c
à ¥
Ġ[ -
wor ds
permut e
B atch
Ġst ream
ter able
en gth
Ġ" .
Ġsc ore
Ġpo int
Feature Extractor
Ġ val
Ġê °Ģ
resh old
è¡ Į
ĠT ext
Ġcall ed
Ġm ulti
Ġre vision
im ent
ois ing
Ġ< /
Ġle arn
om ent
å ¾
Ġ extract
att er
Ġrun ning
Ġpo st
å °
Ġ ar
pl its
Ġ Ċ
is m
`] ):
Ġnote book
h alf
ãģ® ãĤ
start swith
å ł
an swer
Ġn ow
Ġcomm and
} ;
å ľ
Ġpres ent
rel e
¯ ¸
Ġë ĭ¤
NAM ES
å ĩ
è ¯
etect ion
Ġc fg
Ġcontain ing
p df
Ġma p
ĠTensor Flow
spec ific
Ġp ush
Ġpy thon
st ream
ĠT ask
Ġan swer
rit er
unc ased
D irectory
v ar
n ote
ress ion
D im
g l
x s
c ision
ĠC om
Ġsh ift
Ġcorrespon ding
f inet
Ġcontrol net
l in
orary Directory
Multiple Choice
> ",
ĠT est
p il
ĠA cc
Ġtoken izers
t en
st orage
B art
ho ok
c ustom
Lay out
ĠIn st
o v
ĠP ipeline
Ġa uto
() ?;
Ġsh ard
Ġprompt s
ìĸ ´
í ģ
oth er
O P
model name
s pace
PE CT
ĊĠĠĠĠĠĠĠĠĠĠĠĠĠĠĠĠĠĠĠĠĠĠĠĠ ĠĠĠĠĠĠĠ
C ol
! --
( _
` ).
s ignature
---------------- ----------------
]] ]
' ll
vi or
l v
Ġp rior
ĊĠĠĠĠĠĠĠĠĠĠĠĠĠĠĠĠ ĠĠĠĠĠĠĠĠĠĠĠĠĠĠĠĠ
pa ces
Ã ¼
í Ļ
Ġt ake
tim estep
be fore
Ġex p
") ]
Ġb reak
Ġw ay
Ġproper ly
r al
Ã ¡
Ġs amples
[: -
y stem
p ers
path s
load ed
å® ļ
W av
Ġ" "
point s
Buil der
m aster
Ġb os
Ġr etrie
ĠV ec
Ġdirect ly
e y
beam s
Ġsin ce
icro soft
Ġs lice
Ġb ased
Ġdict ionary
z ip
Cond ition
ĠParam eters
token ize
Ġwarning s
us er
Ġ... ,
Ġaut omatic
d es
Temp oraryDirectory
ë¦ ¬
EX T
Ġbatch ed
Ġb el
Ġmo st
in f
se arch
ãģ ¤
ist ant
PECT ED
Ġd iv
loss ary
j pg
ic s
ě [
åı ¯
re vision
pool ed
ĠS ie
< !--
] `
g rid
Ġth rough
)) )
a pi
l n
Ġpredict ed
Ġ Y
Ķ Ħ
æ ¨
Ġ validation
Ġe as
c urrent
ĠGPU s
ĠAd d
m ix
re q
Ġit em
ins ky
Ġprocess ing
ro berta
Ġ} )
Ġ_ ,
T h
le m
Ġcomput ing
g lossary
Class ifier
` ](
c am
and insky
i ed
l lama
cr ete
Ġs ource
co urse
ie ce
Ġì ķ
Ġposs ible
æĪ Ĳ
Ġr ate
Ġus er
Ġfa ctor
t uning
æ ³
Ġc apt
ro t
] `):
Ġid ent
uff le
åł ´
¡ å
Ġh y
al lable
ãģ ¿
egat ron
Ġ valid
Ġs ort
ĠĠĠĠĠĠĠĠ ĠĠĠĠ
{ {
/ >
Ġposition s
b art
Ŀ ¼
I G
Ċĉĉ ĉĉ
cho ices
ff ect
å ī
Ġh ub
apt er
ing s
Ġo pt
our ces
qual ity
col lator
e ar
Ġ zero
Ġd ist
Ġcomp onents
PreTrained Tokenizer
Ġv isual
ens ions
Ġimple mentation
ìľ¼ ë¡ľ
ãĥ¼ãĥ ī
odu ct
mak er
n on
Ġwh at
Ġprov ide
N N
s ure
ĠìĿ ´ë
b ig
ĠA r
tensor flow
DI R
åľ ¨
Ġsav ed
ãĥ ģ
age maker
ff n
] ),
Ġre pository
Ġca usal
v a
u f
Ã ¨
Ġlo c
Ġsh ow
Ġ est
m ath
is es
Param eter
Ġn ull
id es
ĊĠĠĠĠĠĠĠĠĠĠĠĠ Ġ
Ġsoft max
Ġset up
Ġinst ant
I D
Ġpre process
Ġign ored
Ġm id
åł´ åĲĪ
sh ift
ĠTO DO
la mbda
ĠAcc uracy
ãĤ Ĥ
à± į
l er
Ġs imple
res cale
ĠS table
F A
Ġcontain s
-- >
ĠO ption
âĸĪâĸĪâĸĪâĸĪ âĸĪâĸĪâĸĪâĸĪ
note book
and b
ãģĤ ãĤĬ
D Condition
ĠT op
st ore
w arn
Ġpar ent
b n
el lo
Ġwor ks
v ideo
Ġë ³
Ġtim m
~~ ~~
al cul
Ġo wn
l at
ed ge
ĠL oad
Ġ" \
SI Z
ForImage Classification
} /
Ġn et
v isual
at s
Ġvari ant
A nd
å Į
Ġor ig
Ġneed s
Ġdeta il
Ġs yn
h y
s elect
ĠT PU
ĠR un
ĠSe quence
ĠConv olution
cond itioning
il ing
ãĥ ¡
Ġst em
ĠìĿ ´
ĥ ½
Ġd one
ìł ķ
Ġarg parse
v ing
Ġin v
Ġì ľ
const ant
Ġst andard
ĠDe ep
ca ption
ê³ ¼
col lect
Ġle ft
s pect
sh ort
Ġì ¶
ë §
ĠDe fault
summ ary
Un less
/ ',
T raining
Ġs umm
requir es
p art
() `
ist s
Ġpro jection
ĠG et
Ġcomp at
af ter
Ġass oc
I mg
ãģĹ ãģŁ
Ã ³
safet y
ĠM obile
Ġbeha vior
load ing
Ġen v
aseModelOutput WithP
c ard
PO INT
oment um
D A
é ĩ
Ġs peed
em antic
ow er
Ġact ivation
Ġal ways
IMA GE
N ext
ĠB lock
ĠPy thon
Ġv ery
Ġpr et
gg reg
ë© ´
r l
ãģ ł
mat mul
Ġdeprec ated
Ġremo ved
c sv
Ġ) ;
Ġma pping
Ġl arge
Ġy ield
al ty
Ġh igh
) <
G PU
Ġh andle
Ġì ĥ
Į Ģ
ĠS o
o st
Ġë į
í Ħ
Ġch ange
A r
S peed
ë ²
Ġc lean
Ġo per
Pr etrainedConfig
ro gram
ol ic
-- -
ĠE r
Ċ ĊĠĠĠĠĠĠĠĠĠĠĠĠĠĠĠĠĠĠĠ
Ġs imilar
Ġgroup s
M ER
l ines
æ ĺ
Ġm ight
ãĥ ī
ãĤ ¢
ran ch
Ġì ĺ
FI L
ãģŁ ãĤģ
la mp
:: {
Ġac cept
Ġap pro
ì ķ
iv ely
us s
Ġre f
ĠWh en
f w
m as
av ing
ĠEx ample
] ])
Ġs low
un g
il d
par allel
b est
d p
m ixed
ad am
Ġst yle
PreT raining
ad a
Ġ( {
Ġcont ent
fram ework
s ent
to list
Ġa verage
() }
Ġpar a
Ġinstall ed
åĪ Ĩ
m icrosoft
st ack
ra pper
)) ;
or ding
Ġs ent
ìĹ ¬
M P
ãĥ ĳ
ĠD Type
form ers
ines e
Ġback bone
Ġden oising
rate gy
Ġ eta
iter able
' ),
s ha
Ġobject s
Ġabo ve
ĠInitial ize
Ġel ement
Classifier Output
Ġassoc iated
Ġc rate
data class
LIPText Model
> (
d el
il ity
ãĥķ ãĤ
p lay
Ġc annot
() ?
Ġre ference
pl ic
fram es
ak er
Ġdis able
Ġpro ject
For MultipleChoice
extend ed
c le
Ġis s
class method
//// ////
H ub
V I
g in
Ġë §
n s
em o
Ġdoes n
Ġautomatic ally
DCondition Model
ar ization
" />
? ](../
Ġin her
æľ Ģ
i ew
q kv
Ġt qdm
Ġw ere
Ġrefer ences
s m
Ġw ould
CL AS
UL T
r educe
Ġpre cision
ðŁ ¤Ĺ
ph as
St rategy
ŀ ĭ
ë Ł
ra ct
Ġfil ter
resnet s
D is
ĠAutoModelFor CausalLM
ax is
comp ile
a z
Ġc ur
un n
Ġset ting
Ġign ore
cam el
ann el
abil ities
] ))
on s
Ġpro gress
Ġal ong
ãĤĴ æ
Ġw ell
Norm al
ë ıĦ
Ġclass es
edict ion
efficient net
config s
Ġv ideo
ì ¹
finet uned
un cond
è ®
ãĤ¤ ãĥ³
deta ch
è ĥ½
Ġ entity
le ctions
ma ke
Ġí Į
Bert Model
ìł ģ
z en
pro c
p end
r ed
Ġm essage
In stance
temp late
å º
Ġp added
M T
å ĥ
od es
Ġc ast
ĠL ab
Ġres ponse
Ġle vel
" ;
` ],
Ġst ore
ver al
P iece
Ġfol der
åĥ ı
em ents
ĠC ode
A udio
er ature
Ġup d
Le vel
Ġf ast
Ġì Ĺ
Ġinitial ized
open ai
P IL
i ents
ĠH ow
sampl er
Ġm lp
th read
work ers
rele ases
th ing
param eter
v ers
í ĸ
Ġ` `
Ġneed ed
in ish
U S
dist il
bo ard
mp le
Ġde v
/ )
Ġ util
Ġe qual
Ġbuil der
Ġin fo
ĠT rainer
ãĤ »
Co pyright
Ġacc ording
bucket s
Ġbel ow
less M
T rained
er ial
Ġd ie
** ,
Ġ" <
Ġreturn s
ãĥ¼ãĤ ¿
Par ser
camel case
Ġ( :
Ġ[ ],
pr et
con cat
ver se
Ġ& [
Ġp lease
and id
c ent
ĠB y
in v
egr ation
æ¨ ¡å
Ġconvert ed
edu ction
Ġevalu ate
s in
ĠE fficient
Ġin clude
pr od
ĊĊ Ġ
G EN
T able
ĠS peech
"] :
ĠEx amples
Co mp
or ds
Ġd er
ĠPre Trained
p ct
Ġun k
ĠR o
Ġpass ing
CHECK POINT
e ach
r u
íĦ °
F F
Ġ quality
L icensed
De vice
######## ########
Ġtoken ized
StableDiffusion Pipeline
S ize
che ma
IN E
}. "
it ch
Ġre ward
ë Ŀ¼
Ġt ak
For PreTraining
ĠN ot
ãĥĨ ãĤ
B y
ĠM ODEL
A E
{ "
Ġ" __
FOR MER
Ġal t
Ġag ent
od y
Ġmat rix
Ġbox es
la g
Ġ[ '
ĠB ERT
ãĥ¼ ãĤ¯
tr y
caten ate
ãĥ¬ ãĥ¼ãĥ
t rained
or ig
Ġde code
ãĤ ¿
istribut ion
ĠRes Net
Ġcomput ed
en et
ĠF eat
e ck
¤ ĳ
us ic
hap ed
ì¹ ĺ
id er
Ġa b
all back
ĠS h
co gn
ãģĵ ãĤĮ
ãĥ ĸ
fl ash
æĸ ¹
U DA
Ġwh ether
oc al
Ġbe gin
Ġuse ful
Ġus age
Ġth ose
åĮ ĸ
Ġsafet y
å¿ ħ
Ġse veral
Ġet c
s imilar
ĠC ross
Ġbet ter
c ore
t len
CT C
p us
ar r
ãĥ §
Ġv iew
Ġco uld
AS K
tlen eck
s l
¸ ı
å Ĩ
ï ¸ı
ed it
il i
back ward
ãĥĥ ãĥĪ
Ĥ ĺ
Ġs ys
ĠB e
Ġob j
Ġtra ck
Ġb sz
Ġbe ing
ĭ ãĥ³ãĤ°
ig her
der ive
cess ing
task s
" },
est amp
d st
ad e
is y
c li
ro ot
Ġr ank
sor t
Model Tester
Res ult
s g
ĠA PI
co lab
ĠIn ter
wh ere
se m
é ģ
ur al
onf ormer
ign ed
En coding
ï¼ ī
íģ ¬
s chedule
la va
Ġex pect
ä¸ ª
æĸ ĩ
seq len
Ġpy torch
æ¨¡å ŀĭ
} ",
Ġf lax
Ġm ixed
Ġi l
ĠP R
ĠM ake
ca ched
Ġsh ort
sh ared
Ġpy test
Ġchar act
sup er
d b
ch oice
Ġcom mon
ë ³
el se
à° ¿
a a
é ĸ
ì Ļ
Ġse p
Ġlow er
Ġe in
Ġman y
b et
Ġl m
Wh ether
Ġdes c
ĠC reate
e valu
u int
Ġl es
ĠLay er
Ġwor ds
Ġperform ance
Embedding s
ĠDiffusion Pipeline
ç »
or ial
ìĿ ¼
Dim ension
åī į
ig B
ma gen
add itional
per iment
m ult
ï¼ Ī
Ġprob ability
igB ird
in clude
Ġc lo
Ġsig ma
FA ULT
unn el
up lic
ãģ§ãģį ãģ¾ãģĻ
å ¸
an swering
Ġ" ,
pre process
Ġfram ework
g ather
Ġc ell
un it
ave form
ãĥĪ ãĥ¬ãĥ¼ãĥ
v es
Ġc alcul
Ġmean s
R o
ĠN ame
SIZ E
ib ility
port ed
Ġcorrect ly
**** ****
D Type
Ġh and
pr une
Ġp our
lo om
ìĿ Į
C ODE
Ġrequ ests
Module List
D AT
down sample
æ ¬
ut orial
Ġf eed
Ġapp lied
ho to
ãģ¦ ãģĦ
L oad
{ '
å Ľ
u ke
ĠV iT
St ate
Ġê² ĥ
i ence
in ner
ãĤ ³
LM Head
comm and
Ġ emb
en g
b roadcast
ãģ Ĭ
ĊĠĠĠĠĠĠĠĠĠĠĠĠĠĠĠĠ ĠĠĠĠĠ
Ġch o
process es
Ġobtain ed
pred s
et al
Ġla unch
sig ma
B e
t itle
Ġd ilation
Ġen code
nect ion
FIL ES
annel Dimension
row s
g ray
Logits Processor
ãĥĪãĥ¬ãĥ¼ãĥ ĭãĥ³ãĤ°
le ction
ĠB lip
ument Parser
tro py
ëĲ ĺ
i ver
w ait
ĠF ile
av g
OC AB
CL S
æ ŀ
un ity
ĠO r
olut e
Ġover r
ro zen
Ġ( '
un ding
ern els
([ [
ä¸ ĭ
I terable
En tropy
O M
f ield
Ġth read
Ġtoken ize
ãĤ¹ ãĤ¯
olic y
ìĻ Ģ
f s
Ġt a
Ġa bs
ĠE X
Ġpa ck
B lip
ãĤ ·
Ġres olution
Ġcomm it
Ġac cess
K EN
e f
x formers
sd p
] ):
In t
rel u
ol ver
Ġv ers
... ,
) ],
n own
Ġlo op
Ġindic ates
ëŁ ¬
e ma
Ġin fer
Ġg it
ĠRes idual
we ak
å¿ħ è¦ģ
n one
en viron
Ġ" `
Ġdo ing
DI MScheduler
g raph
æ ı
its and
å® Ł
assertIs Instance
Com mon
: <
F N
c ell
it ive
ĠP ooling
ĠLay out
B ase
X LM
m el
ex cept
Ġë ĮĢ
in st
ĠP eft
Ċĉĉ ĉ
ìĦ¸ ìļĶ
p ix
Ġs pace
se p
Ġ{ '
am ma
Ġsav ing
ut er
Ġr en
trans lation
Ġcolumn s
ĠInitial izing
itsand bytes
N o
con cept
f req
c d
å ¯
mo oth
ħ ëĭĪëĭ¤
ãĤĴ ç
Ġcomput ation
l ing
un ter
)? .
ĠÃ ł
åĬ ł
ra g
seg mentation
ded Token
Ġì¶ Ķ
d etr
Ġint eg
Ġ\ \
sw ers
ìĭ ľ
æľ ī
ĠToken izer
Ġsort ed
ĠíĮ Į
K L
h i
å ¼
__ .__
Ġse par
f eed
re ason
¯¸ ì§Ģ
ħ į
istil Bert
N D
reg ression
Ġtransform s
Y PE
] ",
a ug
m issing
th is
Ġfloat s
hap es
b box
h ot
p lo
Ġr ng
res idual
res ume
ê °
Ġc os
ãģ Ŀ
Ġpos itional
u ge
v is
ser ial
l ight
Ġpar allel
p ass
lic ing
O S
p ull
aut h
ĠĠĠĠ ĠĠ
Ġnormal ize
sentence piece
ir ed
U M
Ġmodel o
Ġv ar
os ition
Ġen abled
free ze
æ¬ ¡
i os
m k
ist ent
ä¾ ĭ
Ġp attern
batch es
Ġen sure
ìļ °
flow ing
Ġro und
len der
ĠO nly
Ġq kv
Vision Model
Ġg ot
Ġaut hor
ãģĤãĤĬ ãģ¾ãģĻ
Ġ vectors
ub le
li er
Ġfl atten
Ġnet work
c i
s afe
Ġl arg
Ġsub folder
Ġother wise
t une
Ĳ Ĩ
it es
ug in
Encoder Decoder
Ġnormal ized
ì ²
Ġla mbda
Ġev en
Dis crete
f ig
lect ra
åĩ º
ech n
De ep
Ġcol lections
ãĥ§ ãĥ³
Ġde coded
__( **
Ġne cess
cogn ition
or ies
ĠL ora
bo se
object s
Discrete Scheduler
h ere
Ġm ult
qu et
Ġinitial ization
Ġpl us
st ages
Ġk now
an y
Pr ediction
lender bot
" `,
pool er
ãģĵ ãģ®
ãĥĥ ãĤ¯
r etrie
Ġde pen
qu i
() [
Seq LM
Ġr atio
Ġex ecut
Ġquant ization
ļ ł
Ġsupport s
Ġtrunc ated
Ġpair s
Ġscal ing
c ased
Ġn b
Ġh ref
ta x
Arg umentParser
ggreg ation
Ġm e
PA TH
ĠB ase
nam ed
Ġí Ļ
am l
ist ral
ĠA ccelerator
ĠP adding
cl ud
Vision Config
ç ī
Ġ& &
PU T
Ġinitial ize
Ġcre ated
distil bert
el em
ĠC ol
pen alty
íķĺ ìĹ¬
Ġdoc string
Ġ he
ãĥ ŀ
Ġseg mentation
æ³ ķ
è ĩ
as type
Ġfor ce
nn x
Ġtarget s
ìĬ¤ íĬ¸
Ġd ynamic
th reshold
Ġtr ust
b float
f e
í ĶĦ
Ĥ ¨
s chedulers
ar ies
ou g
Ġìľ Ħ
I mple
c it
m ed
is ible
eg in
DE FAULT
ĠEX PECTED
f ine
g ed
cor rect
] }
Ġ Qu
am es
Ġattribut e
( \
j ust
ert s
Ġpro j
F orm
a cken
v els
ãĤ µ
Ġqu ick
Ġpool er
ãĤĪ ãģĨ
Ġp hoto
us ing
íķĺ ê¸°
Ġag ain
rand n
riter ia
Ġexp and
e ver
et s
ĠM odule
Ġcom bin
ho st
Ġsp atial
t le
v t
Ġr and
encoder KL
par ser
Ġcorrespon ds
Ġcapt ion
] ).
Ġle ad
íĸ ī
H ello
U Net
i ally
Ġf uture
Ġv ia
bos ity
Py Torch
ëĲ ľ
IG H
µ ¬
checkpoint s
ìŀ ħëĭĪëĭ¤
A ct
M obile
R I
end ed
prob lem
LM v
b ugging
st ract
Ġn ode
ĠìĿ´ë ¯¸ì§Ģ
s paces
t pu
ç ĲĨ
Ġh o
]] :
Ġt ypes
Ġst orage
Ġ``` """
Ġin spect
Ġì §
conv next
ĠCon trolNet
c lamp
al s
() );
Ġdef ine
ãģ« ãģ¯
âĶģâĶģâĶģâĶģ âĶģâĶģâĶģâĶģ
Ġs ign
Ġd u
Ġk v
fer ences
ampl er
ä¸ Ń
ĠLe arning
Ġs a
pect rogram
>< /
ãģ§ ãģ¯
ĠDe cay
Ġbu ffer
¦ Ĥ
Ġf inet
Ġp ip
ãĥ Ŀ
Ġhas h
ãģĻãĤĭ ãģĵãģ¨
as us
Ġin side
token ized
ãĥ ¥
u size
Ġm issing
ce iver
Ġel ements
ĠD DP
Ġco unt
ä¸ Ĭ
Ad apter
Diffusion Pipeline
lat est
Ġ" _
Ġre ason
Ġe ffect
tra ck
Ġsyn tax
p ed
ex ists
tr ast
D etr
x lm
ë Ĥĺ
Ġc ard
( ["
Ġse arch
Con trolNet
ch ine
opt ions
_ ,
Ġb ert
Cross Attention
Ġin cre
Ġpla in
å ½
Ġ vector
way ml
Ã³ n
H ugging
m n
t gt
Ġ ,
il t
Ġh igher
Ġgener al
A X
ck pt
ĠM ax
Pro jection
Ġtensor flow
¬ ¸
ä ¿
Ġo p
Ġe fficient
Ġê ¸°
Ġeas ily
) },
Â ł
ĠV ision
ìł Ħ
Ġ ?
Ġs to
if orm
æ Ĥ¨
Ġf mt
re ference
ex ecut
Ġwrit e
extra ction
ãĥĪ ãĥ¼ãĤ¯
çĶ »
ĠDataset s
iqu e
ut e
Ġr est
pa pers
h r
â ļł
Ġr hs
Ġp ers
over write
çĶ Ł
Ġgo ing
ĠStableDiffusion Pipeline
Ne o
W rapper
f lex
l ash
æ Ģ
am W
ãĤ §
ĠI mport
batch ed
iss ues
olut ional
Ġoff load
R un
ì ĺ
transform s
Down Block
` "
a pan
Ġt emb
to k
ĠL anguage
SE P
Ġver ify
Ġtak es
ãĤ ª
ĠL inear
ĠR eg
s plits
et ch
Self Attention
Ġtra cing
âļł ï¸ı
D X
c andle
(" .")
Ġno isy
b ody
ub ic
çĶ» åĥı
L lama
æ ī
de c
Ġe mpty
for ma
ãģķ ãģĦ
æ İ
en coded
Ġset Up
Ġdim s
íĻ Ķ
s licing
w andb
æ Ń
Ġ art
on t
requ ests
O T
Ġdoc ument
g a
r od
x x
å į
en abled
å¤ §
ĠLab els
Imple mented
RAN S
Seg mentation
Ġinstant iate
ìł ľ
Ġf ew
TO KEN
C pu
or al
Ġd istribution
re ater
ĠA s
Implemented Error
l t
Ġa ble
ĠD own
Ġpr une
Ġquant ized
Ġê² ½
ump rod
ord in
\ \
t wo
Ġg rid
Ġres cale
ìŀ ¥
_ ()
ĠPre pare
Ġdownload ing
Id entity
aseModelOutputWithP ooling
P ool
n v
st o
Ġ` '
pos ed
acken d
Ġp ick
ãģ £
Ġìł Ħ
ãģı ãģł
ãģıãģł ãģķãģĦ
R eg
ch at
GEN ET
l one
is match
iel ds
ĠX LM
qui val
c umprod
Ġs om
Ġb box
() ))
Ġdim ensions
wor ks
Ġprob abilities
:` ~
ic ubic
Ġë ¶
ĠìĦ ¤
ĠFeat ures
qu e
Ġí Ĩ
ĠAr ch
Ġview er
ı ¬
R GB
a ux
g or
> =
t ers
ess ages
W arning
to m
ĊĠĠĠĠĠĠĠĠĠĠĠĠĠĠĠĠ Ġ
fa ctory
SE Q
r ust
Ã §
re port
__ }
ess ion
ä½ ľ
ãģķãĤĮ ãģŁ
ĠNot ImplementedError
to ols
Ġse ction
Ġlength s
quant ization
char s
R a
Ġl ess
Ġh ard
ĠP ar
run wayml
l imit
ĠM DX
Ġinter n
ren dered
pattern s
Ar ray
' ],
i um
ë ª
Ġm y
up sample
Ġus ually
ĠSo ft
+ )
N ew
[ ...,
¤ º
· ¸
ĠP E
Ġperform ing
Ġhy per
ĠP atch
AM P
RE AD
ĠGener ation
dered Dict
Ġ annot
Test s
ãĥ³ ãĤ¹
ĠInst ant
Ġnecess ary
B o
d l
Ġi m
Ġìŀ ĳ
Ġext ension
ãĤ ¸
fix t
fo o
Ġnam ed
ĠWeight s
d ynamic
å ¦Ĥ
Ġreg ular
F ile
st and
re ward
Ġimp ro
Ġëį °
b asic
b egin
Ġf ix
Ġa cross
Ġl ines
Ġnormal ization
åĬ Ľ
Par allel
Cross Attn
b r
Ġl ang
Ġqu eries
R ead
ı Ļ
at o
ĠA ccelerate
ĠO NN
ver bosity
Ġwh o
ĠONN X
ç ´
Ġr educe
ĠO pen
eg a
Ġattribut es
ist ory
ĠP er
Ġì ĸ
ãĥ Ĳ
Ġì ĭ
ĠTF AutoModelFor
Ġprocess ed
arg max
ĠA udio
ff ers
CrossAttention s
andid ate
ili ary
apan ese
at us
ro s
Ġd ir
Ġm uch
ãģ Ľ
ãģĮ ãģĤãĤĬãģ¾ãģĻ
ic ial
Ġse em
Ġì ĭ¤
trunc ation
p added
ì Īĺ
static method
W AR
Ġc at
Ġal ign
act ive
Ġëª¨ëį¸ ìĿĦ
C allback
g er
Ġb ig
la unch
ĠA CT
ĠC LIPTextModel
EN D
åĲ Į
Ġscript s
Col lator
S h
Ġt weak
co ords
Ġpred s
ĠPipeline TesterMixin
èĩ ª
gor ith
c s
è ¾
ot tleneck
ãĤ ĵ
Ġst atic
Ġdownload ed
M B
__ ,
ãĥ¼ ãĥĪ
normal ized
æĺ ¯
C ode
f ind
Ġsh uffle
Ġb enchmark
ãĤ ¨
à° ¨
Ġcont ribut
g u
l ish
Up Block
mer ges
Ġcond ition
c ateg
æ Ŀ
ar Builder
cod ers
Ġun a
ĠAuto Config
b l
Ġs cope
Ġre comm
Ġrequ est
sw in
M ax
æ Ľ
Ġo ption
Ġg en
pr oduct
ĠS D
w hisper
Ġp ipelines
Ġsh ared
summ arization
Ġ â
Ġs ystem
ãģĤ ãĤĭ
E IGH
s agemaker
} '
re ferences
ãģ ©
__ `]
Ġcall ing
] `.
Ġb in
__ ":
comp at
æĸ¹ æ³ķ
) ])
Ġ" [
ĠD im
CLAS S
ãģĭ ãĤī
Ġdata classes
ãĥĩ ãĥ¼ãĤ¿
ĠNormal ization
c an
Ġ Ã©
pl us
angu ages
ev ant
framework content
Training Arguments
ĠEr r
d ilation
ì ĥ
prompt s
Ġrel e
assertIs Not
Entropy Loss
al low
scal ed
èª ŀ
L OC
b lip
s n
Ġ um
Ġc pu
requ ency
ãĤ¤ ãĤ
PA RA
æŀ ľ
ĠO ne
Ġvers ions
d le
s chema
id ing
ur s
ir seq
Ġstart ing
cur s
St orage
cor d
åħ ¥
vari ant
Batch Norm
des cription
backen d
ãĥĹ ãĥŃ
Ġgo od
Ġfram e
assertIsNot None
M ASK
ĠA ut
C onformer
est ions
T ransformers
Ġallow s
Value Error
. )
ãģ Ī
OR T
G roup
m ultip
Ġto o
ĠIn put
ari an
Ġback ward
Ġiss ue
ì ¤ĳ
__ .
ire ction
In fo
predict or
ĠCLIP Tokenizer
ĠPE FT
r est
ë °
Ġd ataloader
ĠU p
ser ver
Ġëĭ¤ ìĿĮ
qu eeze
end swith
iv es
Ġinitial izing
c lean
Ġp olicy
trast ive
M ult
S plit
c rate
r ic
Ġweight ed
íķĺ ê³ł
ãĤĴä½¿çĶ¨ ãģĹãģ¦
ĠArch itecture
S ON
y mb
Ġs pectrogram
us ion
ãĥ¼ ãĥ«
Ġstring s
erial ize
Ra ises
c cess
Ġres ize
Ġdown sample
OUT PUT
e RO
paint ing
ä ¼
æ ¸
Ġde epspeed
assert Raises
N E
m obile
n Ã©
Ġa ux
ĠA verage
ĠL et
à± ģ
ê² Į
c ity
id ent
re p
Ġma chine
ĠN e
Loader Mixin
h and
n an
ĠM omentum
ites pace
ç Ľ
Ġd uplic
Ġp e
Ġs chedule
Ġde cay
ml m
Ġerror s
comm it
forma ble
]( ./
ĠDeep Speed
B A
w ik
é ¡
íķĺ ìĦ¸ìļĶ
Ġimple mented
åŃ ĺ
ĠImport Error
O p
le arn
mo st
Ġup load
stru ction
w i
Ġ extractor
on ent
Ġbatch es
I t
r odu
å ĭ
Ġ" $
") )?;
Ġtoken ization
Ġon ce
MA E
Ġscal ar
Ġupd ated
am ed
Ġrel ated
ĠResult s
å° Ĩ
w er
x la
Ġ adding
al phas
Ġin clud
() ),
bo oth
ream booth
ĠTraining Arguments
depth s
======== ========
Ġadapt ers
o lo
Ġt ag
ar se
ad o
Ġpos itive
Ġle ast
Ġdes cription
loc ation
O nly
S win
ot ion
Ġex act
In ter
Ġinher its
b ased
Ã ¶
num ber
`. "
DI A
å¸ ¸
Ġl ink
acc uracy
sp atial
åı¯ ä»¥
Ġf ill
le vels
ĠA pp
Ġdo g
Ġmod Ã¨
Ġìĥ Ŀ
De berta
ĠTask s
ìķ ¼
Ġan other
h et
ĠConfig Tester
EIGH TS
< '
ĠĠĠĠĠĠĠĠ Ġ
Ġres ample
Ġpar se
SI ON
Ġlarg er
oug h
Ġê²½ ìļ°
t uned
f sdp
y aml
ist ep
Ġre al
etr y
VI DIA
ĠEfficient Net
magen et
N G
ĠS E
]( #
app ing
n dim
Ġ layout
an ges
ëł ¥
Ġopt ions
Ġìĺ Ī
P s
(" .
ta gs
ãĢģ `
âĶ Ģ
ãģª ãģĦ
ĠCross EntropyLoss
LMHead Model
st ability
], )
ĠN o
ĠĠĠĠĠĠĠĠĠĠĠĠĠĠĠĠĠĠĠĠĠĠĠĠĠĠĠĠĠĠĠĠ ĠĠĠĠĠĠĠĠĠĠĠĠĠĠĠĠĠĠĠĠĠĠĠĠĠĠĠĠĠĠĠĠ
Ġë° ©
P ix
an ces
ĠL ong
Ġres ume
)? ,
pool ing
dist ance
iqu es
Ġ"" ",
= $
De bug
ĠAd dedToken
S C
v q
Ã ¤
ì Ľ
Ġs imp
Ġin ner
ĠT ype
ens ional
,) `,
O r
Ġro t
quant ize
short cut
æĢ §
P er
Ġm sg
Ġimport ant
ĠM etadata
run ning
à° °
man ager
ë§ Į
mooth ing
Ġre m
ĠI MA
Ġun it
ĠM etrics
ized String
Ġact ual
è¿ Ļ
in ing
ip yn
ud ent
Ġvari able
ipyn b
ķ Į
Ġb it
sem antic
o ps
w l
ç ½
ig ram
reg net
mer ge
f b
l ete
to l
com put
s chedul
Ġw armup
ul ly
Ġtext s
ms g
oc s
erm ark
ìĿ´ íĦ°
ĠTh ese
ordin ates
ĠìĥĿ ìĦ±
h u
Ġp ix
Ġno us
ĠUn i
Ġí Ľ
be it
åº ¦
N ote
st yle
Ġw aveform
um an
ass istant
ist ency
ĠO ver
ĠH ere
ĠX L
x m
at ermark
and as
ĠC allable
Ġex periment
writ er
) ",
s ys
Ġd etect
ĠF LO
eth ing
Ġeps ilon
Img Pipeline
ãĤĪãģĨ ãģ«
(" /
ĠP a
Ġun d
Ń ãĤ¹ãĥĪ
re al
ur ther
text s
Se quential
ãĥķãĤ ©
d eterministic
Ġp ort
à° ¾
Ġí ģ
re at
ES S
inst all
O pen
ic ally
la ub
ers ation
"] ]
âĸ ģ
Ġwrit er
Ġrow s
Ne X
ĊĠĠĠĠĠĠĠĠĠĠĠĠĠĠĠĠĠĠĠĠĠĠĠĠĠĠĠĠĠĠĠĠ ĠĠĠ
Ġaccept s
ãĥĨãĤ ŃãĤ¹ãĥĪ
pe aker
Ġb ranch
ĠC UDA
ĠS eam
tim estamp
Ġrepresent ation
ĠInter polation
M ap
Ġlong er
~~~~ ~~~~
S entence
Ġf x
Ġh aving
ĠS tring
rid ge
åı Ĥ
ns fw
ĠOr deredDict
ĠCol lection
ĠSeam lessM
, ),
L ike
o ken
è §
param etr
Ġch ang
à¤ ¾
Ġover write
Ġprocessor s
Ġpart ic
irect ional
U RL
V is
Ġm ultip
Ġst ill
ĠĠĠĠĠĠĠĠ ĠĠĠĠĠĠĠ
ind s
log it
get her
Ġê ³
sig mas
laub ert
Ã Ń
code book
Ġj ob
Ġoffset s
Al bert
L ora
b ut
]) ;
Ġcol or
ìŀ Ĳ
u on
w ar
ar s
Ġw ra
ĠS win
ĠW ill
Ġno qa
Se arch
ack bone
inish ed
ë ¶
Ġpath s
éĢ ļ
sto pping
C allable
V ER
½ Ķ
im iter
ol ved
de prec
th ed
ĠG roup
mat rix
ãģ ĳ
con ds
pa city
requ est
E lectra
T RANS
ä ¹
æ Ĺ
att ribut
Pro cessing
ĠAuto Processor
read thed
span s
readthed ocs
p ick
t il
Ġs izes
al id
od al
Ġon nx
ĠV AE
pl an
ser ved
po th
ĠAuto encoderKL
Ġcond itioning
ç½ ®
se cond
to ol
adapt ers
Pipeline Output
TE ST
Ġpix els
m os
ĠC rop
æľ ¬
ãĥ¢ãĥĩãĥ« ãĤĴ
diff er
rot ary
stability ai
ì ħ
ro py
Ġcomp let
Ġexist ing
s ync
ĠL lama
ĠI N
res haped
Ġtrain able
with out
? ",
T EXT
c u
ĠB aseModelOutput
point er
lex ity
Normal izer
ĠFLO Ps
U s
r atch
Ġc u
Ġ" ",
Ġmodel lo
Ġre main
Ġre port
Ġv ous
Ġstr ategy
ĠData Loader
Ġtmp dirname
ord Piece
ME AN
Ġsmall er
echn iques
e in
Ġs plits
ion e
Ġc t
ĠH idden
etri eval
Ġdepth s
shard s
ul er
Ġma k
Ġab stract
V A
b log
in ally
Ġth reshold
ĠG oogle
seg ments
äº Ĩ
a il
f alse
§ ĭ
Ġreg ister
Ġ extended
ĠO utput
Ġy s
çī ¹
r is
Ã £
and o
de berta
ĠP ct
tensor board
processor s
tr ust
Ch annelDimension
notebook s
d uration
Ġt erm
po late
Ġv s
layer drop
act iv
mo id
C O
v ation
ĺ Ĳ
Ġm el
pt ions
ĠM ulti
à° Ĥ
ĠK andinsky
Ġbu cket
Ġìĭ ľ
> "
S H
f it
Ġ` .
ĠH f
AS ET
Ġcol late
Ġident ifier
Ġbegin ning
P rop
U B
a u
Ġ ãģ®
Ġ edit
ing er
Ġf aster
Ġn ested
ĠP art
Ġsuper class
vis ed
AMP LE
D Model
å ĳ
Ġ ãģ¯
Ġs afe
Ġf lag
Ġì ²
bu ffers
over flowing
iter al
Ġac count
Ġfl ash
âĢ Ļ
Ġcons ider
ĠCo mp
Ġta ken
/ .
g uid
im al
mask ing
ram e
ĠTh ere
nnx Config
ë ¸
ĠI s
fa il
Ġpre processing
Ġê° Ļ
åı¯ èĥ½
ga cy
gorith m
P lease
g an
pe x
Ġex port
ĠW ith
ĠE ach
over lap
ãģķãĤĮ ãģ¾ãģĻ
xm ert
d ot
i Ã³n
l ink
n ie
Ġ ãĤĴ
Ġt i
Ġde c
ĠS w
pl ugin
Ġsumm ary
Ã£ o
Ġt ri
Ġs ur
Ġ" /
ãģ ³
ta g
EN T
sh ot
cond ition
Ġprocess es
AM E
chunk s
í ĺ
in force
Ġp ot
Ġpr odu
PR E
Ġmer ges
Ġcompat ibility
o coder
s ame
ì Ĩ
Ġs chedulers
ĠC lone
Model ing
eg asus
li es
Ġz u
ĠìĿ ¸
respon se
ä¸Ģ ä¸ª
K ey
h id
y our
è ©
mp s
Ġto gether
ag ent
Ġform att
Ġfa il
Ġpla ce
* .
< ()
F O
Ġb ackend
ĠP osition
Ġdata class
Ġvari ables
evalu ate
ç µ
ç İ
ĠS eg
Ġnum er
Ġë ĭ
Ġcurrent ly
è¨ Ģ
ç ¤º
es h
Ġc onf
Ġf unc
Ġde vi
ST D
ãĥ¼ ãĤ¹
ä¸ º
abs olute
b pe
ex act
ãĥ Ļ
Ġsh util
Ġfunction s
Ġpart ial
BERT a
sampl ers
Ġcho ose
çĶŁ æĪĲ
S tr
U R
g amma
as ync
Ġa wait
ĠR ead
ãģ¾ ãģŁ
rand int
} :
Ġr eduction
Ġl ater
Ġconfig ur
Ġwor ld
normal izer
: ?
N ow
a ps
y ou
Ġp u
ĠConv ert
Ġinteg er
> )
c p
Ġc enter
ĠD DIMScheduler
squ ad
ĠEx ception
Ġtrunc ate
b rid
å Ģ
S emantic
ë ŀ
Ļ ìĬµ
ĠT YPE
ĠD istributed
ĠD iffusers
ĠB art
clu ding
Ħ ı
Ĵ Į
Ġ{ {
åĨ ħ
Ġìĭ¤ íĸī
<() >
k andinsky
Ġm on
res et
con s
ĠV arBuilder
Ġloss es
ãĤĪ ãĤĬ
hor s
L ab
f r
o o
on al
Ġb roadcast
Ġrel evant
å¤ ī
Ġsimp ly
W hisper
a ff
m it
al ign
ĠT rans
ĠC ustom
Model TesterMixin
ãģķãĤĮ ãģ¦ãģĦ
Ġretrie ve
å ĴĮ
in ce
Ġl anguages
pr uned
ĠĠĠĠĠĠĠĠ ĠĠ
Ġs l
ãģ ¹
** :
Ġgener ic
optim ization
Ġstruct ure
iling ual
Ġcompat ible
inger print
Ġto ol
ct x
str ided
con catenate
ĠD ropout
par quet
ãĥ³ ãĥĹ
layout lm
ë² ķ
Ġsent ences
V IS
b ad
r ices
¡ °
Ġoptim ization
{ %
æ Į
Ġy et
ĠW hisper
Ġí ħ
er o
ri end
ĠE ng
predict ed
quant ized
Ġìł ķ
å¤ ļ
A s
T rans
\ .
Ġs top
ĠIn ference
ampl ed
Ġgrad ients
Ġcomm unity
ãĥ¢ãĥĩãĥ« ãģ®
() ]
ĊĠĠĠĠĠĠĠĠĠĠĠĠĠĠĠĠ ĠĠĠĠ
ĠI terable
With Projection
Ġìł ľ
vari ance
ĠPr etrainedConfig
F ound
Ġs ignature
Ġs emantic
Ġm it
// !
Ġe ar
Ġë ²
ag ing
âĸĪâĸĪâĸĪâĸĪâĸĪâĸĪâĸĪâĸĪ âĸĪâĸĪâĸĪâĸĪâĸĪâĸĪâĸĪâĸĪ
each er
Ġsa id
Ġwho le
d reambooth
p ing
oc o
ĠR oberta
Ġë Ķ
Ġro ot
Auto Tokenizer
t i
Ġc ar
() ).
ert ain
Ġg ive
Ġimport lib
B igBird
h igh
r s
Ġs qu
Ġd ark
is file
if act
runc ation
Ġa pi
Ġbo unding
æĽ ´
C fg
P a
ĠĠĠĠĠĠĠĠ ĠĠĠ
Ġì Ĭ
ĠK eras
CHECK ING
ĠCom pute
Ġshift ed
éĩ į
: -
P TION
t ie
th eta
Ġmatch es
long est
nect ed
Ġmer ge
az y
å®Ł è¡Į
" \
d d
y m
Ġp ur
ĠC ho
ĠS plit
DI M
Ġca p
Ġtemp late
Res ampling
EX PECTED
Ġarray s
Ġser ial
Ġsafet ensors
//////// ////////
arr as
bet as
parametr ize
Ġ utils
at om
Ġ_ :
par ed
reed y
ä»¥ ä¸ĭ
Ġëį° ìĿ´íĦ°
T ower
ãĥ £
ĠM B
Ġjust ify
Ġ ke
Ġ íķĺ
Ī ëł
ast ic
AT CH
Ġver bose
ĠPreTrained Model
schedul ing
u ation
en ding
ch en
Ġm ark
Ġb l
ma z
Ġth ree
ĠR ep
ĠG lobal
PARA MS
R UN
å Ł
co unter
Ġ| |
Ġconv olutional
Ġvari ance
uture Warning
Ġintern al
ĠmodÃ¨ le
C heck
H F
o x
ic ode
ot al
Ġg raph
Ġ} );
Ro Former
le ave
ĠG it
ER S
cos ine
v p
un iform
Ġg c
ĠL og
Ġcon caten
Ġbet as
Ġmat rices
Ġepoch s
pend ent
ridge Tower
L D
ro le
ro uter
Ġstr ength
ĠU RL
Ġlog s
Text Config
N ame
Ġ% (
temp erature
Ġtrans lation
Ġcharact er
ĠLora Config
S hape
V OCAB
b el
in line
Ġ' {
sh uffle
è¨ Ń
Ġë³ Ģ
Ġdevi ation
ce il
)) ?;
ĠAuto ImageProcessor
sd xl
stru ctions
< _
A G
M L
h ow
al loc
an h
Ġl hs
ĠIn t
sh ow
Auto Model
Res Net
lib rary
READ ME
compat ible
train able
ãģĻãĤĭ ãģŁãĤģ
Ġad just
ãĥĪãĥ¼ãĤ¯ ãĥ³
' `:
D etection
O TE
Q A
b itsandbytes
i magenet
Ġd ue
Ġ( -
iffus er
Ġí ĶĦ
Text Model
gl ue
dp m
- {
. **
s hapes
ent e
Ġê µ¬
Ġimple ment
Neo X
n ull
ç ķ
Ġm em
ãĤ °
wh ich
Ġdiv isible
Ġìķ Ĭ
Deep Speed
ĠíĻ ķ
ĠíĨ ł
Ġpartic ular
t on
Ġc e
Ġ[ {"
ĠD is
OR CH
ãģĹãģ¦ ãģıãģłãģķãģĦ
Ġíķ ©ëĭĪëĭ¤
M ake
Q U
b loom
æ Ħı
iz z
Ġg ather
Ġy ear
bin s
ãĥ¼ãĤ ¸
an ced
an swers
Ġc sv
Ġb s
Ġ( [
() ):
ãĤ £
ĠS ave
Net V
ëĬ ¥
Ġoff icial
sup ported
DAT ASET
D istilBert
k ernels
s r
Ġ edge
Ġre pr
"] ),
Ġv oid
Ġby tes
wor ld
scal es
( ())
M LP
} _
ĠModel s
ap as
ĠìĬ ¤
R andom
v b
Ġ ãģ«
Ġst able
Ġre peat
Ġun e
sc ience
ä¸ į
ä½ ł
Ġtemp erature
ĠRe qu
Ġrem ote
D o
M in
f x
f use
m egatron
t ual
Ġr edu
im ation
im odal
Ġh el
ob il
tain s
comput ed
as se
Ġc uda
ert ed
li ent
Ġav g
ĠSe q
Ġdeprec ation
deta ils
lv p
í ı¬
embed der
). __
Ġë ķĮ
fram e
Mult istep
obil enet
Ã ª
Ġs w
al con
Ġf ixed
Ġ" ")
Ġpr oduct
Ġtim es
Ġch anges
Ġuncond itional
Int egration
M aker
V ideo
b as
al bert
ĠB uil
ĠN VIDIA
In d
Ġcheckpoint ing
åŃ ¦
Ġ\\ (
Ġsom ething
l s
ct c
Ġst ored
`] :
MA X
) }")
E fficient
S R
b ranch
c ies
f mt
or s
ãģĦ ãģ¦
Ġfram es
ãģ£ ãģ¦
Ġë°© ë²ķ
s uch
å ¹
Ġc r
emb ert
(" \
Ġunder stand
Re f
AB LE
plic it
L et
p at
p lexity
us r
de pendent
age Maker
ĠRes ources
emo ve
wl ViT
C I
n odes
t ri
or ing
st op
ĊĊ ĠĠ
ĠN um
prob ability
ĠAd apt
CA TION
K E
in ator
Ġs q
com b
Ġpoint s
ĠìľĦ íķ´
g o
æ ł
Ġs end
Ġs ampled
Ġ" -
pe g
pre fill
Ġint rodu
Ġj o
dis k
Feat ures
äº ĭ
trunc ated
F E
L azy
V it
Ġc are
id ia
Ġde ep
emb er
conv s
Ġweight ing
Ġ< <
Ġ. /
Ex amples
med ium
multip lier
NeX t
L at
N umber
c f
Ĥ ´
al ity
ch inese
la ce
Ġl ik
=" <
}. ")
Ġdiffer ence
ĠLayer Norm
Ġsto pping
C annot
H E
P S
Ġc ateg
ĠD es
Pre Tokenizer
Ġact ive
Ġscal ed
Path Like
Ġexist s
æı Ĳ
Ġho ok
> #
T ime
a ction
im es
Ġres ized
ĠAuto Model
ãĤ» ãĥĥãĥĪ
ĠIMA GENET
il inear
ĠF S
Ġprob lem
Ġpl an
Ġfree ze
uss ian
Comp Vis
æ¬¡ ãģ®
T PU
r at
ch ans
Ġex pen
Ġcl one
seg ment
ĠAttention s
Ġcharact ers
Multistep Scheduler
g p
n ested
Ġ attr
ãĥ³ ãĥĪ
St ream
Lo gger
And CrossAttentions
EncoderDecoder Model
b nb
Ġc ases
str ength
Ġal phas
Ġíķ ĻìĬµ
Ġì§ Ģ
Ġsign ific
Ġannot ations
ensional ity
t ed
t ar
ç §
Ġ put
le ar
am b
Ġl at
Ġre gress
ĠS elect
are a
ĠF utureWarning
Ġsc ratch
: ])
L a
Ġb f
Ġdef ining
For CTC
ëł ¤
c ro
p b
t ied
é Ŀ
assert Dict
run time
Ġatt end
tra ce
oken ized
P ER
T v
Ġb nb
la ion
Ġres izing
ĠG uidance
Ġ`( {
Ġevery thing
íĻ ĺ
Ġoper ation
ND MScheduler
BA CK
assertDict Equal
n t
av ed
etermin ism
s pa
Ġ er
Ġne ver
Ġout side
Ġí ĺ
ĠRun time
d etection
Ġ ~
ĠD ummy
Ġj it
ĠCh inese
ein sum
maz on
C uda
i ou
s uff
ë Ķ
Ġd at
ĠA ss
Ġma ps
Ġkey word
ãĤĭ ãģĵãģ¨
LA X
M y
b enchmark
« ĸ
è «ĸ
Ġto k
cod es
emb d
ill ation
Pre LayerNorm
Ġ{} ",
ĠRe LU
ĠCho ose
B aseModelOutput
Ġb icubic
am lessM
up er
AS T
tr l
iter ator
PE FT
æĸ °
Ġoptional ly
S W
Ġc ro
() [:-
Ġ[ (
de bug
}. {
ìĿ´ íĶĦ
fig caption
: ],
M ode
è Ģ
Ġf ully
Ġa m
us oid
Ġpath lib
éĩ ı
sent ences
Ġdesc rib
ĠAut hors
i ating
lo op
ma ps
(" ./
log in
rg b
Object Detection
ins ert
FORMER S
Ġd as
ĠM apping
Ġmo ck
Ġregress ion
/ {
c v
} >
Ġs agemaker
Ġc andidate
Ġr tol
mo ck
arch ive
Ġprov ides
ĠìŀĪ ëĬĶ
ĠSpeech T
elem etry
H ow
x ies
æ Ĭ
Ġ ě[
Ġsh are
ãģĻ ãģ¹
Ġmod ified
Ġdeprec ate
Ġar ound
VIS I
list dir
Ġcall s
Ġpatch es
ãĤ¿ ãĤ¹ãĤ¯
e b
k l
n ers
p po
} \
é Ļ
Ġd Ã©
Ġw ar
im ate
po lic
ĠD P
pl at
fil ters
Se amlessM
Ġpo inter
Ġreg ion
æİ ¨
ãģ¾ãģŁ ãģ¯
us age
ĠB PE
ĠData Collator
ĠEn code
ëĿ¼ ìĿ¸
polic y
O nnxConfig
P Y
S ome
W EIGHTS
s lo
as ing
Ġconv ersion
Mix er
Ġcode book
ain Layer
Ġfl at
éĸ ¢
Ġoverr ide
serial ization
M ulti
| >
ent ropy
vel op
K V
M O
b ers
ĠA I
Ġth ings
ool s
Ġadd ition
Ġinter polation
Ġretrie ver
Lab el
Y P
g ml
r eduction
} `
é ¢
ĠS ample
ĠF lash
ĠR E
ĠH ash
Ã© r
ãģĹãģ¦ ãģĦ
******** ********
execut ion
) ["
I C
V i
å Ļ
Ġt ied
and s
ĠN ew
Ġup sample
ĠDe coder
Ġìŀ Ĳ
deep copy
ĠZ eRO
Ġiss ues
inforce ment
Ġd ense
ãģ °
Ġwith in
ĠB igBird
com e
script s
éģ ©
è¨Ń å®ļ
s es
y u
en e
ch ild
Ġde bugging
ri es
ĠF ast
Ġì °
Ġë ©
Ġact ually
Ġbuil t
íķ´ ìķ¼
Read er
suff ix
* )
load er
ta p
ìĹ ħ
äº İ
Ġhy poth
Ġdepen den
S et
d pr
g ent
ãĤ ı
ĠS ince
Ġcon cept
ĠE mbedding
aseModelOutputWithP ast
quival ent
curs ive
P eft
S ee
pe ak
ĠD PR
TI mage
ĠJ SON
big science
()? ,
CODE R
F rame
g pus
é ħį
Ġw on
up per
ri v
cal ing
Ġan swering
Ġass ign
åĭ ķ
è§ £
t ables
Ġtest ing
Ġinter face
target s
ĠPadding Strategy
Ġrand n
LOC K
deprec ated
B E
un used
ãĥ ł
Ġg pu
Ġre pla
Ġen c
ĠE valu
ĠDe berta
Ġitem s
ìĿ´íĶĦ ëĿ¼ìĿ¸
B PE
h istory
Ġs lower
ĠS queeze
Ġse ctions
os en
iv ed
Ġí Ĭ
Ġscal es
sampl ed
Ġcre ating
ĠUs ed
ìĺ ¤
ismatch ed
ĠíĽ Īëł
" })
Į ìĬ¤íĬ¸
Ġw andb
Ġun safe
Ġcom e
mo unt
æķ ´
Ġbin ary
ĠPa per
D ING
G S
M an
f lo
at ely
Ġi de
Ġd id
Ġm atter
ĠO ff
(" _
Ġon es
LI mage
Ġqu estions
def ics
ĠAuto Pipeline
ĠEng lish
D rop
O ne
S ampler
X X
g round
h ip
¢ º
or er
al es
se quential
Ġr ather
ĠF rozen
ĠD E
pos es
Ġë ¬¸
ãĢģ [
Ġch ild
rel ations
CLAS SI
C LIPTextModel
ĠT able
il u
Ġtorch vision
ĠV OCAB
Ġ' .
read er
ë¥ ¸
Ġimple ments
LO W
ĠConfig uration
Ġappro pr
Load ing
Ġf riend
Ġm ade
Ġ( *
to ur
ir s
load s
Ġal gorithm
FI CATION
ĠLayout LMv
Ġlo s
OC O
Ġact iv
ãĥĩ ãĤ£
åĪ °
Py thon
Ġinher it
retrie ver
LImage Resampling
I MP
n eg
s k
or ks
ĠT echniques
de it
Model Test
Ġì Ĩ
parameter ized
usic gen
W ar
Z ER
ç ¿
ĠD o
ĠR emove
ca pacity
ĠCon nection
ĠCON FIG
Not Found
gpt q
has attr
Ġseg ment
Ġpack age
ìĥ ģ
TImage Processor
B F
B ackbone
E nd
c uss
t utorial
Ī ìĿ´
Ġconfig s
ĠM ix
ĠE poch
Ġtra ce
Ġacc uracy
Ġëª¨ë ĵ
Ġad v
> .
v ide
en ames
Ġi st
Ġd ans
Ġb ad
ĠS ageMaker
Ġun expected
Ġmo ve
Ġhyper parameters
iteral include
Ġsignific ant
) |
M ainLayer
Ġ >>
il es
Ġcon catenate
ly ing
conv olution
ib i
ë¡ ł
Ġsu ff
è¿ ½
ble u
Ġëį Ķ
CLASSI FICATION
A t
h fo
w d
la ck
F S
M o
j ob
o lean
Ã ®
è £
ìłģ ìľ¼ë¡ľ
Ġexpen se
j a
è ½
ë į
un pack
Ġpass es
Ġch at
process ed
ãģ¾ ãģĹãģŁ
ë¡ Ŀ
ev ent
ì² ´
Ġa vec
ĠDe fine
Conv ert
ĠStableDiffusion XL
ĠGener ate
æĿ ¥
Ġrele ase
NotFound Error
P P
m obilenet
t d
w as
å ±
in ov
es is
ĊĠĠĠĠĠĠĠĠĠĠĠĠ ĠĠ
assert False
Ã© s
do uble
Ġsub class
Ġquant ize
ãģĬ ãĤĪ
ãģĿ ãĤĮ
ìĨ Į
ĠEpoch s
¹ Ħ
st ats
Ġf unctional
Ġf lex
ic le
ab ly
Ġìł Ģ
Ġrepresent ations
paint Pipeline
-------------------------------- --------------------------------
Ġpret raining
cit ation
Ġíħ ĮìĬ¤íĬ¸
c ar
r ename
u o
Ġ ĊĠĠĠ
ed ia
ch ie
ig lip
Ġm et
ãģ ¡
ìĹ Ń
à¤ °
Long former
Former Config
sig moid
Ċĉĉĉĉ ĉĉ
å¯ ¾
Ġì¶Ķ ê°Ģ
fixt ures
O ptional
c oco
ch astic
ro ll
is or
ĠS cheduler
initial izers
è¿½ åĬł
ãģĬãĤĪ ãģ³
C UDA
P os
s yn
Ġp h
ĠE rror
Ġmask ing
In itial
ĠArg uments
ĠEn coder
ãĥķãĤ ¡
c b
Ġs n
it u
ma y
iv idual
Ġchunk s
SC RI
ĠíĻķ ìĿ¸
b its
Ġs ol
Ġf e
Ġse quential
.* .
à¥ ĩ
ĠMobile ViT
Ġcalcul ate
ĠDim ensionality
. \
: .
: |
B aseModelOutputWithPooling
a ud
h andle
o ft
ra b
Ġex pert
ĠN et
Ġ: -
ĠDe pth
ug ment
ph ab
ĠíĮĮ ìĿ´íĶĦëĿ¼ìĿ¸
Ġdepen ding
al k
ĠS pec
Ġv on
ST AN
ãģ¾ ãģĽ
ĠX LA
Ġvar ious
ãģ¾ãģĽ ãĤĵ
c er
am o
ub e
Ġapp end
An y
ëĲ ©ëĭĪëĭ¤
æ³ ¨
ãĥĨãĤ £
Ġsq rt
ãģĻãģ¹ ãģ¦
åĻ ¨
A C
k r
ma e
Ġ` _
ĠH F
EN AME
Ġimp l
Ġrandom ly
Ġdes ired
Ġkeep dim
MS olver
plo t
Ġduplic ate
ut h
Ġb ot
Ġw er
Ġa mount
Ġres et
Ġres pon
ĠCo py
ĠDe vice
Encoder Model
Ġìŀĳ ìĹħ
h n
ol ding
ding s
ub lic
à° ²
ãģĻãĤĭ å¿ħè¦ģ
PO SI
Ġev ent
Lat n
G LM
S D
Ġd est
ĠD istilBert
pres ents
ä¿ Ŀ
Ind ex
c m
ce ed
ĠP ixel
Ġan swers
ba il
ian o
ful ly
pack age
Ġëĭ ¨
, "
P atch
b rand
c um
d etect
Ġs ymb
et ime
ro pe
Ġm ix
ãģ ĺ
ĠA c
gg ed
ĠG rad
Ġmod ify
ĠAd am
pair s
Id x
Ġremo ving
Ġë¶ Ħ
G D
R ES
ê ·¸
Ġ` __
ĠO ther
Ġlist s
B ATCH
N ET
N UM
æ ĥ
Ġt utorial
ar ding
log s
DE R
Ġ... ]]
lower case
LU E
shard ed
ĠDefault s
Ġrepr odu
Ġë© Ķ
ales force
f used
Ġin p
Ġset s
loss es
light ly
è¨Ģ èªŀ
C PU
z h
Ġb itsandbytes
Ġa chie
ve z
om ial
ĠL R
assert In
ĠM LP
Ġind ent
with code
Ġsu ccess
ãĥĥ ãĥĹ
Ġindic ate
mk dir
a ggregation
i ation
} ]
ãĤ ½
ĠA tt
Ġres olve
ann y
cfg s
acc ents
sv g
Ã¼ r
papers withcode
Semantic Segmentation
> "`):
I ter
T R
u er
« ĺ
é «ĺ
Ġd eterm
(" `
Ġres haped
Ġseq len
itect ures
Ad d
Ad amW
ëĵ ¤
Layout LMv
Ġfinet une
Str uct
phab et
M etric
ç ®
ãĤ Ń
Ġma int
ĠCon d
fl at
ĠAutoModelFor SequenceClassification
Ġes pec
Ġà¤ ķ
Ġappro ach
J apanese
as r
ar ize
ĠM ore
Ġgener ating
Ġconv olution
../ ../
ĠìĤ¬ìļ© íķĺìĹ¬
Ġë° ı
éĢ Ł
Ġloc ation
ê° ľ
mn li
äºĭ åīį
) ](
R OR
c riteria
d og
dim ension
Ġlog in
(& [
by te
ĠìĿ ¼
Ġacc umulation
Form ers
ĠSoft max
Ġchang ed
: "
B u
v ent
en n
Ġb asic
Ġprint ln
tra cing
ãĥĨ ãĤ¹ãĥĪ
het Net
T T
as array
Ġd ot
ĠT rain
)) ?
ĠM egatron
ust er
erm an
ĠCo lab
Ġro uter
Ġpub lic
ãĥ¢ãĥĩãĥ« ãģ¯
Ġpl t
ĠUs ing
inf os
ĠUp date
' ve
f requency
n ess
s ilu
in version
Ġf ont
ation al
ck er
ĠI gn
à° ķ
ne ar
ä» ¬
åĲ «
Ġloc ally
cle ar
pe ar
Ġg r
order ed
Down load
x y
å ·
or ical
Ġf req
ĠT EXT
pre processing
ĠN ow
eta in
Pro mpt
cr im
Ex ample
ãĥŃ ãĥ¼ãĥī
ĠĠĠĠĠĠĠĠĠĠĠĠ ĠĠ
Ġcombin ation
A TION
b on
t ile
ch ain
ĠF rom
ĠD ec
Ġat om
AR Y
çļĦ ãģª
Ġlib r
inter leave
ĠBatch Encoding
ĠHow ever
" `.
Ĥ ¹
in valid
Ġb r
cod ataset
pr uning
Ġpro bs
Ġpro posed
fa irseq
co codataset
Ġpr Ã©
Ġ: ],
ä¾ Ľ
ë¸ Į
A ss
A ccelerator
O n
S mall
s parse
z ha
() }"
ĠT ime
ĠL LM
normal ization
ĠAd amW
ãĥ¼ãĥ Ģ
ĠJ AX
Ġlearn ed
rat ios
riv ate
? :
o ss
Ġs eries
Ġin cluding
um ing
ct est
qu ick
up cast
Ġë ¡
umul ative
Ġapply ing
US AL
mobile vit
Ġct x
usoid al
é Ľ
Ī ìĹŃ
on ut
Ġg l
Tensor Flow
ĠAutoModelFor Seq
CA USAL
evalu ation
VER SION
Ġë¡ ľ
D DIMScheduler
f uture
m r
ĠT otal
pro to
(" <
Ġres pect
scal ar
non zero
ĠOpen AI
B IL
F unnel
b h
d irectional
i els
ì ¶
ĊĠĠĠĠ ĠĠ
et ition
id ence
Ġas ync
ĠOptional ly
col or
Ġ/ >
unct uation
Le arning
ãģĵãĤĮ ãģ¯
é Ł
í ĥ
Ġan al
Ġë ıĦ
array s
olut ions
ë³ ¸
P l
b b
Ġp age
Ġre c
Ġco st
Ġcomp are
ĠCon struct
unct ools
CLIP Tokenizer
Ġìķ Ħ
} _{
ra Ã®
Ġa ggregation
ãĥ Ĭ
Ġst ages
ĠD ense
ew orks
def ined
ich t
Ġread er
ĠCh annelDimension
Ġinclud ed
Ġmak es
runcation Strategy
may be
H ere
h al
w lv
Ġre p
ill ed
Pr etrained
window s
è¾ ¼
attribut es
' ])
L anguage
Ä ł
at ural
Ġf am
Ġm usic
is dir
Ġ` -
Ġl icense
ep ar
sub word
Ġpart s
spect rogram
################ ################
ĠUni Speech
Ġappropr iate
Ġsuff ix
D PR
P egasus
a ussian
f etch
Ġare a
idx s
Ġembed ded
Ġtrans pose
Ġíķ Ħ
Ġlook up
Reg Net
tap as
O PT
s im
in p
ra ises
Ġr ust
is instance
Ġv it
ĠD rop
Ġì ļ
Bert Config
Ġíķ ´
æĪ ĳ
Ġdev ices
plo y
G I
L L
T ORCH
Ġc ut
Ġe qu
ĠN OTE
ib li
ER ROR
lic ed
tmp dir
Ġmatch ing
ä» ¶
TS Mixer
Ġìľ ł
å¦Ĥ æŀľ
Lazy Module
' d
P AD
s aved
Ã ł
in paint
ch ange
ro uge
Ġn eg
ĠV i
attn s
èª į
ãģ§ãģį ãĤĭ
mix er
sort ed
½Ķ ëĵľ
c rib
· ãĥ§ãĥ³
Ġ ge
it ation
ĠC re
uto ff
RA TION
grad e
íķĺ ì§Ģ
(' --
Ġencoding s
facebook research
UL TI
CA CHE
æı Ľ
Ġrecomm end
activ ations
S imple
j s
Ń ç»
Ġp d
Ġp op
ul ate
ĠV alid
Ġë ĺĲ
wra pped
QuestionAnswering ModelOutput
íģ °
Ġmid dle
æĺ İ
è® Ńç»
ĠDDP MScheduler
åħ¥ åĬĽ
è®Ńç» ĥ
, ))
h older
t qdm
£ ¼
Ġ ãģ§
Ġh is
all en
Wh en
Re LU
wik i
Ġear ly
Ġlik ely
( `
( ("
d q
ar ing
Ġp ou
Ġto ols
ĠC lap
Ġì »
** *
Res net
Ġskip ped
Ġsig mas
aw ait
Ġupd ates
seqlen s
DAT A
M istral
n lp
q k
ë ¬¸
Ġt eacher
Ġd a
th resh
com ment
iv ers
Ġind ividual
ĠModel l
AT T
BACK END
$ {
d at
æ į
re pr
ĠB ark
Ġus ers
ĠU SE
pla in
std out
ĠInd ex
åĩ ¦
è¯ į
gl uon
fw d
uke box
ed irs
re c
ter n
col s
ech an
optim um
Ġser de
super vised
ĠQu ant
ĠDown load
Ġformatt ed
E r
S table
i en
o ise
w atermark
å ķ
Ġs hapes
Ġp rivate
oc ast
Ġres olved
Ġend point
initial ized
íĬ¸ ë¥¼
dump s
Ġallow ed
aux iliary
Ġaux iliary
' `
/ %
g ate
es m
Ġc ute
Ġ" ./
la gs
Ġ* =
ĠD DIM
ĠB aseModelOutputWithPooling
In paintPipeline
pen ame
ng ram
Ġ`" <
te ach
ãĤ¤ ãĥ«
ting s
Ġperform ed
inter polation
Attn Processor
Ġexpect s
Ġsepar ate
ĠìłĢ ìŀ¥
D B
L S
l ins
µ ľ
an a
Ġm essages
up LM
ĠR etrie
set up
ìł Ģ
Ġdis k
te Level
Ġpur poses
é ĥ
ê ±
Ġi p
") [
ĠO PT
Ġconfig ura
ĠM Bart
Ġstr ides
ĠRes net
ĠWh at
Text To
Ġdis abled
nect ions
è¡ ¨
ĠBe it
ĠëĮĢ íķľ
ħį ìĬ¤íĬ¸
\\ )
éĥ ¨
C an
M emory
N O
R ep
S pec
S cript
m and
u k
ì Ĥ¬
Ġ em
ĠS hape
Ġì ¤ĳ
ĠM emory
." },
Ġbuil ding
:] ),
Ġass istant
LIPText Config
Th ere
ãģĿ ãģ®
ĠReg Net
MB ED
ĠíĽĪëł ¨
G en
T YPE
e very
Ġs i
Ġh app
ĠP PO
Ġstr ip
Ġcomp lete
Qu AD
Self Output
mak edirs
åł´åĲĪ ãģ¯
nv idia
ëª ¨ë
hand ler
pick le
ĠRuntime Error
) }."
Ġs ide
Ġc lamp
íķĺ ëł¤
Res ponse
ãĥ© ãĤ¹
Ġabs olute
Ġrecomm ended
f ba
r hs
æ Ķ
st atus
Ġp lay
Ġr ed
Ġa ud
ĠT im
ãĥ Ģ
Ġcon trastive
Ġun til
ĠB lenderbot
pos itional
index es
ãģ« ãģ¤
sh ould
json l
flow s
Ġarch ive
ded ent
ë© °
Ġstream ing
ĠPreTrained Tokenizer
ë° ĺ
Inter mediate
ĠPart ial
D DP
L INE
an c
Ġp as
Ġp ower
Ġw rapper
Ġ* /
de bugging
num el
ca p
Ġcomp onent
ä½ ķ
Encoder Layer
Ġman ually
Roberta PreLayerNorm
var s
Ġseem s
lins pace
: ",
S pan
a o
d dpm
f lip
r ong
Ġd etection
it tle
Ġp en
"] }
ud o
Ġê ·¸
Ġdis play
åĪ Ĺ
Ġent ry
rele ase
Ġë³ ´
ä½ľ æĪĲ
åĩ¦ çĲĨ
åķ ı
G G
I O
b d
n f
é ľ
Ġ ess
Ġf unctools
Ġin structions
ight ly
ĠS am
Ġì µľ
ĠR L
ĠTF Model
Vec Vision
ãĤ¯ ãĥĪ
ãģª ãĤĬ
layoutlm v
a ched
d it
Ġf urther
Ġb pe
Ġa uf
im ator
Ġh ost
int ing
Ġst ack
Ġre ce
ĠS T
=" %
). "
Ġset attr
Image Classification
ãģĹ ãģĦ
comp let
elect ra
Sequence ClassifierOutput
Lo RA
ĠCLIP Seg
Ġdon nÃ©
Ġread y
Ċĉĉĉĉ ĉ
Ġtrack er
XLM Roberta
æŃ £
P iano
s ession
he ckpoint
Ġ{ (
co ordinates
ĠF lava
load ers
Ġë ıĻ
Ġne ural
ĠAl bert
ãĤ¤ãĤ º
ĠType Error
ĠOver view
flo or
C C
I DE
Ġs peaker
Ġg amma
IN FO
Token ized
Ġsup p
ser de
Re qu
ì² ĺ
ris peech
éľ Ģ
= ("
z ione
ç Ħ
Ġm echan
ent ially
ĠT emp
ip ublic
Ġst at
res next
Ġì ½Ķëĵľ
per form
Ġë ĵ
à° ¡
Ġretrie ved
Ġoverr idden
ãģ© ãģ®
ãĥĩãĥ¼ãĤ¿ ãĤ»ãĥĥãĥĪ
differ ence
ĠíĨł íģ°
N OR
l int
¦ ¬
ĳ Ĳ
in fer
Ġc ertain
Ġ" ".
__ `
ĠC T
Model s
Ġnum bers
os mos
ĠM T
ant e
cor ners
Ġent ire
Ġresnet s
OP EN
andid ates
Ġì¶Ķ ë¡ł
POSI TION
D ual
ç Ĥ¹
re plic
Ġin s
Ġ- =
ĠL i
Ġe ma
ĠR ag
ocab ulary
Ġ... ]
Ġch ain
ll b
ĠDe f
ĠTensor Type
ãģ¨ ãģĹãģ¦
sub Test
exp erts
Ġdel ete
ãģķãĤĮ ãĤĭ
è£ ħ
< (
p m
p x
å ¢
ë ıĻ
ext ension
up d
(" -
pi es
inter polate
opt ic
Input Type
ev en
åį ĺ
War per
M ULTI
g ine
s ion
on d
Ġin f
iz able
un a
Ġg reater
ĠA ct
Ġre presents
ĠO n
vocab ulary
ĠPy Result
ãĤ¯ ãĥ©ãĤ¹
UN K
âĶģâĶģâĶģâĶģâĶģâĶģâĶģâĶģ âĶģâĶģâĶģâĶģâĶģâĶģâĶģâĶģ
ãĥķãĤ© ãĥ¼ãĥ
fba ipublic
ãģ«ãģ¤ ãģĦãģ¦
ĠTFModel InputType
fbaipublic files
w s
z a
Ġs paces
ĠC lvp
che me
ĠV isual
DE SCRI
ĠWh ich
ld m
ìĭ Ŀ
ĠMobile NetV
Ġround ed
f ingerprint
p c
æ Ļ
Ġb are
ãģ ļ
arg v
ĠF irst
)) [
ĠB ridgeTower
get attr
Ġpre pared
kip edia
TF PreTrainedModel
XL Net
ĠAdd itional
Ġoper ations
aseModelOutputWithPast AndCrossAttentions
relations hip
Bu ffer
DESCRI PTION
A ll
E le
E CE
] <
} -
ħ ëł¥
in struct
Ġd ate
form att
Ġun ique
ĠK ey
WithP ast
ãģ®ãĤ ³
Ġshard s
aps hot
ĠBuil d
ĠíķĦ ìļĶ
L ength
Ġc lear
Ġh ad
de coded
Ġ) ?;
co st
Ġcom b
Ġlog it
Bert ForSequenceClassification
we b
PI ECE
ynam o
aw s
ĠSD XL
MSolver MultistepScheduler
F lash
c onf
f usion
et te
ãĥ ĵ
torch script
ĠO ptim
pa per
Ġë Ĳ
Ġë ł
Ġpool ing
ãĥĥ ãĥī
Ġíķ ¨
Ġeas y
ĠSh ould
ĠíĮĮ ìĿ¼
ãĤ¤ãĤ ¶
teach er
S M
w aveform
el ement
re mo
Ġnormal izer
Ġdi ag
dev ices
ĠPro mpt
vers ed
Ġutil is
aff ine
p drop
en coders
ĊĠĠĠĠĠĠĠĠ ĠĠ
Ġf it
Ġm eta
se cut
Ġre use
ect or
ĠM o
ĠB ut
ifi es
mb art
ET R
Bert Tokenizer
å® Į
ĠCom put
(".") [-
ĠApp ly
Us ing
Ġpot ential
) *
K WAR
W S
s a
u c
en umerate
Ġn odes
ĠO bject
Ġk ernels
à± ĭ
annot ation
impl ify
!(" {
Ġcho ices
CLASS ES
KWAR GS
C TION
S w
V IT
Ġd l
Ġ` {
rain t
Ġof ten
Ġcon nection
co ura
Ġun set
Ġby te
OC ESS
De fault
Qu ant
ä» »
ĠEn coding
Ġwork ing
Ã§ Ã£o
fixt ure
éŁ ³
C riteria
l hs
Ġf ields
Ġe quivalent
Ġex plicit
ow l
arch itecture
Ġ% }
Ġgrad s
ĠAl ign
ë² ĪìĹŃ
ĠEr nie
categ ory
olo s
TRANS FORMERS
ãĥķãĤ©ãĥ¼ãĥ ŀ
# !
> ()?,
M essage
m essages
r as
Ġf used
de b
tim es
pan sion
è¿ Ľ
ãĥģ ãĤ§
å¯ ¹
Man ager
: %
M etal
R ST
b ird
r etain
å §ĭ
on ce
as ure
ĠA nd
Ġe ine
Ġcon nected
ĠN eed
Ġqu i
DE RL
Con text
comp iled
gram s
UN DERL
Logits Warper
Ġnull ify
âĶĢ âĶĢ
éĿ ŀ
Ġëł ĪìĿ´
UNDERL INE
T ST
r ict
v en
Ġd q
am less
ip y
Ġoutput ting
Ġex pl
Ġpr uning
Ġ: ].
-------- ----
Ġìŀ ħëł¥
ins pect
Ġden oise
Ġcons ists
ĠìĦ ¸
Ġadapt ed
gl ish
ĠInst all
ãĥģ ãĥ£
CrossAttn DownBlock
launch er
' ):
b ind
d ig
o per
ê µ¬
Ġp an
Ġin place
") }
ĠA ttn
Ġor gan
vi a
ãĤ¹ ãĤ¿
ĠEn able
ê² ½
Th en
del imiter
ìłģ ìĿ¸
By tes
Prediction Head
IMP ORT
Ġëª¨ëĵ ł
MBED DING
ãĤ Ħ
ĠI defics
text ual
Ġun truncated
weight ed
Ġsh own
([ -
æĪ ĸ
ãģ¤ ãģ®
P C
w en
Ġt urn
am embert
Ġde velop
ab c
Tensor Type
Ġcheck s
Ġtime out
Ġdel ta
wh ite
åħ ¨
ĠTh en
warning s
cli ent
Ġâ ľ
l ates
Ġ zeros
Ł èĥ½
es ome
ad os
and ler
ĠT ake
Ġstr ong
Encoder Block
ĠUs age
Ġëĭ¤ ë¥¸
}/ {
Ġappro x
ãģĵãĤĮ ãĤī
Ġincre ase
Deberta V
ãĥģãĤ§ ãĥĥãĤ¯
) (
e mpt
ħ ¸
on o
Ġd uration
lo t
Ġh uman
ĠR AM
feat s
De pth
reg ion
rand New
ĠÃ ¨
Ġrepresent ing
Ġê° ľ
ìħ ĺ
VISI ON
I P
U SE
x A
ç «
re en
Ġa ug
Ġg pt
ĠS GD
Ġma pped
Ġra g
Ġcom o
íķĺ ë©´
ä» ĸ
post process
åŃ¦ ç¿
åŃ¦ç¿ Ĵ
A ugment
D es
if er
Ġg round
Ġ{ },
ĠO wlViT
log probs
Ġlayer norm
doc ument
ëĭ ¹
ag ed
guid es
ĠíĬ ¹
B lenderbot
S AMPLE
j i
m etal
Î ·
ì ¤
Ġ" )
py o
ri ve
ribut e
tr al
çļĦ ãģ«
Ġshard ed
Ġinteg ers
Ġrng s
Hugging Face
ĠLong former
¢º èªį
ë²ĪìĹŃ ì¤ĳ
. '
B eam
B ased
L EN
S V
U se
f ra
w mt
er vation
or ator
od er
Ġd ass
it ext
Ġf Ã¼r
Ġm ps
is ed
em on
iv en
ä» £
å® ĥ
imple mentation
Ġsimilar ity
fe a
æ³¨ æĦı
æĪĳ ä»¬
' ^
S aving
h params
m se
in i
el ines
st ant
st chen
un expected
Ġg uid
ĠR andom
For ObjectDetection
For SemanticSegmentation
Ġen ough
In valid
ĠCon tains
Decoder Block
ĠìĤ¬ìļ© íķł
ĠLab el
éĸ ĵ
Ġpers istent
Examples Iterable
F ine
R eturn
_ *
f lag
v oice
Ł ¥
Ġd irection
ur on
bo und
Ġ& '
Ġup cast
à¤ ¿
ìļ ´
Ġcont iguous
not es
ĠEn vironment
egr ations
å¾ Ĺ
Be it
Ġpick le
gp ig
ãĥķãĤ¡ ãĤ¤ãĥ«
crim inator
! ")
a che
b t
t iling
í Į
Ġ ._
len s
ëĭ ¬
Ġunder lying
time out
reg ist
FI X
ãģĮ ãģĤãĤĭ
Ġsu ite
åı ĸ
ìŀ ĳ
math bf
Ġshort er
ãĥĿ ãĥ¼ãĥĪ
Ġexact ly
ĠIterable Dataset
Ġlat est
P rior
l g
ç Ń
et as
et ical
() <
ĠS up
Ġv ot
ver bose
Ġen coura
Ġob ser
Ġcol lator
Ġobject ive
Ġrepresent ed
à¥ į
Ġbig ger
ãģĻãĤĭãģŁãĤģ ãģ«
ê± °
ĠdonnÃ© es
Ġmechan ism
S A
q s
Ġc ore
est ig
Ġì Ľ
íķ ©
RA TE
." })
Ġrun s
sup port
bot tleneck
Ġextract ed
Ġident ical
Ã¶ nn
F a
F ree
at i
ip p
dict s
Ġwh itespace
Ġtest ed
Token s
ĠE ND
Ġle gacy
FI RST
keep dim
åĬ ¹
part ial
--- :|
Ġhard ware
Ġì² ´
ĠDistributed Type
uer stchen
Ġlibr aries
) }"
> ()?;
S at
x cit
ç ħ
Ġa ctions
ĠĠĠĠĠĠĠĠ ĠĠĠĠĠ
ĠV ideo
ĠThe y
eg er
Ġwe b
In version
FI LE
mon str
ãĥĥ ãĥģ
ĠText ual
Ġinstant iated
cent age
Ġren amed
ĠDDP M
åŁ º
Integration Test
MBEDDING S
çħ §
B LE
t w
t ity
y st
é Ĺ
Ġo cc
") ?;
Ġre cent
ĠP I
Ġpro xies
batch norm
Ġres ource
Ġk Ã¶nn
sc orer
grad ients
dis play
ãĥ© ãĤ¤
Ġproject ed
ĠControlNet Model
Ġíģ ´ë
íı¬ ìĿ¸
è½ ½
Pos itional
) ãĢĤ
H andler
L ess
S alesforce
U ser
W ordPiece
f deb
í Ķ
Ġ âĢ
ĠT ests
th ers
fa ae
der r
ĠR em
Ġtim estamp
so le
Ġpa inting
AT E
encoding s
èª ¿
é¡ ŀ
ìĽ Ĳ
Ġcomplet ed
Ġconcaten ated
child ren
ĠGrad ient
fdeb faae
< &
> ;
U ps
s i
ĠF unnel
ĠD istil
Ġì ¡°
ĠW ordPiece
net work
Ġget s
ob served
ĠCLIP ImageProcessor
ateg ies
åĲĮ ãģĺ
Prop hetNet
Ġê°Ļ ìĿĢ
itu de
ĠST ART
D S
O ff
S PE
e ff
k a
el e
Ġin correct
Ġb order
Ġex per
ĠM L
Ġres ources
Ġgener ations
pl inter
`. ")
col late
Ã© e
Ġrel oad
VE C
Ġent ities
ãĥ© ãĥ¡
Ġser ver
requir ed
å° ı
ĠInstant iating
Ġequ ation
S cale
b ank
Ġs lightly
Ġf requency
Ġn ice
up les
ist ing
Ġ) [
Ġre ordered
=" ./
umm ary
DE VI
Ġover lap
ĠAd a
ê³ Ħ
Ġtry ing
free u
Ġìł ģ
sq l
Ġiter ator
stream ing
part ition
thread group
íģ¬ íı¬ìĿ¸
ĠPR ETRAINED
bet ween
quival ence
Ġimpro ve
plat en
Ġdependen cies
oss ible
B LOCK
T YP
b g
b mm
b icubic
h at
ãĥ İ
ĠD ETR
Image Modeling
=' ',
kv on
project s
Layout LM
Ġreward s
ĠPeft Model
ric kvon
çĽ ®
æĹ ¶
hfo ption
Ġfe el
ãĥ©ãĥ¡ ãĥ¼ãĤ¿
< <
M id
ŀ ĺ
Ġt gpig
Ġs parse
Ġc p
Ġf o
Ġre verse
ĠS to
Ġe ager
ĠN LP
AR G
Ġprob ably
Down EncoderBlock
Ġclo s
å¼ ı
rickvon platen
O ptimizer
í ħ
Ġo thers
de pen
ĠP op
assert Not
Ġpre fill
par k
Ġ/ *
à° ¯
Ã© ch
ï¼ ģ
Ġstart ed
Ġsub set
bin ed
scal er
Ġprevious ly
å¾ Į
m esh
Ġt k
ĠP al
Ġun its
assert Less
Ġpre fer
TI C
iss ue
ĠCon nections
wh en
´ë ³
sp m
ĠQ K
å¾ ®
Ġexecut e
ë¶ Ģ
pat rickvonplaten
) "
E CH
F rom
R em
f unnel
t un
Ġ" {
se mb
ãĤ «
Ġv ocoder
Ġtext ual
Bert ForMaskedLM
Ġover flowing
Conv Next
Ġfollow s
bin ary
GE LU
Ġmer ged
mix in
ĠTPU s
ĠPer ceiver
timestamp s
éħį ç½®
ĠAutoPipeline For
ç® Ĺ
U P
f inished
n a
æ ·
ch ron
Ġf etch
ĠP ush
Ġun i
** -
Ġbatch ing
ill ion
Ġen um
Ġcom ment
ĠUn it
Ġle ave
Ġro le
Ġgiv es
ĠSt ate
Extra ction
formable Detr
cum sum
ĠCond itional
Tokenized Input
' .
> `
B AS
F irst
O ver
S i
V AE
l iteralinclude
n ement
é ļ
Ġt od
Ġth us
ĠP ix
for ced
ject ed
In struct
EN CE
Norm Act
Decoder Layer
ĠDict ionary
Ã¡ s
Ġagain st
Ġinclud es
ĠGit Hub
Ġmaint ain
O W
T RA
k nown
x pu
Ġ ask
Ġt ile
Ġt iny
al ization
ran t
ĠIn struct
Con t
ĠDe iT
Ġfa iled
Up DecoderBlock
vari ables
ĊĠĠĠĠĠĠĠĠĠĠĠĠĠĠĠĠĠĠĠĠĠĠĠĠĠĠĠĠĠĠĠĠ ĠĠĠĠĠĠĠĠĠĠĠĠĠĠĠ
Ġë§ ¤
Ġcombin ed
ĠìĦ¤ ìłķ
WAR N
íĺ Ħ
å¹ ¶
gml DType
è¾¼ ãģ¿
> (&
E PS
N LP
ç ı
Ġ Ð
Ġt rad
al m
Ġf inished
ĠL a
ĠP T
ĠV Q
ĠE uler
abs path
ê³ µ
Ġrequire ments
Ġwork er
ãĤ¤ãĥ³ ãĥĪ
Iterable Dataset
æī Ģ
ifact s
ĠOther wise
TT P
ĠëĺĲ ëĬĶ
> !
E st
E mbed
} );
ç ¨
Ġ ::
Ġs liced
Ġf s
Ġa us
ĠT runcationStrategy
ãĥ ĭ
ĠL C
ĠM in
Ġstr ict
Ġinst ances
Ġdoc uments
ãĤ¤ ãĥī
ĠPr edict
~~~~~~~~ ~~~~~~~~
éĢļ å¸¸
Ġdescrib ed
X iv
b all
å £
el i
Ġm omentum
res ample
def ine
Ġí ħįìĬ¤íĬ¸
ae ImageProcessor
åĲ Ħ
hy per
Ġìĺ ¤
ëıĦ ë¡Ŀ
ru it
Ġinfer red
ãĥĿ ãĤ¤ãĥ³ãĥĪ
ä¼ ļ
NG Key
ĠëĶ Ķ
#! /
c onformer
f old
æ ©
ma pped
ĠC ausalLM
ĠL uke
Ġal loc
gener ative
Ġcomp ared
Ġapp lies
ãĤ¹ ãĥĨ
Ġcorrespon d
ord Level
IMA GENET
ĠFeat ure
Ġì²´ íģ¬íı¬ìĿ¸
ĠkÃ¶nn en
A PI
v as
v qa
ch apter
Ġde monstr
ãĥ Ħ
ĠB ottleneck
ìĹĲ ëĬĶ
Ġinstall ation
cont in
fore cast
ph i
div isor
à± ĩ
Ad dedToken
è¯ ·
user content
æĮ ĩ
íķĺëł¤ ë©´
ŀĺ ìĬ¤
çı ¾
V ari
V AL
í ĭ
Ġp po
ol y
up samplers
int egration
ĠC or
os es
cl m
inal ity
ak y
}) `,
long former
Ġback ground
quant izer
Ġdist illation
but ton
Ġconfigur ations
Ġë³Ģ íĻĺ
yst rom
L ED
g i
j or
m i
m istral
m ismatched
x path
in c
le gacy
Ġl strip
Ġfor ced
ãĥ Ķ
ĠH e
Ġdo uble
Pro to
Ġcomp lex
ne ck
Ġbo olean
è¦ ĭ
Data Parallel
short est
Ġshort cut
ë³ ´
ãĥĪãĥ¼ãĤ¯ ãĥĬ
ĠGroup ViT
Y S
e quivalence
v ert
se amless
Ġdef ines
up load
ient o
PR OCESS
ĠModel Output
åĪ Ŀ
mer ged
è¨ Ī
ac iÃ³n
SIZ ES
Ġinv estig
Ġsetting s
thread s
åĽ ł
No Attention
ĠFS DP
ãģĻãģ¹ãģ¦ ãģ®
? .
B enchmark
T ask
d eterminism
Ĉ Ĉ
Ġ ĈĈ
an e
an o
ro former
am ente
ãĤ ¦
Ġcon cat
ĠM ega
ĠB ART
Ġob served
emp lo
." .
." }
Bert ForQuestionAnswering
Un it
top k
ĊĠĠĠĠĠĠĠĠĠĠĠĠĠĠĠĠĠĠĠĠĠĠĠĠĠĠĠĠĠĠĠĠ ĠĠĠĠĠĠĠ
CrossAttn UpBlock
ystrom former
I ZER
M ET
p andas
r ench
s am
t re
æ ĭ
Ġb ibli
ur t
__ __
Ġre cognition
Ġco ordinates
ĠE lectra
Scheduler Mixin
ãĥ¼ãĤ ·ãĥ§ãĥ³
Ġcre ation
Ġseg ments
Ġfriend ly
Ġwer den
èª¿ æķ´
( ...
C reate
S qu
S elect
V ector
Z ero
é ķ
Ċ ĊĊĠĠĠ
re cognition
ot ation
Ġcomp ar
error s
bin dings
¨ë Ĳ
work er
Ex citation
Data Loader
âĢ Ŀ
Ġpattern s
fail ures
ãģĻãĤĭå¿ħè¦ģ ãģĮãģĤãĤĬãģ¾ãģĻ
Ġreprodu c
E l
F iles
c anny
r d
v lt
Ġs k
att ice
set tings
Ġadd s
à¤ ¨
PE X
Text Dual
ĠGPT NeoX
Param s
Ġsp m
ãĤĴç ¢ºèªį
ĠPar allel
ĠDef ines
+ +
C ustom
L R
k it
t p
st udent
ur ed
Ġmodel os
ĠS A
ĠS iglip
Ġrequ ested
cond itional
à° Ł
SE Loss
åĲ ĳ
ĠRun ning
Ġê²ĥ ìŀħëĭĪëĭ¤
ãĤ· ãĥ§ãĥ³
Sentence Piece
cons istency
éľĢ è¦ģ
+ +)
/ '),
b c
f an
¤ ĩ
è ¤ĩ
at ively
ic a
ĠP run
ãĢ Į
RA M
github usercontent
Ġcomp ile
`: "
St age
led ge
ys is
Ġthere fore
ĠBert Config
ĠBert Tokenizer
ãĤĴæ Į
åıĤ æķ°
LD M
Ġvot re
: \
k pt
Ġf sdp
lo y
Ġl in
po ly
Ġ[ ðŁ¤Ĺ
ict ure
Ġst udent
ĠS moothing
from array
get Logger
Ġdo ctest
à° ¸
afet y
uff led
ĠNormal ize
ãĥĸ ãĥ©
Ġauthor s
ĠPal est
C ould
G an
d emo
Ġt ar
ur m
() )?;
Ġre pe
Ġse conds
ĠF P
ãĢ į
down samplers
ĠDe bug
Conv Layer
ãģª ãĤĭ
umul ate
ãĥ© ãĤ¤ãĥ³
Ġpost process
ear Down
fig ure
ĠXL Net
è© ³
Min us
- .
n iels
t CLIP
v ocoder
æ ¡
en vironment
al t
ot ary
ĠP ass
)) ]
To Hub
ĠH TTP
Ġinter ested
man y
ĠSt ep
ier en
ear ly
Ġpret okenized
ĠìĹ ¬
ru pt
ä¿ ¡
ĠPatch TSMixer
CO L
Ġpu ed
was m
è¿Ľ è¡Į
' '
b or
d ay
d ark
i ert
r etrieval
s igned
s implify
u la
er board
Ġd ies
Ġc lient
ic ation
re main
Ġb ar
Ġb log
Ġl ight
Ġreturn ing
ĠP ost
ĊĊ Ċ
Ġres hape
Ġco arse
ĠE sm
Text Input
LayerNorm alization
LA Y
Data Collator
ë¦ ½
ĠSet up
Ġà° ®
ĠìĹ Ĩ
Ġunk nown
Ġtak ing
Ġremain ing
Language Modeling
Ġíģ´ë ŀĺìĬ¤
B U
I F
k t
t anh
ì ¦
Ġde ploy
ĠA fter
ĠC apt
ĠS tr
ĠS caling
Ġv ol
Ġì ¢
np u
ĠTF Mobile
aut ocast
Ġwrit ten
rid es
Ġbo und
åĪ ©
xl net
callback s
Ã¼ h
Next Sentence
Ġcos ine
Ġìĸ ´ë
Ġcontribut ed
ĠFrozen Dict
regist ry
b ilinear
d c
f info
h ing
s u
t id
u ing
Ġ" (
Ġa mp
ĠT orch
up grade
ĠM od
Ġpr im
ator s
ãĥ³ ãĥī
comp lete
Ġconvert ing
ãģĻãĤĭ ãģ«ãģ¯
ĠConv Next
Ġmin imum
ĠRe inforcement
äº Ī
ĠPr ediction
Ġspan s
sent iment
pix els
ĠSE W
F older
] "
h ello
in place
al ways
Ġc ats
Ġf use
Ġp or
ãĥ ¯
Ġwh y
ĠV aeImageProcessor
log y
ãģĹ ãĤ
De iT
Ġfa irseq
GPT J
Ġarch itectures
Ġoptim ized
å¿ ľ
StableDiffusionPipeline Output
Ġclo se
å¼ ķ
Ġeffect ive
gu ide
æĻ Ĥ
: ---:|
E MBEDDINGS
v oid
Ċ ĊĠĠĠĠĠĠĠĠĠĠĠĠĠĠĠĠĠĠĠĠĠĠĠ
Ġ ãģ¨
Ġt u
Ġt uples
Ġs ich
Ġc md
Ġf ace
() ["
ab en
ĠS QuAD
Ġun defined
iv ate
ward s
ĠH andle
ta ke
Ġí ı¬
over flow
ìł ¸
Ġdis patch
Masked ImageModeling
Ġlook s
vari able
des c
Ġë§ Į
ĠëĮĢ íķ´
ĠìłĦ ëĭ¬
ĠAc cessing
_ .
g b
g lob
m omentum
ĩ ãģĨ
Ġt ie
Ġt ell
es to
ur i
ĠA t
Ġlo t
ĠF LAX
Ġun used
ment e
ë¥ ĺ
Lo ck
ĠMask ed
comm unity
Ġë° °
Ġê° ģ
ĠAr row
Ġquick ly
ĠìĦ¤ ì¹ĺ
ì¤ĳ ì¹ĺ
PRE FIX
Ġcomb ine
ãģĹãĤ ĩãģĨ
< |
C OCO
S eries
W OR
s ome
s imple
an it
Ġi ou
Ġb as
um bel
po t
ĠC urrent
ĠP hi
Ġse en
out ube
ĠE xtra
bu f
ĠTensor flow
ãĥª ãĥ³ãĤ°
ĠLay ers
Ġê² °
Ġiter able
ĠTest ing
Ġì¶ ľ
Ġsumm arization
Initial ize
Inversion LoaderMixin
íĭ °
g z
x large
y brid
al th
id iffuser
le ad
Ġde bug
Ġv ir
ĠF a
ĠD PT
ĠM ust
ĠM AX
ph r
lib rispeech
similar ity
Group ViT
mobile bert
Ġrot ary
ĠIgn ored
OPEN AI
T ransform
s ystem
¬ ãĤ¤ãĥī
Ġt y
Ġt echn
re cursive
se qu
ul ation
is on
il la
th an
Ġpro to
ĠF urther
Ġ== =
Ġco urs
ES TION
ĠK arras
ĠTensor Parallel
à¤ Ĥ
Ġdoc s
MODEL S
Ġiter ation
ãĥĳ ãĥ©ãĥ¡ãĥ¼ãĤ¿
itch Transformers
except ions
åĩº åĬĽ
æİ ¥
ĠInstant iate
æ¸ ¬
("/ ")
ĠHf ArgumentParser
ĠRequ est
POSITION AL
ĠìĽ Ĳ
C rop
G reater
g ing
l fs
r ates
v s
po wer
Ġg reat
form s
ep i
ĠV ilt
Ġë ¯¸
import s
Bert PreTrainedModel
Gener ate
ãģĮ ãģ§ãģįãģ¾ãģĻ
ream Bo
CausalLM Output
äº Ľ
pack ages
Ġcapt ions
Ġparallel ism
Ġrepla ced
aud ios
ĠNet works
Ġorgan ization
ãĥģãĤ§ãĥĥãĤ¯ ãĥĿãĤ¤ãĥ³ãĥĪ
reamBo oth
A gent
h ome
ç Ĭ
ç ł
ì ¡°
in painting
Ġt earDown
Ġf on
Ġf rozen
Ġr strip
il ter
ĠC all
fa iss
ON E
ãģ§ ãģĤãĤĭ
url s
Ġsub module
Vec Audio
With CrossAttentions
ãĤ¤ ãĥĹ
Ġreg ex
ãĥ¼ãĤ ±
mid dle
Ġê°Ģ ì¤ĳì¹ĺ
MP Net
ControlNet Model
que ue
ãģĪ ãģ°
Group Norm
Ġke pt
Ġcateg ories
D el
R etrie
f ocal
t elemetry
å »
in er
Ġc umulative
ent raÃ®
Ġh istory
th at
Ġint egration
ĠAuto FeatureExtractor
rel ation
BERT A
è¿ ĩ
Ġcond itional
ìĭ ł
pret raining
retrie ve
ĠOne Former
ë¶ Ħ
Ġnumer ic
bas ename
ĠHash Map
ãĥ¼ãĤ± ãĥ³ãĤ¹
A U
P NDMScheduler
S up
e z
i old
m ing
Ð °
ĠL MS
kw arg
get item
ay s
ĠG LUE
prob abilities
Conv erts
dis patch
viron ments
ĠRe former
Ġmo ved
istic s
Ġlong est
round ed
Ġar r
ControlNet Pipeline
ĠíĨ µ
Ġlink ed
Ġwra p
åĢ ¤
iold m
B ool
H ash
L T
N OT
S P
s at
ç ±
in cre
st ar
Ġf f
Ġo u
Ġo ps
Ġre call
Ġex pla
Ġco unter
Token izedString
Ġk nown
ll m
Ġcol s
UT O
Un i
ph et
ĠNormal izer
Ġdir s
çĬ ¶
? "
S lice
W eight
s ymb
í Ĩ
Ġ err
et t
Ġc i
Ġis n
Ġ* )
ab ling
Ġg s
ir cle
ind ic
Ġx path
Ġë Ŀ¼
ser es
par s
ä¸ İ
object ive
ĠClass Label
Ġëª¨ëį¸ ìĿĺ
Temp oral
Ġreplace ment
Ġê°Ģ ìł¸
mult ilingual
ãĤ³ ãĥ¼ãĥī
Open AI
ëŀ ĺ
peg asus
* ;
H O
Ĥ °
Ġt s
ent rant
") <
num er
assert Greater
ĠB ased
Ġco urse
iv it
ĠE nd
Con struct
string s
normal izers
Ġgu ar
Ġexecut ion
Ġbot tom
) [-
B ART
F laubert
N LI
c ases
d i
d dim
n est
y es
ar ri
re entrant
Ġb id
Ġde cor
Ġh or
oc us
Ġe j
co ver
art icle
To ol
ãĤĴ å®Łè¡Į
chunk ing
AL L
ĠAl so
ãĥ¡ ãĥ¢
Ġêµ¬ ìĦ±
Ġrespon ses
Mid Block
ç± »
) >
c andidate
r b
u i
í ŀ
Ġs ync
ar a
Ġin version
Ġre plic
:: -
Ġë ħ¸
ĠE MA
Ġal ibi
fix ed
Ġq k
ĠModel TesterMixin
ne ox
Al most
ĠSequence ClassifierOutput
//////////////// ////////////////
Ġpen alty
Ġsupp lied
ãĥĪãĥ¼ãĤ¯ãĥĬ ãĤ¤ãĤ¶
s ign
in at
et imes
Ġd f
re call
ĠT apas
Ġnot hing
ĠS kip
cal cul
Ġconv ersation
Bert ForMultipleChoice
min us
Ġtop k
ĠPre Tokenizer
[` ~
Ġpl at
--- |
åĽ ¾
Ġren ew
categ orical
å¤ī æıĽ
æİ¨ è«ĸ
Ġâľ ħ
Ġì¶ľ ëł¥
: ].
E vent
V isual
Ð ¾
Ġ É
Ġb ruit
Ġw ait
un er
__ ]
ĠA mazon
ĠO ptimizer
Ġcon sum
:: *;
max vit
Ġit self
ĠG gmlDType
rit e
Ġresult ing
Ġper plexity
Ġindex es
sub class
vir tual
AT A
Ġhow ever
Ġwindow s
ik i
Ġad am
Bart ForConditionalGeneration
pers istent
Ġfinet uning
track ing
ìĪĺ ë¥¼
åıĤ çħ§
QU ESTION
ì¶ ľ
owl vit
" `:
A P
B randNew
D istributed
c nn
d w
} {
ar Xiv
Ġf our
ad v
Ġb ottleneck
Ġw av
ass ign
est ral
ĠT ra
ss pec
ĠP ad
Ġì £¼
ind ent
ĠB CE
ĠB loom
li ch
EN CODER
Bert ForTokenClassification
ĠðŁ ĳ
Ġgenerator s
Ġdeta iled
ãĤĪ ãģ£ãģ¦
Ġê°Ģ ì§Ģ
åĽ ŀ
SeqLM Output
ĠìĿ´ë¯¸ì§Ģ ë¥¼
ãĥĹãĥŃ ãĤ»
çī¹ å®ļ
:? }
Ġdat etime
çĦ ¶
ãĥĸãĥ© ãĥª
ĠLMS DiscreteScheduler
ãĥ¡ãĥ¢ ãĥª
íŀ Ī
A V
M at
c utoff
ì ¼
Ġp i
am ent
po k
ĊĠĠĠĠĠĠĠĠĠĠĠĠĠĠĠĠ ĠĠ
ãĤ ±
ĠS ign
ĠM SELoss
ant ill
ifi Gan
Ġcomp os
ĠRes earch
ìĿ´ ë¸Į
gn itude
With Logits
ĠRe pository
plan es
ãĥĻ ãĥ«
ĠRep lace
ĠAdapt ed
NextSentence Prediction
T uning
d irection
d inov
t emb
æ µ
ë ¯¸
ì Ĥ°
Ġt re
arg uments
Ġ[ [-
ĠC LIPTextConfig
ri er
ard ed
TI ME
ump ify
Ġdown stream
Ġdes ign
Generation Config
Ġtransform ations
Ġposs ib
war per
Ġsl ices
MO D
phet net
R elu
S oft
T apas
h an
i od
æ º
or th
Ġs ampler
Ġb en
Ġw mt
res blocks
=" [
lic k
Ġbu g
xt ension
Auto encoderKL
æľ Ł
Ġ$ (
match es
åĪĨ é¡ŀ
åĬł è½½
Run ning
Ġconfigur ed
ëĶ ©
Ġespec ially
Ġìļ Ķ
niels r
WithLogits Loss
. -
A cc
S ave
c riter
p is
æ ¯
Ġm Ã©
ex periment
ass ets
Ġl y
de formable
") ))
ĠO wlv
ĠI A
con tain
Ġv is
per m
pos als
Ġan g
file path
act er
mod ality
ãĥ³ãĤ ³
UL L
ãĤĴä½¿çĶ¨ ãģĻãĤĭ
user name
æıĲ ä¾Ľ
ãģªãĤĬ ãģ¾ãģĻ
ĠPI LImageResampling
ĠCapt ure
D iff
G et
c lap
h en
n q
o ption
ç Ļ
ç ľ
al phabet
ent ry
iz on
head ers
)) ))
ĠM P
ĠB asic
norm s
ĠG B
Ġro pe
Ġro berta
Ġworks pace
eng ine
ëŁ¬ ë¦¬
Pool er
ãĤ¸ ãĤ§
å¸¸ ãģ«
Ass istant
ĠRetrie ve
assertNot Equal
WARN ING
æ© Łèĥ½
ìĿ´ë¸Į ëŁ¬ë¦¬
B ig
J SON
S LOW
d one
l ated
x min
ed ges
Ġf in
Ġp andas
un der
ab e
ĠI mple
Ġpro gram
co arse
Ġas pect
ĠR MS
mod al
pping Criteria
sub s
cor ds
Ġfram eworks
ĠSt art
"} ),
Seg former
è¯ Ń
Ġvalid ate
Ġshow s
ĠRo ss
Be fore
Ġexpand ed
ĠLong T
çİ ĩ
ãģĹãģ¦ãģĦ ãģ¾ãģĻ
äºĭåīį ãĥĪãĥ¬ãĥ¼ãĥĭãĥ³ãĤ°
éĽ Ĩ
depen den
N ames
T ASK
[ __
b en
è °
Ġt uning
ut her
Ġf av
Ġn one
po w
Ġh params
Ġg ap
") (
") ),
ĠĠĠĠĠĠĠĠĠĠĠĠĠĠĠĠ ĠĠ
comp onent
Un igram
fl an
sd pa
Ġmin imal
post net
ĠMask Former
Ġiter tools
(| (
Ġìĥ ģ
Ġëĭ¤ìĿĮ ê³¼
ĠKandinsky V
' {
B LIP
M e
ç ¡
Ġa f
Ġl n
ĠT HE
Ġdef init
torch vision
oc Ãª
ĠM etric
([ ])
Ġany thing
stru ctor
<_ >>
Ġexplicit ly
å» º
M ean
S ample
g ated
g reedy
j apanese
l ite
w a
ç ²
Ġc s
Ġn om
arg in
pro phetnet
Ġe ff
ĠP ull
ĠF ree
end s
ĠR a
ĠV er
ĠG aussian
]] `):
fo und
fo XL
à° ļ
exp ert
pres ervation
CLIP ImageProcessor
Ġextra ction
åŃ Ĺ
ê° Ħ
å½ ĵ
æĥ ħ
æį ®
Er nie
ĠëıĻ ìĿ¼
å¢ ĥ
PROCESS OR
äºĪ æ¸¬
Z eRO
n api
ë ĮĢ
es es
Ġc kpt
Ġ" '
rain ts
ĠS ub
ĠF unction
ann o
For ward
no isy
Ġsu it
dis abled
Ġprob le
åħ ¶
èª ¬
aw q
Ġthread s
Ġflatten ed
ros a
sn apshot
ĠíĶĦ ë¡ľ
ĠDataCollator For
Ġvir tual
g ic
Ġ ast
Ġn u
Ġb its
Ġw rong
ĠI F
dim ensions
ãģ« ãĤĪãĤĬ
ho od
Ad am
ĠToken s
Ġoptim ize
US ERS
FF USERS
ç´ °
attribut e
ĠSelect ed
éķ ·
' }
H ifiGan
P ost
S to
V P
æ §ĭ
ĳ ľ
en glish
Ġb n
Ġa ff
Ġ[ #
ern ie
AR D
Ġ/ =
sh are
Ġfil enames
Ġcre ates
ocal Net
ĠRE AD
Iter ator
Return s
etas pace
å£ °
Retrie ver
ĠëĿ¼ ìĿ´ë¸ĮëŁ¬ë¦¬
E valu
g r
s peaker
y a
¬ íĶĦ
¯ Ģ
é ł
Ħ ìłĦ
Ġd raw
Ġm otion
", "
Ġ[ ])
Ġg lob
ĠL M
Ġel em
ĠP NDMScheduler
conv ersion
DE X
Ġlog ic
lic ation
Ġup per
read me
pan optic
Ġprev ent
Pr edict
ref s
speech t
![ ],
del ta
ï¼ī ãĢĤ
ãģĬ ãĤĬ
ĠSoft Max
ĠCLIPTextModel WithProjection
Ġíģ ¬
Check er
ĠDP MSolverMultistepScheduler
upd ated
sequ ent
ãĤ¸ãĤ§ ãĤ¯ãĥĪ
! ",
* :
/ *
a pex
d pt
od o
Ġi o
Ġ" âĸģ
Ġm ed
se conds
Ġb art
pro p
Ġth row
ĠN OT
ser ies
ãģ« å¯¾
ress ed
Ġinter polate
Ġpy lint
ãģª ãģı
Ġbo ok
force inline
âĢ Į
à±į âĢĮ
del ete
ãĤ¤ãĥ³ ãĤ¹ãĥĪ
æĸĩ ä»¶
Ġpack aging
ĠLayout LM
Form atter
Ġìłľ ê³µ
Ġredu ced
Ġhel ps
Ġpou vez
íĶ Į
Ġrepe ated
ĠBCE WithLogitsLoss
D ec
I X
S S
W riter
X GLM
s ources
æ ħ
Ċ ĊĠĠĠĠĠ
Ġs im
ar ily
Ġb ody
Ġa u
un ds
int eger
ĠI ter
co pies
ĠW ightman
ĠB eam
Ġco ords
ĠH u
Ġ-- >
Ġch osen
à° ¤
op us
aut omatic
ë¡ ¬íĶĦ
Long T
tra ced
LO AT
ĠìĤ¬ìļ© íķĺëĬĶ
ìĹĲìĦľ ëĬĶ
aw esome
ìķ Ħ
é¡ Į
DATASET S
Efficient Former
æĸ° ãģĹãģĦ
vide os
Almost Equal
ãĤ¤ãĥ³ãĤ¹ãĥĪ ãĥ¼ãĥ«
: **
T e
b order
i j
in o
Ġc urr
ad ow
ex pr
Ġa ver
Ġl as
ĠC SV
Ġimport s
Ġë ¹
ho p
Bert TokenizerFast
do es
åĲ į
depth wise
hook s
éĸ ĭ
ëĲĺ ëĬĶ
å½ ¢
ĠëĶ °
Ġbl ue
M lp
T ra
e ep
ĠT ry
Ġst atus
ĠC NN
Ġre con
ĠS PIECE
ĠO p
ĠO OM
gg y
ĠF ine
Ġun iform
ification s
==== ==
ĠDataset Dict
Ġ.. ..
Ġver w
Ġfilter ed
sl ices
Ġcalcul ated
convnext v
æŃ ¤
reward s
Ġintrodu ced
Ġì° ¸
ãģ«ãģ¤ãģĦãģ¦ ãģ¯
ãĥĦ ãĥ¼ãĥ«
A ut
A ccelerate
M egatron
e u
k o
n li
ar range
Ġp ract
Ġm egatron
se ction
and er
im ize
ĠC I
(" [
ĠF alcon
Ġres earch
ore gress
To p
out er
]] `,
Ġnew ly
PreTrained TokenizerFast
unk t
vel te
Ġcheck ing
}) "
Ġreg arding
ĠEn sure
ĠBatch Feature
ĠMark upLM
sn r
ident ifier
Lora LoaderMixin
On ce
TRA CE
Ġfon ction
èª¬ æĺİ
' },
C V
G U
M arian
S chedulers
e ffect
en der
Ġt w
al i
Ġn el
Ġr is
am iento
Ġh er
av ar
ĠTF Blip
SE G
of text
íģ¬ ë¦½
residual s
Ġbuffer ed
Or iginal
differ ent
Pa ir
ãĥ©ãĤ¤ ãĥĸãĥ©ãĥª
/ ).
F LAX
L xmert
M ark
S an
c md
g if
} "]
ì ½Ķ
it ter
Ġf c
Ġm icro
ĠI h
ĠM usicgen
ĠN V
sw ish
ĠK ernel
dis cuss
Decoder Only
ãĥĨ ãĤ¯
åħ ĥ
Feature Extraction
Ġgu ess
ĠConfig Mixin
finet une
feed forward
Ġpers on
ĠReg ression
crib e
afety Checker
phr ase
uther AI
ĠREAD ME
A pi
H e
O ptions
P ush
m en
Ã ¢
Ã º
í İ
en um
re pository
un freeze
ĠC alcul
ĠS pace
ĠI P
"] ))
os o
init e
end oftext
cc l
ãĤĴ ä½ľæĪĲ
unet s
ĠFlax BigBird
Ġdes igned
ĠCLIP VisionModel
posit ive
Param eters
åŃ Ĳ
à¥ ĭ
ĠRo BERTa
Ġterm s
Ġti ps
Ġíķ´ ëĭ¹
Ġëĵ ¤
è©³ ç´°
A tom
B in
{ \
ch osen
Ġd ro
Ġb ilinear
Ġde cre
arg o
ol low
ĠA g
ĠC uda
str ides
ĊĊ ĉ
Ġen vironments
cl us
sw itch
Ġhead er
Ġdict ion
à¤ ¤
à¤ ª
Ġpy arrow
Generation Mixin
Ġcallback s
ä¸Ģ è
Ġ([` ~
lin en
az ione
Ġê²ĥ ìĿ´
UM M
mk l
EncoderDecoder Output
ĠìľĦ íķľ
Ġpers onal
ëª ħ
ĠPatch TST
bl ue
Ġtag s
Ġchang ing
Ġbucket s
ĠNum Py
Vi TImageProcessor
Ġsignificant ly
ĠDrop Path
NOR E
C ES
V AR
b re
s ay
¸ ¡
an i
Ġf fn
Ġf ingerprint
re order
pro x
head er
Ġe pis
Ġpro pert
Ġco pied
ĠTF C
ìĹ Ī
PR NGKey
Ġtr im
Ġtr uth
âĶ ľ
Ġreg net
CE LE
Ġë§ İ
ëĲĺ ìĸ´
çµ Ĳ
near est
every one
ĠCausalLM Output
b al
¤ ľ
Ġt reat
st ic
Ġ" ##
Ġp icture
Ġb float
Ġ` ~
len d
Ġre ally
ĠS imple
=" ",
ĠR el
Ġres id
net s
En code
replace ments
Ġformat s
Ġden om
AI R
Speech T
bot tle
Ġê°Ģ ëĬ¥
hy a
ãĥĸ ãĤ¸ãĤ§ãĤ¯ãĥĪ
ãģ¦ãģĦ ãģ¾ãģĻ
ãĥĹãĥŃ ãĥ³ãĥĹ
wik itext
ãģķãĤĮãģ¦ãģĦ ãģ¾ãģĻ
æĮ ģ
Ġcro ps
åĽ¾ åĥı
' m
/ "
E num
E sm
N F
Q K
` ),
f d
m ega
p es
Ð µ
st derr
Ġd ire
Ġm ismatch
Ġb g
il it
oc ity
Ġun ary
Ġal le
ĠN a
ĠIn v
par ents
ãģ¾ ãģĹãĤĩãģĨ
Classification Pipeline
Ġí Ĺ
env s
EX AMPLE
match ed
Ġlook ing
Ġspecify ing
Ch at
Bo ard
è¾ ĵ
Ġcontribut ions
Ġdetect ed
Ġformatt ing
spa cing
ëį Ķ
åķı é¡Į
íĨ ł
CELE RATE
S ub
e ager
h ard
Ċ ĊĊĠĠĠĠĠĠĠ
Ġs chema
it al
Ġf ar
Ġde mo
one m
im ents
is nan
ĠV al
Ġë Ĥ´
row th
reg ex
åĲ İ
Ġtemp oral
fp n
ì§Ģ ë§Į
ap is
Ġtyp ically
parallel ism
Ġmak ing
çķ °
SW ER
Ġmet avar
" <
B O
B ottleneck
N V
R ag
b lenderbot
u a
al one
emb ers
Ġ) )
"" ",
ĠP P
sc atter
Ġne ar
op le
sub process
Ġcomm un
AN SWER
Com mand
Ġorig in
Ġê¸° ë³¸
basic Config
ãĥķãĤ© ãĥ«
Ġìłķ ìĿĺ
ĠDec orator
Ġfam ily
ãģĵãĤĮãĤī ãģ®
ĠTextual InversionLoaderMixin
å¾® èª¿æķ´
ì¼ Ģ
è° ĥ
ãĥĹãĥŃãĥ³ãĥĹ ãĥĪ
f inish
f laubert
} },
Ġ ãģĮ
Ġf lip
Ġp iece
Ġ` ./
Ġh ack
Image Input
,) `
Diffusion Schedulers
min imum
Ġmod ality
te in
temp oral
expand ed
Flax PreTrainedModel
Ex ception
(_ )
ãģŁãĤģ ãģ«
Ġë§ Ī
Normal izedString
è® ¾
Ġmult ilingual
Run time
Reg ex
Ġalign ment
Ġprodu ce
Ġmark ing
ĠíĶĦ ë¡¬íĶĦ
Ġhel per
calcul ate
¯Ģ ë¡ľ
âĶľ âĶĢâĶĢ
C re
T RAIN
[ #
_ :
r ide
ë ¯Ģë¡ľ
Ġs lo
Ġs ession
re former
re cord
Ġm lm
ad or
Ġr d
Ġa gg
ot es
ĠC itation
ĠD iff
Ġx formers
Token ClassifierOutput
ĠG erman
ec ast
Ġcol lect
Ġag ents
ä½ ĵ
sub set
Ġglobal s
temp lates
ork er
ìľ Ħ
ormal ize
ãĤ¨ ãĥ³ãĤ³
çİ °
Ġnumer ical
ä¿Ŀ åŃĺ
ĠAtt ribute
Ġguar ant
E E
S am
X LA
a mazon
f la
t ab
in z
er a
ig en
Ġr et
ãĥ ı
Ġst ability
ĠD eta
Ġy aml
odu ction
per plexity
out s
ai re
Ġcomp ilation
Ġcheck er
Ġq s
Ġtrans ition
pie ces
Ġext ent
Ġap pear
ĠAr ray
serial izable
ci Ã³n
ĠLora LoaderMixin
ãĥĲ ãĥĥãĥģ
ĠTFAutoModelFor SequenceClassification
ãĥĩãĤ£ ãĥ³ãĤ°
Pl ugin
Ġstrong ly
BAS E
å¼ķ æķ°
DecoderOnly Output
K andinsky
S afetyChecker
] +
c andidates
d istribution
l icense
u yu
x sum
ë ¹Ħ
Ġn icht
Ġw ie
ma il
Ġde pend
con trastive
Ġe ver
Ġ+ +
ĠD ate
ĠD ep
Ġì ¤
DI O
En tity
TH ON
cross attention
ãģĵ ãģĵ
Ġdis crete
åĪ ¶
Ġmean ing
Ġurl lib
WithP adding
onnx runtime
current ly
ãĥĳ ãĤ¤ãĥĹ
track ers
guid ed
ĠTrans lation
bad ge
ĠìĬ¤ íģ¬ë¦½
ëĶ Ķ
Relu Dense
" [
D Q
H UB
I M
N ER
n arrow
t st
Ġm s
ex pansion
Ġa ffect
ĠT vlt
ãĥ ľ
om as
ĠC lo
ĠF ix
ĠD etr
max imum
Ġgener ates
ta ck
ë¡ľ ëĵľ
ĠJ ukebox
Ġaut h
Ġarch it
PI LImageResampling
lin ux
graph y
Ġmult imodal
Ġlead ing
Ġcondition s
ĠNe zha
\. (\
Ġide a
ĠìĨ į
Ġfunctional ity
ĠUniSpeech Sat
Del imiter
H o
L BERT
N S
P ass
T IN
p or
§ ¨
Ġ embeds
ic on
ic ks
le aky
Ġ( !
ct ime
is c
Ġ[ ('
Ġh over
Ġg reedy
ĠL ocal
Ġco ver
Ġget ting
over view
Un known
ne o
sub module
Res olution
Co py
)` )
ĠPeft Config
Ġconf idence
å¤ī æĽ´
Ġ"- "
ĠEvalu ation
td nn
ivers al
Ġencoura ges
Ġclos ely
otary Embedding
A pp
I mport
d est
m v
s velte
Ġc ach
Ġf inally
Ġm c
Ġnot es
Ġre curs
ĠF rench
ĠM istral
pre pared
ĠU MT
ĠN F
ĠG C
Ġcom es
Pro cess
Con trol
fil enames
Ġca use
Ġu ma
pon ential
Ġform ula
convert ed
ãĥĨ ãĥ³ãĤ
Temp late
trunc ate
Ġìķ Į
Ġoper ator
Ġquick tour
Ġrele ased
Ġê³ µ
èĢ ħ
antill on
F IN
T im
T rain
d ynamo
g ot
i h
el ow
Ġs at
Ġs ay
an ks
ic o
Ġ" #
Ġp ull
Ġin struction
Ġfor ecast
int el
ir es
ha vior
ĠW EIGHTS
ĠB aseModelOutputWithPastAndCrossAttentions
For MaskedImageModeling
pl t
ta u
bias es
ient e
Ġimp act
TF AutoModelFor
Ġ{} ".
Ġtemp orary
Ġatt empt
ĠìĪĺ íĸī
Data Frame
Ġindic ating
LP N
à¥ Ģ
åī ²
ãģł ãģĳ
åĪĨ è¯į
pret okenized
Ġë¶ Ī
ident ical
learn ed
Ġexperiment al
ç§ į
AC CELERATE
Ġhapp en
Ġclamp ed
Ġì¡° ìłķ
:---:| :---:|
çł ģ
Big Code
h ind
t yp
ê ·
el o
el le
lo kr
em os
pr ivate
Ġex it
Ġì Ļ
init y
ep is
iv o
... ")
ias es
ang ed
Pre fix
Bert ForPreTraining
à¤ ķ
unt rained
atal oad
Ġaut om
ois ed
ãĤī ãĤĮ
Dense ReluDense
ĠSet ting
Ġnet works
Ġhigh est
Ġaccept ed
INE AR
Ġhand les
LogitsProcessor List
Ġannot ation
Per ceiver
Ġì² ĺ
ĠEncode c
é¢ Ħ
ĠEvalu ate
tutorial s
Ġíı¬ íķ
] },
b and
k ada
s ess
Ä ĥ
Ð ¸
el come
ent ities
mp ere
Ġb boxes
ht able
ĠT yp
il le
Ġre cursive
"] ):
ĠF Net
ĠD on
image folder
ĠM er
ĠM ult
av ier
à° ª
past e
ag ents
Ġover flow
Head s
Ġread me
filter ed
Ġë° ĺ
mem s
egat ives
concept s
ãĤµ ãĤ¤ãĤº
ë¸ Ķ
åı¯èĥ½ æĢ§
âĸĪâĸĪâĸĪâĸĪâĸĪâĸĪâĸĪâĸĪâĸĪâĸĪâĸĪâĸĪâĸĪâĸĪâĸĪâĸĪ âĸĪâĸĪâĸĪâĸĪâĸĪâĸĪâĸĪâĸĪâĸĪâĸĪâĸĪâĸĪâĸĪâĸĪâĸĪâĸĪ
ĠFast Speech
Ġsymb ols
BIL INEAR
Based Builder
Positional Embedding
åĪ© çĶ¨
Ġproble ms
ãĥĳãĤ¤ãĥĹ ãĥ©ãĤ¤ãĥ³
c vt
m otion
o U
r ation
r ms
s el
v gg
Ġs mooth
al e
st at
ch ines
Ġf ocus
ct rl
im mon
ãĥ ¦
Ġre cord
Ġv q
ĠM y
ĠM lp
pre processor
pa ul
ca ptions
sw inv
grad s
In it
ĠĠĠĠĠĠĠĠĠĠĠĠĠĠĠĠ Ġ
place holder
squ are
cr et
Ġchunk ed
part s
Ar row
sha ve
ĠëķĮ ë¬¸
Ġcr ash
Ġunderstand ing
Ġcro pped
Ġactiv ations
Ġëĭ¨ ê³Ħ
ãĤ½ ãĥĥãĥī
Ġdeterm ine
ĠVideo MAE
numer ic
Ġíģ¬ ê¸°
Ġëĵ¤ ìĸ´
TIN Y
) ")]
. ],
V alid
s istency
ut es
Ġd eterminism
ex ist
Ġde m
Ġh op
Ġg ate
Ġ{ ',
Ġth resh
add ition
For Audio
out h
ON G
AS S
ãĥ¼ ãģ®
ens ive
Ġstart s
Ġdiff Ã©r
Ġdis cuss
Ġëª ħ
inter val
seg former
Ad ded
StableDiffusion XL
ĠZ ero
ãĥ¡ ãĤ½ãĥĥãĥī
åº ĵ
ãĤµ ãĥĿãĥ¼ãĥĪ
ëĤĺ ìĿ´
FE AT
mobilenet v
ĠìĿ¼ ë°ĺ
ĠëıĦ êµ¬
ĠAutoPipelineFor Text
Uni Speech
oregress ive
! "
) [:,
A rc
D istil
P attern
[ ...
^ {
a verage
f our
g ree
è ³
ł ìĬµëĭĪëĭ¤
Ġ" ^
is peech
est het
Ġre play
assert AlmostEqual
Config uration
ĠN ext
ĠN amed
ach ine
off line
ak paul
à¤ ²
download s
dis crete
à± Ģ
Ġass ume
IG NORE
Ġpret ok
()? .
SH A
Ġke eps
alloc ated
Ġdiction aries
C OM
H ey
r m
ar io
Ġf inish
se par
Ġn ative
() })
ext ern
ãĥ ļ
Ġre posit
res id
ĠR O
set default
Ġblock Dim
Ã© nÃ©
linear ity
ãĥ¢ãĥĩãĥ« ãģĮ
ĠWav LM
ëĵľ ë¥¼
Ġaccording ly
Ġ"< |
ĠEfficient Former
Ġsign al
Ġfail ures
Ġì§Ģ ìłķ
Ġadv ant
mr pc
B IN
B ridgeTower
R el
S cal
f df
l cm
m eth
o Block
´ Ģ
» ĺ
å ¥
in ian
on unc
Ġm d
ĠS cale
Model IntegrationTest
co ust
ter m
Ġë ĳĲ
In st
Ġle verage
à° ¦
Ġdict s
Ġspecific ally
propert ies
pub lic
ìľ ł
Hub ert
Ġlarg est
xx x
Ã§ u
çĽ ¸
ãģķãĤĮãģ¦ãģĦ ãĤĭ
bel kada
ĠDes erialize
Ġì§Ģ ìĽĲ
Ġíĺ ¸
PY TORCH
**************** ****************
ãĤŃ ãĥ¥
perform ance
ĠâĢ ľ
pok emon
ĠMP Net
ataload ers
oBlock Cfg
onunc iation
C lone
M Bart
R ET
T arget
g al
g reater
n as
w get
Ġ oder
el a
Ġc as
Ġf un
Ġw atermark
um ed
ĠC ar
ĠS entence
res ource
eat ure
For NextSentencePrediction
ff t
per ceiver
Ġtest args
dir s
Ġë Ĥĺ
Ġspec ifies
Ġmay be
ĠCon t
ĠTensor s
TF eature
Ġsub ject
ĠìĤ¬ ìłĦ
Ġcustom ize
Ġway s
CTC Tokenizer
íģ¬ ëĤĺìĿ´
rag ma
èĩª åĭķ
Ġpe ople
Ġconsider ed
ĠRequ ired
Ġsw itch
éĻ Ĳ
ĠDeberta V
DDP MScheduler
ĠCT RL
OpenAI GPT
ĠRMS Prop
G A
H a
S U
V ar
\ '
c is
Ã ¹
Ġ enter
ĭ ãĤģ
Ń ãĥĨãĤ¯
Ġs it
ed c
Ġw ird
un ispeech
Ġ[ *
__ "],
ĠO ur
(" {
Ġe mp
ĠP ool
Ġ""" \
Ġen ables
Token ization
ëĭ ¨
run s
app ed
Ġso on
mb le
struct ed
}" .
lang s
ãĥ¼ãĤ ŃãĥĨãĤ¯
ãĥĹ ãĥĪ
ĠPro cessor
ĠZ h
ĠNormal izedString
ê² łìĬµëĭĪëĭ¤
Ġê°Ģ ìŀ¥
æ¨ ¡
Ġdist ance
big code
ĠRo Former
By teLevel
sl urm
Ġme asure
Form at
ĠNe ural
åŁ ĭãĤģ
Ġì²´íģ¬íı¬ìĿ¸ íĬ¸
ANSWER ING
ãĥ¼ãĤŃãĥĨãĤ¯ ãĥģãĥ£
> /
C ard
C heckpoint
C ache
E q
F ET
M ul
S kip
T X
b ench
f using
p ragma
x Vit
Ĥ ¤
et ter
st andard
Ġf ed
ig ger
ex to
to y
Ġl ittle
ĠL arge
ĠS erialize
ĠD I
ĠU ser
ĠIn fer
Ġqu ite
ĠUn igram
Ġle vels
PR O
Ġform atter
CLIP VisionModel
annot ations
Ġgo al
Ġê° Ħ
Col umn
ë§ ģ
ĠíĻ ľ
mn as
Ġrespect ively
Ġrec ipe
secut ive
SPE ECH
ĠCurrent ly
çľ ĭ
say akpaul
íģ¬ëĤĺìĿ´ ìłĢ
. ).
. ')
L ocal
O wlViT
P adding
u str
v o
æ ±
Ġs ch
Ġs pa
Ġp ert
ex ception
Ġal tern
Ġadd ress
DE TR
cond a
)? )?;
DI S
ag raph
AM L
min i
width s
Auto ImageProcessor
extract ed
RE PO
INPU T
æķ° æį®
ãĥĳ ãĥķãĤ©ãĥ¼ãĥŀ
vers ions
å®Ł è£ħ
ãĤĴç ¤º
retrie ved
ãĥŀ ãĤ¹ãĤ¯
Ġimpro v
ç´ Ħ
ĠFS MT
ĠCre ates
Ġty pename
Ġexpla ined
çĻ º
" --
E M
G R
N I
R ow
V Q
b boxes
c estral
g Pool
g rowth
i ps
m inds
æ Ł¥
ç ©
Ġt ables
att e
qu es
__ ",
Ġre versed
Ġv ocÃª
ow lv
co at
ĠB E
ĠV ocabulary
Ġ** ***
ĠIn ception
app le
ãĤĴ è¿½åĬł
we et
CT RL
With NoAttention
Ġmatch ed
åĪ ĩ
Ġwork ers
ĠClass ifier
ĠìĤ¬ìļ© ìŀĲ
MaskedLM Output
cre bleu
nb est
ë§ Ī
Ġder ived
åĨ į
Ġhand led
Ġren der
ĠMax imum
rest rict
rab ic
ì¤ Ħ
VAL U
()[" __
AU DIO
ĠíĶĦë¡ľ ìĦ¸
TFeature Extractor
ãĥĳãĥķãĤ©ãĥ¼ãĥŀ ãĥ³ãĤ¹
B asic
c ud
ç ¬
ð Ŀ
ĊĠĠĠĠ ĊĠĠĠ
Ġs he
Ġs ind
un ion
un to
un load
im ing
ãĤ Ģ
ĠF orm
Ġun roll
ĠB ack
pre fetch
Ġí ĥ
ãĥĪ ãĥª
ĠFlax AutoModelFor
Ġdiffer ences
ä» İ
dist illed
cor r
tra its
match er
sig lip
optim ize
Ġparameter ized
rng s
ĠìĦ ł
ê² °
Ġopt ax
ggreg ate
Ġdynamic ally
Ġquick er
æĤ¨ åı¯ä»¥
Ġìĸ ´
Ġhook s
cro ps
ĠAss ert
Ġam ong
Ġhost ed
replic as
Soft max
ç² ¾
a ctions
f rozen
h ada
l u
p age
w te
er f
Ġt ab
Ġp at
Ġin valid
Ġin painting
Ġr ms
Ġa pt
qu estions
ers ations
Ġg oogle
ha ve
ĠI mp
ener gy
Ġma gnitude
ĠD en
ĠB LIP
ĠB ackbone
block ed
ĠN orm
Ġpar quet
DE N
ãģ« éĸ¢
ëĭ¤ ë©´
Ġq a
Block Q
ãģĻãĤĭ æĸ¹æ³ķ
ĠX GLM
level name
ãĥ© ãĥĻãĥ«
èª Ń
cam embert
uncond itional
ãĤ· ãĥ¼ãĤ±ãĥ³ãĤ¹
track er
ĠSeg former
ĠLog its
éŁ³ å£°
ĠìĹ¬ ëŁ¬
ĠKarras DiffusionSchedulers
Bool Tensor
! !
' ].
K ER
c n
h uge
l st
n py
s moothing
ë £
el len
al ibi
an al
ra ise
Ġ( &
() `.
Ġ[ *,
us es
ĠA mpere
ĠL xmert
"] ).
ĠP egasus
fa ke
fa iled
Ġun icode
Ġy l
set ter
ĠĠĠĠĠĠĠĠĠĠĠĠĠĠĠĠ ĠĠĠĠ
ech no
SE W
ĠDe formableDetr
ress ive
img s
Ġìŀ Ħ
Ġsplit ting
Ġpart ition
LA VA
Ġent ries
ĠBert Model
Ġtransform ation
ĠGener al
Ġcons isting
æķ° ãģ®
Ġmapping s
æĸĩ æľ¬
prune able
SD XL
support s
ĠDistil BERT
ĠInstruct Blip
è¨Ī ç®Ĺ
ament o
ĠëıĻìĿ¼ íķľ
R ec
T ag
X LI
a j
d rive
s ing
v an
w b
y min
y belkada
at ol
Ġt pu
an ian
Ġa per
Ġa way
Ġde al
den oising
ext ensions
Ġre view
ĠO nnx
ĠD reamBooth
Ġwh ose
IN DEX
ĠV ari
ject ory
à° Ĺ
Ġí ı
tr uth
Ġend region
Ġover all
ne ver
ne uron
ãģª ãģ©
wh itespace
}} {{
Ġìĥ Ī
Ġsom etimes
çī¹ å¾
HE AD
Peft Model
ĠBlenderbot Small
Ġrece ived
ç« ĭ
Ġaug mentation
ĠEnvironment Error
Ġben ef
Ġaper Ã§u
A UTO
S hot
S ession
c nt
d t
h h
m icro
o i
el per
Ġd ig
re jected
Ġm oment
lo ok
arg er
ãĥ Ł
Ġlo ve
ep hy
end point
ant s
ĠV it
Ġë ¹Ħ
Ġen gine
ĠE R
ĠK osmos
ĠRe cognition
è¦ ı
Ġent ir
è¿ Ķ
Ġein en
freq s
ãĤµ ãĥ³ãĥĹ
Ġart ifacts
ĠìĦ¤ ëªħ
ĠSw itchTransformers
Ġserial ized
éĻ ¤
ĠStableDiffusionXL Pipeline
Ġë¶Ħ ë¥ĺ
Requ est
íĮ Į
¨ëĲ ľ
remain ing
ephy r
R ange
] [:,
x max
Ġs impl
as pect
as ctime
Ġc Ã³
Ġf ly
int rodu
Ġst ud
ĠB ros
Ġus ar
Ġco lab
ec ure
DE CODER
ĠAuto former
Ġconst expr
Ġrun time
CT OR
ĠìĿ ĺ
Question Encoder
Ġmo ving
mt ree
ron aut
Ġchar s
ĠÃ ¼
Ġindic ated
å° ĳ
ãĥ¡ ãĥ³ãĥĪ
ĠBy oBlockCfg
ĠRo C
Ġtrack ers
aug ment
lt k
éĩį ãģ¿
ĠìĬ¤ ì¼Ģ
Ġredu cing
Squ are
Ġtw ice
ĠDiff er
Ġentir ely
B ut
O B
U ST
W Q
` ")
e ffic
f alcon
j peg
q h
r ics
y ml
ì »
in ation
at ile
st ored
Ġf ig
Ġn atural
Ġa a
Ġde cl
is g
ĠT RANS
Ġth ink
ran ks
ĠI ran
Ġen ding
In painting
ãģ¾ ãĤĮ
und file
ãģŁ ãģł
Ġro unding
Wh ere
Ġpub lish
**** *
ty pename
Th ese
ĠPreTrained TokenizerFast
Ġlaunch er
cell s
íĺ ķ
æł ·
FS DP
detect ed
Ġachie ve
formatt ing
´ë³ ´
ĠëĶ° ëĿ¼
ĠCLIPVisionModel WithProjection
Ġarchit ecure
/ ",
B ref
E poch
F lava
M ut
T eacher
V e
a h
c rit
n proc
Ġ qual
Ī ¬
in ception
in verse
Ġf usion
id entity
ig ate
Ġw ish
Ġde ps
un clip
ot er
ol f
th ose
Ġth ough
Ġcon currently
Ġ} .
Ġë ¬
Ġcomp ression
Ġhead ers
." >
Ã© cut
Ġinter val
ĠFlax Electra
Ġtr l
Ġprint s
ãĥĩ ãĤ³
writ ten
å¤ Ħ
ãĥī ãĤŃãĥ¥
US ER
Ġlower case
Ġê²ĥ ìĿĦ
Ġ\\ )
ìĺ Ī
Ġlang s
Ġgl uon
Ġì» ¤
ĠQuant ization
Ġaud ioldm
ç¨ ĭ
Ġej emplo
C lient
G rad
] })
c ss
d ers
f ields
h p
m arian
t z
ê ¹
Ġ lax
on ed
Ġs cheme
Ġm ention
Ġw ir
ma cro
Ġh inz
pro v
Ġbe hind
Ġ""" .
ĠM achine
ĠTF BaseModelOutput
OC R
ne ed
ĠRe po
da ily
UN ARY
PI PE
ĠToken ClassifierOutput
ier ung
Ġar bit
ĠVision Transformer
åĳ ¼
Trans pose
Ġë² Ī
Ġwar p
epar rot
ëª¨ë ¦¬
ĠPartial Eq
ê±° ëĤĺ
ĠEuler DiscreteScheduler
ĠPalest inian
ç¡ ®
Ġepis ode
çµĲ æŀľ
è³ ª
C CL
F unction
S ystem
f Ã¼h
g ence
m ore
r mlp
y max
è ¶
Ġp x
Ġr gb
un ique
ĠA gent
ĠL ED
co ord
ãĢģ [`
Ġcomput es
OUT LM
Ġapplic ations
çļĦ æ¨¡åŀĭ
CON V
ĠConv NormAct
ĠRe alm
LA BE
Ġëª¨ëį¸ ìĿ´
mid i
jit ted
Ro BERTa
ãĤ¹ãĤ¯ ãĥª
ĠPeft Type
Ġfinet uned
(".") [
wi kipedia
ĠPosition s
KE Y
ĠMobileViT V
="% (
entraÃ® nement
B ark
C y
C lvp
M od
O ptim
U RE
_ "
d u
f in
r mtree
x F
í Ĥ¤
Ġc y
Ġc al
Ġp ertain
Ġm etal
Ġin dependent
se udo
ad ir
ãģ Ķ
is ation
est imator
ĠS FT
res ized
con nection
ĠM eta
data classes
set s
sc ipy
ãģĵ ãģ®ãĤ
sub modules
Ġfollow ed
ĠConv erts
å® ī
Ġlabel led
Ġperform s
Ad apt
prev ious
Ġloc ated
Ġknow ledge
Bo x
Ġear lier
Ġsqu are
æĥ ³
remo ved
criter ias
Te X
ãĤ¨ãĥ³ãĤ³ ãĥ¼ãĥĢ
ãĤ¹ãĤ¯ãĥª ãĥĹãĥĪ
= __
F old
K w
c ite
h int
x avier
Ġ íķľ
in a
Ġd r
Ġin paint
Ġn s
Ġ( ),
est er
Ġh aben
ĠA nn
ĠA WS
pr onunciation
Ġun less
cal ed
ĠW ang
its And
ust ers
Ġdo main
read s
off icial
à¤ ¯
Un expected
åĪ ¥
å¤ ±
ĠLo ss
Ġcons istency
ĠTO KEN
Ġê°Ģ ìĿ´
Ġpret ty
æ¸ ¡
Ġê³ Ħ
amb da
Ġë¡ľ ëĵľ
Ġdiag onal
ä»ĸ ãģ®
Ġtechn ique
SHA PE
itsAnd Bytes
/ #
C D
M apping
] }"
e uler
s end
v ilt
å ģ
re ction
mp net
Ġb i
Ġr etrieval
is f
ist ed
ĠA rc
Ġbe ar
ĠF ocalNet
ĠR ust
code vector
ib t
Image PipelineOutput
ĠTF Longformer
EN S
down sampling
à° µ
cy cle
Ġper f
Ġdown sampling
Ġcontain er
ĠRe ference
ViT MAE
sp ired
Ġëª¨ëį¸ ìĿĢ
hash es
Ġcons istent
Ġìĸ ¸
éĢļ è¿ĩ
ĠGroup ed
Ġë°©ë²ķ ìĿĦ
La MA
Ġide ally
ĠAct ivation
å®Į åħ¨
ĠComput es
ĠVal ues
ĠAttribute Error
C B
G it
G pt
k i
o od
v io
w kv
} -{
Ġ html
on ary
as y
Ġ" ../../
Ġa ware
im show
() ])
th rough
int egrations
co ef
Ġun signed
Ġres uming
Con st
iss ion
Ġid entity
Ġexcept ion
ë¥ ´
sum s
Ġindex ing
Ġsub word
With Teacher
An cestral
ãĥ¼ãĥ Ĺ
ap py
Ġcod es
åħ ³
Ġent ren
Ġbeam s
Ġar en
Ã¨ re
ForImageClassification WithTeacher
hy ps
ãĤĪãģĨ ãģª
Ġê¸° ëĬ¥
Ġart icle
ĠXLM Roberta
ĠGeneration TesterMixin
ĠìĺĪ ìłľ
Ġsl iding
ym metric
å± ŀ
ãĤ½ ãĥ¼ãĤ¹
San Japanese
åŁĭãĤģ è¾¼ãģ¿
Ġpertain ing
itsAndBytes Config
B loom
L AST
O FF
S ingle
S mem
i kipedia
Ġt er
Ġf low
re view
to ks
Ġof fl
ãĤ ¬ãĤ¤ãĥī
pr k
ĠI CC
ew ard
)) `,
com et
Ġpr uned
ca pe
Ġ& [[
act ual
ĠTF Funnel
mo vq
Ġcomput er
place ment
initial ize
ĠðŁ Ķ
resnet v
ãĥĩ ãĥķãĤ©ãĥ«
skip Unless
google apis
å¤ ĸ
åĬ ¡
åħ ±
Ġoptim al
project or
ĠLe vit
ãĤ³ ãĥ³
works pace
================ ========
Ġhypoth etical
Mo e
STAN CE
ATT EN
çŃ Ķ
ARG ET
Ġê²° ê³¼
åıĤçħ§ ãģĹãģ¦ãģıãģłãģķãģĦ
ĠIter ator
ç²¾ åº¦
effic ients
å¤Ħ çĲĨ
Ġoffl ine
ãĥĩãĥķãĤ©ãĥ« ãĥĪ
) ')
S o
V arBuilder
W N
b i
d istribut
e a
x k
ë Ħ
Ġ extend
Ġs ono
Ġd ay
Ġm aster
Ġm ember
Ġb lack
Ġr Ã©
Ġmodel li
emb s
mask former
Ġlo gged
ĠF laubert
ĠD onut
get env
io Gpt
Ġk o
]] ],
umm arization
Ġsc en
ĠRes NeXt
TH ybrid
trans late
trans cription
Scheduler Output
Encoder Config
require ments
LE CT
rem e
ãĤ¸ ãĥ¥
Ġìĭľ ìŀĳ
Ġê°Ļ ìĿ´
Ġplace holder
Ġsqu ad
éĩį è¦ģ
Ġcateg ory
è«ĸ æĸĩ
bor row
ì¦ Ī
Ġì¢ ĭ
ĠìĬ¤ì¼Ģ ì¤Ħ
b lack
m et
Ġs il
it g
pe Trainer
Ġb and
pt une
ĠO UT
ĠD PO
ĠM arian
Ġë Ĥ
cl uster
nd m
tr im
tr oduction
read lines
ìĿ´ ìłľ
ĠWe b
count s
åĬ ¨
bot tom
Ġes m
ĠUs ers
Col or
æ¬¡ ãģ«
ĠíĨł íģ¬ëĤĺìĿ´ìłĢ
quick tour
éĿŀ å¸¸ãģ«
ENS OR
A g
D et
J AX
M IS
S ER
Y our
i am
k h
l sh
p unctuation
x ic
æ ¤ľ
ì ¡
Ġs ense
it z
Ġ" </
Ġ" {{
ad en
ex llama
Ġ* (
Ġma is
os er
ĠW indow
pos ix
Ġstr ategies
Config Mixin
ang le
ment al
TI VE
Ġup loaded
Ġpredict s
Ġcol lection
ãģŁ ãģ¨
Vec Text
çĶ¨ äºİ
Ġdel la
Dataset s
ãģķãĤĮ ãģ¾ãģĹãģŁ
ĠToken izers
sup press
Ġà° ª
ĠInst ead
shift ed
ĠìĹ °
ForPreTraining Output
Act ivation
ãĤª ãĥĸãĤ¸ãĤ§ãĤ¯ãĥĪ
Ġíķĺ ëĤĺ
ĠInt el
ĠìŀĲ ìĦ¸
Ġë©Ķ ëª¨ë¦¬
sim d
Ele utherAI
ĠPush ToHub
Ġë°° ì¹ĺ
lead ing
BIN ARY
F lat
F inally
J E
L LM
R PC
[ (
d la
Ġ ut
id o
Ġp hr
se w
ers ity
Ġ` [-
Ġ[ [[
pro xies
__ ).
ĠC heckpoint
)) );
ft q
ob s
Pre TokenizedInput
sh ell
ĠDe code
ĠDataset Info
Ġdel et
Speech To
Ġes emp
ĠPro cess
riter ion
ĠLayer Drop
mult imodal
nan o
:? }",
å¤ļ ãģı
Ġë² ĦìłĦ
ĠConstruct s
Ġdate fmt
formatt ed
("/") [-
Ġarbit rary
% }
- |
> ")
C G
D on
S uper
[ ::-
´ Ī
re verse
le vit
Ġin compatible
and a
th ree
Ġg Ã©nÃ©
py arrow
art s
ann er
Ġco urt
ser act
ĠTF Roberta
ĠTF Albert
ĠPy Ref
Ġend if
bs ite
sub folder
bar rier
ãĤĴä½¿çĶ¨ ãģĹãģ¾ãģĻ
ãģ¤ ãģĭ
Ġsyn chron
sl iding
ĠíĻ ĺ
NE L
ä¹ ī
ĠSeg ment
ãĥ¼ãĤ¸ ãĥ§ãĥ³
Ġjo in
Ġsol l
complet ed
éĹ ®
Ġì°¸ ì¡°
Ġguarant ee
? \
C S
D oc
E ST
I R
O L
O f
V ocabulary
\ "
m ar
r et
r edu
Ġ Question
Ġ ../../
ch anged
Ġc f
ent ral
ex pect
is ing
Ġ` <
Ġh appy
de coding
Ġe print
Ġcon c
ĠF ran
ĠF IX
LM S
Ġ: <
valid ate
Ġfil ters
ðŁ Ĵ
Ġhelp ful
Ġq id
PE ED
Ġmatch er
Ġcl uster
Ġcomm ents
CLIP Model
present ation
Ġsecond ary
INT ER
Ġmulti processing
ãĤĴæ ı
pret rain
Ġcalcul ation
Ġcard inality
æī ĭ
install ation
Ġmultip lier
Pl us
Rep lace
ä»» åĬ¡
Ġexpl ore
Fa ctory
Ġreload ed
Ġìłģ ìļ©
tun ers
Ġdemonstr ate
indic ator
Ġë¶Ī ëŁ¬
Ġì²ĺ ë¦¬
Ancestral DiscreteScheduler
" ></
- [
/ ),
H A
S outh
X Vector
Ð ½
Ċ ĊĠĠĠĠ
Ī ãģ¿
at ar
ut ing
Ġd ur
it or
Ġn ightly
ĠT YP
Ġg pus
res olved
ĠM ultiple
IN ST
conv ersation
ument ations
ib TeX
ĠUn der
ĠK eep
Ġê ¸
Ġinter est
initial ization
Ġdis criminator
te ar
Ġfa iss
ĠJ o
Vision EncoderDecoderModel
ĠHub ert
Ġtransform ed
Ex pected
ĠAl tCLIP
Value Head
MultipleChoice ModelOutput
EXT RA
ãģĤãĤĬ ãģ¾ãģĽãĤĵ
adam w
æľĢ å¤§
æľĢ éģ©
Ġefficient net
Ġintern ally
Ġbackward s
æ¸ Īãģ¿
Lora Config
ä»¥ä¸ĭ ãģ®
Do uble
Ġhapp ens
ĠìĦ¸ íĬ¸
DEVI CES
TYP ES
ĠLC MScheduler
æµ ĭ
ĠSentence Piece
ĠTYP ENAME
/ `
F ULL
R otaryEmbedding
Y outube
d uplic
f ly
æ ®
Ġt e
Ġt echniques
al igned
an ch
se c
Ġa w
is pi
Ġ[ ["
Ġg ame
For SpeechTo
cl an
ang ing
Ġpre pend
our s
]] ).
Ġblock ed
hub ert
Ġí ĳľ
ãģĻãĤĭ ãģ¨
lib rosa
ĠData Files
ap prox
Re cognition
Ġread ing
Ġent rad
Ġ$ \
ĠCheck s
Ġà¤ ¹
è¨ ĺ
ĠCom mon
Ġbel ie
emo ji
Ġoverr ode
Cpu Storage
ĠPer form
ĠDim ension
ĠMulti ControlNetModel
aps ed
dat etime
ĠResnet Block
ĠëłĪìĿ´ ìĸ´
bind gen
Ġaff ine
ĠInv erted
. """,
B ackend
F UN
L C
M a
P hi
_ ")
s enet
u an
x g
â ķ
en h
Ġt uo
al a
ar c
le ifer
Ġm ismatched
is er
den ormalize
urn al
th ere
Ġ{ })
(" #
Ġcon sole
ĠR educe
Ġhas htable
ĠTF RoFormer
org an
Ġê ´Ģ
Ġper iod
RAN K
An t
Ġbias es
LE U
ĠData TrainingArguments
GPT NeoX
äº º
Ġtrans fer
ĠCan ine
Ġnames pace
éĢ £
Ġeas ier
ĠLoad ing
Ġsyn ced
ĠBy teLevel
orig in
codebook s
ĠThere fore
Ġbroadcast able
Ġêµ¬ íĺĦ
Ġmem s
PY THON
Ġë¬¸ ìłľ
ãģ®ãĤ³ ãĥ¼ãĥī
ãĤĴæĮ ģ
izon tal
ãĤĴæı Ĳ
tear Down
) ")
N X
S p
T ML
w Lock
Ñ Ĥ
Į İ
ion i
an ity
Ġm is
Ġm arri
ent ries
iz ar
Ġn umpify
un icode
ĠT itle
Ġ[ ""
Ġ# #
ol ds
Ġg ain
Ġre ached
ĠS qu
ĠS end
Ġconfig ure
py dict
ss h
Model Mixin
ĊĊ ĉĉ
co efficient
ĠD etect
Ġ' <
ĠG raph
ĠH ead
Ġload er
ĠTF Electra
ãģ« ä½¿çĶ¨
De cay
ĠRes ize
ie ces
ëĭ¤ ìĿĮ
ack ed
Un CLIP
div isible
ëł ¬
LO OM
ev a
ĠNote book
Le arn
dset s
Ġcapt ure
Ġdist in
Ġhigh ly
proc s
Ġwra pped
Ġdid n
plot lib
Ġess ere
ĠëłĪìĿ´ ë¸Ķ
TextDual EncoderModel
focal net
Ġbid irectional
Ġë¹ ł
UMM Y
LABE L
ĠFIX ME
) [:-
A GE
D iffuser
G TH
N VIDIA
P art
S iglip
W L
^ \
b umentations
d dp
l xmert
m isc
n omial
v l
it m
to Equal
ĠT r
Ġre ach
>> ,
], [
Ġor d
ĠF eed
ĠR ec
Ġen s
]) [
emp le
ãģĹ ãģªãģĦ
Ã© es
comp osition
ãģĮ å¿ħè¦ģ
St ep
ãģĻãĤĭ ãģ®
Ġcomm e
Ġtrans cription
big bird
GEN E
éģ ¸
ê° ģ
Ġexecut ed
Ġpe ak
ĠIMA GE
åĢ ¼
ĠDis able
Ġlat ency
ĠPartial State
IDE D
Ġins ert
LEN GTH
ĠConditional Detr
Est imation
hyper parameters
poly nomial
ä¸Ģè Ī¬
Ġdenom inator
ĠíĻĺ ê²½
C RI
J IT
S cor
V ersion
] ")
c mp
c urr
d S
f net
m c
s ft
} )."
è ī
Ġ atten
Ġ ĊĠĠĠĠĠĠĠĠĠĠĠĠĠĠĠĠĠĠĠĠĠ
or n
Ġp unctuation
Ġn d
ra ft
Ġb row
ãģ »
Ġst ats
[" _
Ġun wrap
Ġun freeze
ĠV RAM
Ġen h
ĠN ystromformer
Image Processing
ĠTF DebertaV
Ġle ver
ak a
iter ation
Ġsub process
ãģª ãģ©ãģ®
Ġselect ion
Ġkeep ing
xl sr
Ġmut able
ãĥŃ ãĤ°
IG IN
æľĢ åĪĿ
Comp ose
categ ories
Integration Tests
tri al
ZER O
Ups ample
Ġfav or
ĠëķĮë¬¸ ìĹĲ
LECT RA
ãģŁãģ¨ ãģĪãģ°
A A
C lap
e k
l and
r er
s b
s piece
w ant
Ã ±
å Ĥ
en za
Ġc v
re cords
Ġm ul
Ġm Ã¡s
Ġa pex
un pad
ort s
ĠL ub
ĠO P
con caten
Ġe ating
ĠF inally
eg en
ĠU N
Ġk ind
Ġal phabet
Ġtensor board
Pipeline Tests
Ġup sampling
ĠImage GPT
Ġper centage
rel oad
ä½ į
ãģĦ ãģı
Ġprov iding
Ġnormal izers
ĠGPT Neo
Ġsin usoidal
enc ia
ĠìĦ ±
è¯ ķ
Mobile ViT
LOC AL
Ġhypoth eses
Memory Table
Ġarchive Prefix
ì²ĺ ë¦¬
ä»£ çłģ
issue comment
Could n
Ġìĸ´ë ĸ
ĠExtra ct
dependen cies
Ġrecurs ively
daily mail
Scor er
E OS
M IN
S core
[ _
h one
z y
} ),
í Ľ
Ġd dp
Ġm en
Ġm obile
um bn
Ġa mb
il er
rom oter
ĠA m
ĠC OR
bo olean
ĠM atch
ctor ies
ON NX
ãģ® åł´åĲĪ
ipe x
Ġro uge
Ġfa ctory
CLIP Seg
è¦ ĸ
AN D
ĠCh en
ĠCh annel
Ġser ve
Com bined
permut ation
Ġsentence piece
ãģ®ãĤ µ
Ġident ify
ãĤĤ ãģ®
video mae
efficientnet v
Ġutil izz
Be havior
åį ķ
ĠGeneration Config
rest ore
vq vae
Ġwra ps
condition s
VISI BLE
éĸ¢ æķ°
Ġdependen cy
End ian
pm Ant
Ele ment
Context Encoder
Ġexper iments
æ§ĭ æĪĲ
ĠTyp ically
çī¹å¾ ´
vio ur
ĠìĬ¤ì¼Ģì¤Ħ ëŁ¬
ĠLub itz
) \
A fter
B uf
T uner
_ \
f ics
p n
w ho
{ #
à ¸
ì °
Ġ ãĤĴä½¿çĶ¨ãģĹãģ¦
Ĵ °
in struction
le c
Ġst e
ĠC vt
Ġex clude
). "}
ĠM at
ĠM icrosoft
Ġx Formers
get ter
ide fics
Ġpre ced
ĠH igher
Ġ\ "
In ference
ãĤĴ çĶŁæĪĲ
ĠUn CLIP
ĠWh ile
íķĺ ê²Į
Ġcor pus
Ġcont ents
Ġsu iv
ĠGPT J
ĠStableDiffusion XLI
ren der
ãĤ¢ ãĥ¼ãĤŃãĥĨãĤ¯ãĥģãĥ£
Ġthread Idx
Ġìŀĳ ëıĻ
gorith ms
ìĽ Į
Ġë¬¸ ìĦľ
proto col
ittle Endian
llb Moe
éļ Ľ
Ġlin ks
ĠíĨµ íķ´
ĠFree U
Ġ`~ /.
ĠNa N
çķ° ãģªãĤĭ
è®¾ ç½®
Delimiter Behavior
L atent
S queeze
f allback
k n
t n
Ł ¬
Ġt id
Ġf ocal
Ġ" .".
ig ning
att he
ir rel
Ġth ing
Ġv ary
ĠP olicy
Ġma jor
ĠM vp
ĠB LOCK
Ġë ¦¬
ĠE OS
íķ Ń
ob ser
ãģ® ãĥª
ãģ® ãģ¿
DE D
ĠTF Conv
OR IGIN
Ġblock Idx
Ġbu ffers
do om
ìĿ´ ì¦Ī
Ġtr igger
Conv ersation
å® ŀ
Ġaut oregressive
'] ['
ãĥ© ãĥ³ãĤ¹
è¿ Ĳ
ev ents
ĠCh at
Ġque ue
Ġaccess ed
MASK ED
ĠSw ish
ĠìĨ Į
Ġrep etition
Ġpop ular
contain er
è¯Ń è¨Ģ
effect ive
clus ive
Ġë§İ ìĿĢ
ĠClo ud
VALU ES
ãģŁãģł ãģĹ
umbn ail
C NN
I A
I I
K ernel
T ARGET
W rite
i ra
l uke
r strip
u mpt
w ill
Ġt p
Ġd istil
Ġc atch
Ġp ay
se ctions
cod eparrot
im o
Ġl iteralinclude
ĠT ORCH
us a
ãĥ ¤
ha i
ĠC L
ĠC ausal
ĠC OCO
ĠO WL
Ġun pack
Ġun wrapped
art ifact
end if
ĠW ordLevel
ĠM ap
pre prompt
ĠV ar
iv ative
set Level
]] ]]
(). _
Ġbu f
Un supported
Ġsub mit
Ġsu gg
Ġcl asse
Ġmin i
Ġcontrol s
Ġpart ir
ĠìĪĺ ëıĦ
Ġden oised
Ġent ropy
Ġëª¨ëį¸ ìĹĲ
Ġë° Ķ
RO UP
æľĢ ãĤĤ
ĠìĹ ħ
ë³ Ģ
ĠOr iginal
ãĤª ãĥĹ
Ġë¶ Ģ
ãĥĲ ãĥ¼ãĤ¸ãĥ§ãĥ³
ops et
cu h
Ġregister ed
Ġdeep copy
åĲ« ãģ¾ãĤĮ
Blenderbot Small
Ġtod ay
ane ous
ì½Ķ ëįĶ
íĨł ë¦¬
ĠíĶĦë¡¬íĶĦ íĬ¸
åĤ Ļ
B OS
H u
I mp
M ENT
N R
N orth
a gg
n al
t v
u gger
è Ń
Ġ ray
al le
it o
Ġ* ,
": "
Ġre ported
ĠS p
ĠS uper
ĠB itsAndBytesConfig
ific ate
Ġ** *
Ġal igned
Ġload s
return s
Ġsub sequent
With ValueHead
replace ment
Ġcode vector
Seq ModelOutput
Ġatt ended
ìŀ ¬
ãĥ¢ãĥĩãĥ« ãģ«
uff ling
Ġíķ ł
Up date
repeat s
Ġà¤ ª
ac cess
Col lections
Ġvisual ize
Ġsepar ately
war p
ãĥĻ ãĥ¼ãĤ¹
æł ĩ
éĿ ¢
BIL E
ãģ§ãģįãĤĭ ãĤĪãģĨãģ«
Ġì» ´
ĠCT C
Ġdevelop ment
Ġobser vation
Ã©ch antillon
assertLess Equal
Ġinvestig ation
è¤ĩ æķ°ãģ®
Ġreplic ate
Valid ation
' ))
) })
K r
L ink
N umpy
T otal
d atas
d types
f lags
o int
s park
í Ģ
er ve
Ġs ont
Ġf ra
Ġ" {%
re versed
ra ce
la mb
im als
Ġg ym
ĠS plinter
Ġv o
Ġv ide
Ġex ported
Ġcon secutive
). ",
Ġx la
max x
Ġint egr
ary Op
Ġpre processor
conv bert
]] ]:
ãĤĴ è¦ĭ
unk nown
=( -
Ġq former
Type Error
Attention Processor
ĠPre processing
ì§ Ħ
LE VE
Ġtra ced
Ġtyp ical
ëł ¹
LO AD
Ġman ager
cre ated
Ch ar
ä¾ Ŀ
à¥ Ī
Ġar qu
Ã¼ gen
caption ing
Ġsumm aries
Ġref s
åĳ ³
åĨħ åŃĺ
high light
æĬ ŀ
ceed ings
å¦Ĥæŀľ æĤ¨
ipp ets
æīĢ æľī
ĠCall ing
Ġconsum ed
Ġaf resh
GU IDED
ĠëĤ´ ìļ©
epis odes
èªŃ ãģ¿
ATTEN TION
Ġesemp io
Double Heads
ãģĦãģı ãģ¤ãģĭ
B ibTeX
C F
D PO
G raph
S c
S parse
U t
k arras
l lava
p map
p vt
r ing
¤ ëĭĪ
Ĩ Ĵ
or etical
Ġt exto
Ġf lo
Ġf act
Ġf sspec
un its
de gree
pro posals
__ _
ĠL D
ĠS c
ĠF l
Ġpr el
per f
own ed
__( *
ĠTF GPT
ĠTF Deberta
ĠĠĠĠĠĠĠĠĠĠĠĠĠĠĠĠ ĠĠĠ
Ġforward s
Ġconv olutions
à° ®
Ã© er
default s
Ġcor onary
Ġìŀ ĺ
Ġ% }"
Ġoff loading
Ġfa ils
gpt j
Dataset Dict
ĠJ s
åħ Ī
Av gPool
ãĥ¬ ãĤ¤
Ġinv ok
Ġclean up
Ġcast ed
ĠViT MAE
Ġsystem s
<_ >
branch es
ĠDE FAULT
ĠValid ation
DEVI CE
Select or
Ġë¯¸ ìĦ¸
çī¹å®ļ ãģ®
Ġdefinit ion
Ġverw enden
ĠìĬ¤íģ¬ë¦½ íĬ¸
å®ī è£ħ
éģ¸ æĬŀ
> ()
A b
H W
P op
T Y
[ {'
c pp
d r
t sv
t ier
v idia
Ã ´
æ Ĳ
Ġ QuestionAnsweringModelOutput
ĺ íĶĮ
Ġt ro
up scale
ĠC pu
con ll
ĠD inov
cl ick
LM Output
EN CODE
sh adow
Ġyour self
Module Factory
CH W
ho se
TH READ
query Selector
ä» ĺ
ĠAd v
Ġoff loaded
ë¡ľ ìļ´
skip If
å® ¹
ĠìŀĪ ìľ¼
gram counter
ãĥ© ãĥ³
Ġiter ations
ĠPr int
ãģ®ãĤ ¢
Ġë³ µ
íĸ Ī
oug at
å½ ¹
ordin ate
ĠXLM ProphetNet
Ġrepeat s
spa wn
íĥ Ŀ
è¡¨ ç¤º
Depth Estimation
TYP ENAME
inc ip
Ġprim ary
symb ols
Mark upLM
ĠdiffÃ©r ents
å¥ ½
ĠDI FFUSERS
A tt
B IC
B aseModelOutputWithPastAndCrossAttentions
E dit
L arge
M LMHead
S im
U rl
W ordLevel
b ust
i ma
Ġt xt
Ġi r
Ġi ll
it ers
Ġp il
ent ly
ur ate
Ġa im
Ġ- %}
Ġth eta
ĠS ummary
gg uf
str ategies
ĠP rior
Ġimport ed
ĠF ully
num s
Ġì ī
import ance
ĠE val
sh ields
sh uffled
call ed
url retrieve
ia o
clip py
ĠPre process
ĠConv olutional
Ġtmp dir
mat s
UN T
ĠBatch Norm
summ arize
Ġmat mul
Ġnotebook s
Ġinv erted
íĦ ´
command s
fs mt
pass ages
Ġauthor ization
ĠìĺĪ ìĭľ
UB IC
å± ¤
Ċĉĉĉĉĉĉ ĉ
Ġsuccess fully
ĠSto chastic
Ġvol ume
Ġplat form
å±ŀ æĢ§
Combined Pipeline
è¿Ĳ è¡Į
BIC UBIC
C LIPText
F eed
v ices
å ŀĭ
è µ
in ja
am ing
un gen
ãģ ¸
() ],
us ual
ĠA b
ĠL ength
ĠS y
(" *****
Ġtorch script
ĠD O
Ġun idiffuser
Ġì Ĥ´
test ed
ĠM ra
Ġint ended
Ġk B
ĠN at
umm ies
Pre TokenizedString
ĠĠĠĠĠĠĠĠĠĠĠĠĠĠĠĠ ĠĠĠĠĠĠĠĠ
DI CT
ĠCon trol
ä½ Ĩ
åı Ĺ
Former Model
Vision Transformer
Ġbeha viour
åĪĨ åī²
erial izer
super b
aug reg
pass ed
Ġport ions
ìĨ į
Ġrepla cing
ĠAutoPipeline ForImage
ĠLLM s
æĶ ¹
Ġutilis er
Ġpan ic
")} ))
Mat Mul
ĠCapture Logger
under line
Ġdepend s
Ġëªħ ëł¹
coust ics
ĠOUT PUT
JE CT
ĠìĤ´ íİ
) -
C ar
P osition
Z E
] [:
` ",
a cross
l strip
q l
r f
u ed
{ /
Ñ ģ
æ £
ç ·
Ġ ãģĬãĤĪãģ³
in structions
Ġs m
ion Error
od ay
Ġc nn
Ġf lags
re ement
Ġp od
ent ia
ra p
to o
Ġde quant
Ġnot re
ĠL O
ĠS DP
Ġtoken iz
"] ],
ĠB LEU
Ġgener ative
ĠIn former
ok s
ãģ® ä¾ĭ
ãģĻ ãģĵãģ¨
start ed
Ġnorm ed
()) [
imp ossible
Ġq len
ĠFlax Albert
cript ions
IL ABLE
Res idual
clo ud
ĠBert ForSequenceClassification
Ġmat plotlib
MS N
Ġoptim izers
ĠPro ject
ĠY olos
ãģĹãģŁ ãģĦ
Ġsepar ator
Ġcondition ed
ìħ ĭ
VA ILABLE
ãģĹãģ¦ãģĦ ãĤĭ
ĠMix tral
ëį °
ĠëĲ ©ëĭĪëĭ¤
eli hood
Ġreproduc ible
ĠmÃ© t
<_>> ();
Ġnom bre
Ġslo ts
Ġ***** ")
LMS DiscreteScheduler
' "
E uler
I magen
P L
P AIR
_ ",
i u
l ations
è ¢
Ģ ìĬ¤
Ġc andidates
Ġp ieces
Ġo k
ge mm
cod egen
pro file
Ġg ated
") ["
ĠA ST
ĠC our
ĠS i
=" </
Ġun scale
Ġun usual
ĠM ethod
For TextTo
... "
ĠU til
Ġint egrations
ãĤĴ è¡Į
no stic
à¤ ¸
St d
Ġ`" [
ä» ¤
åĪ Ľ
mark down
Ġà¤ ¸
ä¸Ģ éĥ¨
Ġbeha ve
jit ter
Ġlearn able
è¯ ¥
Ã¼ ss
å®ļ ä¹ī
Ġvariant s
ĠMobile Net
æĸĩ åŃĹ
Mobile NetV
File System
real m
åĳ ½
ĠSw ift
ĠSeg mentation
Trans foXL
gp str
éģ© çĶ¨
Ġconcept s
hfo ptions
ĠëĲ ĺ
Des erialize
ĠíĬ¹ ìłķ
ãĥİ ãĥ¼ãĥĪ
ĠCor respon
ĠPrun es
ëĶĶ ìĺ¤
RET UR
è³ª åķı
ssh leifer
) /
D irection
K arras
O wlv
T iny
V ilt
` ãĢĤ
d onut
n egatives
s ed
t ure
¦ Ħ
Ã Ł
Ġ ĊĠĠĠĠĠĠĠ
er ior
Ġm u
ra it
Ġb ins
ur ger
Ġ[ **
ãĥ į
ĠI magen
ĠD uring
Ġy es
ĠW ikipedia
Ġ_ )
Ġstr ided
Ġj eu
cceler ated
ĠTF AutoModel
Pipeline Tag
ãĥ³ ãĥĨ
En vironment
squ ared
ìł Ĳ
ãģķ ãģĽ
efficient former
Ġtrans late
LO G
Down sample
ik it
offload ed
ìĸ ĳ
Ġà° ļ
ĠìĿ´ë ¦Ħ
åĮ ħ
Ġsent iment
pret ty
By te
ãģĵãĤĮ ãģ«ãĤĪãĤĬ
Ġein er
Ġme as
ĠPar is
Or deredDict
è¿Ļ äºĽ
ĠíĽ Ħ
Ġpot entially
Ġconcaten ating
ãģĻãĤĭãģŁãĤģ ãģ®
Ġíĺ ķ
Ġhypoth esis
é«ĺ éĢŁ
ê°ľ ìĿĺ
Ġanal og
ëª¨ë į¸
æĶ ¯
Ġplay ing
nf net
waveform s
remo ving
anit ized
Ġproto col
esthet ic
ĠTRANS FORMERS
Ġconc ern
Ġinvok ed
A Y
A PP
A VAILABLE
F ield
G u
H acked
O LO
R MS
S tack
d po
d ual
i B
n l
n llb
q former
x net
ç Ĵ°
Ġ ãĥ¢ãĥĩãĥ«
or ation
el if
Ġc lick
ers immon
ĠC r
ĠC ard
lab s
ri ch
ĠB enchmark
ĠV its
pa g
li k
]) ]
Ġpre par
ëĭ Ŀ
MA N
Ġpa ges
over all
ãģ¯ æ¬¡ãģ®
ëĭ¤ ëĬĶ
Bert Layer
ãĤ¹ ãĤ±
ĠPre fix
dis criminator
ĠStableDiffusion InpaintPipeline
optim izers
Ġdiv isor
ĠìĿ´ë Ł¬
ãĥĸ ãĥĥãĤ¯
ĠAut omatic
It em
ä¹ ĭ
Ġterm inal
Ġmon th
ĠHash er
thresh olding
ĠPreTrainedTokenizer Base
ĠAttn Processor
Ups cale
Ġtrad e
Ġast ronaut
ĠCuda Storage
xg lm
Ġ["" ]
íĢ ĢìĬ¤
ãĥ¬ãĤ¤ ãĥ¤
F LOW
G LUE
i i
k xk
m usic
n ightly
r n
r ules
w t
} ");
ç ¶
ë ®
ï ½
Ġt elemetry
es net
ic les
Ġn a
Ġr m
Ġ( _
Ġfor k
Ġg elu
Ġ) ["
ĠC LS
ĠL in
Ġcon struct
Ġun masked
Ġì ´Ī
ĠM pt
ĠM essage
ĠB it
com es
run k
ãĥ¼ ãĥ³
og ram
rel evant
ä¸ »
vel ocity
ìĿ´ ìłĦ
ãĤ¯ ãĤ»
ãģķ ãĤī
dist illation
ãĥĥ ãĤµ
wh at
Fast Tests
ĠSe quences
Ġcommand s
Ġinstant iating
Ġë³ ĳ
ĠBe cause
sg ugger
åīį ãģ«
clud ed
Ġâ Ī
ä¼ ł
ĠApp lies
ĠmodÃ¨ les
Us age
Ġterm in
allen ai
Resnet Block
PredictionHead Transform
Prior Pipeline
æ¡ Ī
Hash Map
seres next
Ġê°Ģìł¸ ìĺ¤
datas amples
è¢ «
åĪĽ å»º
F P
H f
L LE
S chema
S ummary
c les
l ers
o le
å İ
æ ģ
Ġ ãģ¤ãģ®
Ķ ©
Ŀ ì²´
ut down
ic ate
lo ftq
ur b
ãģ ĸ
Ġis subclass
Ġtorch ify
Ġcon j
ĠD etection
ect ion
per Net
** ](
Ġco efficient
---- --
ĠIn formation
Ġsup press
MA T
ech o
De code
cat id
ĠFlax RoFormer
ãĥ¼ãĥ ©
ĠPre TokenizedInput
acc umulate
Ġfa c
ĠSt ream
ĠToken ize
script ing
ĠÃ ª
Ġorder ed
åĲĪ ãĤı
ĠLe arn
ãģ®ãĤ ·
Ġbel ong
<!-- -
select ion
ë² ł
ìķ ½
à°¿ à°Ĥ
Ġcell s
å¼ Ģ
Ġefficient ly
Ġ? ?
SEQ U
Ġonnx runtime
mos es
CO UNT
upper case
íħ Ĳ
rupt ed
Ġamp l
Construct s
Ġhor se
ãĥĹãĥŃãĤ» ãĥĥãĤµ
Ġthresh olding
Ġreposit ories
Adapt ive
Kw args
Ġê°ĢìĿ´ ëĵľ
Ġdistin ct
Ġvide os
ĠìĿ´ëŁ¬ íķľ
( ",
F LOAT
M er
W w
i ency
n age
p itch
Ġ arrow
he alth
st e
Ġf an
Ġf ake
ma chine
Ġ( ((
de coders
ha ust
con nected
con sole
end o
ĠW ord
ĠM ay
Ġ' /
ĠE q
ĠN on
Ġch a
ãĤĴ ãĥŃãĥ¼ãĥī
ĠTF DistilBert
rel ated
aut if
Ġend s
Ġdiff ic
ĠðŁ §¨
ãĤ¯ ãĤ¨
ĠOF T
Res ize
Decoder Config
method s
chunk ed
LA TION
Re former
flatten ed
ron t
Ch inese
ĠParam eter
Ġest im
ĠBy tes
ĠBe ispi
Ġhand ling
ci i
ãĥŀ ãĥ³ãĥī
correct ly
ĠDown sample
å¦Ĥ ä½ķ
gu ard
Ġedit ed
åĨħ ãģ®
åĭķ ä½ľ
Ġpou v
~~~~~~~~~~~~~~~~ ~~~~~~~~~~~~~~~~
BrandNew Bert
Ġauth ent
introdu ction
Ġko hya
LEVE L
çĴ° å¢ĥ
, -
/ $
D F
G ated
H z
H ID
L ast
L uke
] [-
] "`):
k d
Ã ²
Ñ Ģ
è »
ê ¸
ĵ į
ion es
Ġb es
Ġb al
un tain
() )?
if e
Ġfor get
rom e
th en
om ething
ĠC LI
ĠP rop
Ġma gic
ĠB oth
ca pt
code vectors
set Up
List ener
Ġconst raints
Ã© n
ote ca
lm s
ĠðŁ ĵ
ĠðŁ Įİ
St art
Ġdis card
åı ĳ
Seq Trainer
ãĥ¢ãĥĩ ãĥªãĥ³ãĤ°
ĠìĤ¬ íķŃ
ĠGPT Q
åħ ·
ëł Ī
![ ];
ĠQ wen
Attn DownBlock
Attn UpBlock
project ions
We b
ìĹ¬ ê¸°
Ġein em
ëĲĺ ìĹĪ
Ġì§ ģ
Ġsto chastic
å¤§ ãģį
stand ing
Sh arded
PARA LLE
çĽ ´
hu a
plan ation
Ġremain der
Ġìĭľ íĢĢìĬ¤
bas elines
ĠBuil ding
èĢ ĥ
epar able
ĠTim estep
ĠOptim um
ĠSto ppingCriteria
Ġalloc ate
Vari able
Event Listener
ĠCalcul ate
èī ¯
ë® ¤ëĭĪ
autif ul
HID DEN
! <
= .
D raw
M ethod
M IT
P ORT
i us
m usicgen
s ail
u z
w q
x b
° ¡å
ì £¼
į ĺ
el ine
Ġc ette
Ġc riterion
re play
im db
ĠT ransform
th esis
Ġg li
__ }"
Ġnot ice
ĠC ore
Ġre arrange
>> (
Ġe ffic
Ġcon nect
ĠD oc
ĠM ixed
com bined
iv Net
for d
Ġk Block
Ġcan vas
]) `
gener al
Ġ: ])
cept s
ib les
Ġcomp iled
ãĤĴ åĲ«
ĠTF T
EN SION
Test Mixin
ĠK MASK
St atus
CT CT
Ġconvert s
Ġnormal izing
wra pper
Ġacc umulate
ms Norm
'] [
Ġent raÃ®
Seg ment
Al ign
ĠUse ful
Ġdiv ide
Ġpreprocess ed
ãĥ¡ ãĥ³ãĥĨ
constant s
íĸ ¥
sin usoidal
Ġfeed back
ëĲĺ ì§Ģ
ä¾ĭ å¦Ĥ
EncoderDecoder Config
ãĥĿ ãĤ¸
rep etition
ĠWith DType
èĢ Į
Frame Classification
ĠíĻķìĿ¸ íķĺìĦ¸ìļĶ
Ġrespon s
ĠDistilBert Config
pear man
åįĺ ä¸Ģ
ĠDDPM Pipeline
ãĤ¹ãĥĨ ãĥĥãĥĹ
ĠðŁĳ ī
æħ ĭ
Ġvq vae
ãĥīãĤŃãĥ¥ ãĥ¡ãĥ³ãĥĪ
GENE RATION
Ġpay load
Ã¼ss en
SEQU ENCE
ë®¤ëĭĪ íĭ°
°¡å įĺ
( ":
/ _
B ias
F Net
P olicy
R M
R etrieval
S K
W orker
c st
d nn
d raw
s de
s olver
v ious
Â ®
Ð »
ç ¾
Ġp al
Ġb lend
Ġ- ---
Ġh ist
val s
") ?
ĠI l
.. ];
Ġcon structor
Tensor Shape
ĠD LA
ĠD inat
ĠB elow
For Generation
Ġco efficients
ĠE le
ĠE SM
Ġpre computed
LM PredictionHead
In f
ĠTF LayoutLM
Ġsc atter
ãģ« ãĤĪãģ£ãģ¦
arch itectures
Ġla m
ãģĹ ãģ¾ãģĹãģŁ
ĠPy torch
Ã© l
Ġpredict ing
Ġ] ;
ãĤ¯ ãĤ·ãĥ§ãĥ³
Ġcontext lib
ĠìŀĪ ëıĦë¡Ŀ
ĠSe cond
ĠQ DQ
Ġext ras
me asure
ĠSet s
åł ±
ten ir
Ġclo ser
Ġclo sure
Act Dense
ãģĻãĤĭãģĵãģ¨ ãĤĴ
hr net
Ġsqu irrel
Ġë³Ģ ê²½
çķ ¥
Ġactiv ate
ãģ¡ ãĤī
STAN T
Ġatom ic
Ġdro pping
Ġagg i
Ġcach ing
ãĥĿãĤ¸ ãĥĪãĥª
I Adapter
N eed
R educe
Y i
c umulative
d et
g erman
l attice
§ ãĤģ
ì ¸¡
Ġ âĶľâĶĢâĶĢ
al so
ed i
Ġc ir
Ġc riteria
Ġm argin
Ġw arn
ĠT hose
rom ise
Ġh im
ĠA T
ĠA lex
Ġst oring
py list
Ġex ceed
Ġun ic
Ġì Ī
ĠW uerstchen
Ġ' '
ĠG u
gener ations
ĠIn to
Ġí Ķ
group vit
Ġfol ders
ĠFlax T
à± Ĩ
fram eworks
Par a
UL ES
hy brid
Ġaccept able
ãĥĳ ãĤ¹
ãģĬ åĭ
cd n
Ġport ion
Ġê³ ł
Ġëį°ìĿ´íĦ° ìħĭ
ĠNet work
dat adir
ĠíĮĮìĿ¼ ìĿĦ
ipp et
OW L
contin uing
æĮĩ å®ļ
BU G
Ġface book
di ag
Ġëħ¸ ìĿ´ì¦Ī
è¾ĵ åħ¥
Ġíĺ¸ ì¶ľ
ĠðŁĶ ¥
======================== ======
INTER PO
æ£ Ģ
ãĥİãĥ¼ãĥĪ ãĥĸãĥĥãĤ¯
åĲĪãĤı ãģĽ
ãģĬåĭ §ãĤģ
> \
C ausal
E L
G N
M D
M M
R wLock
W ITH
d eter
m ust
p ho
s elu
{ }
| >"
} ).
Ġ íķĺëĬĶ
el apsed
Ġt ree
Ġs chedul
Ġd ual
Ġd ifer
Ġc utoff
Ġ" *
ur k
Ġr Ã©s
am os
est a
Ġ- --
ot print
ĠC amembert
ĠS agemaker
ĠO nnxConfig
). "},
dim ensional
Ġdefault dict
get ower
np z
ib old
Ġwor ry
Classification Head
Un able
ĠFlax Whisper
Ġtr ick
Ġany how
}") <
åĲ ¯
ãĥ¼ãĥ ģ
ãģķ ãģ¾
Res ource
ĠX CLIP
Ġmo v
quant s
tokenizers lang
Ġwhere as
DO WN
ìĦ± íĻĶ
hy poth
card inality
ĠAutoModelForCausalLM WithValueHead
ili ar
sem ibold
inst ant
æľī åĬ¹
mk d
Ġincre asing
ĠStableDiffusionPipeline Output
Ġmon key
ĠChinese CLIP
slo ts
ĠEmbedding s
Ġbot tle
ĠìŀĳìĹħ ìĿĦ
Patch Embeddings
ĠDec ision
Flash Attention
åıĸ å¾Ĺ
ĠSA FET
çĬ¶ æħĭ
æ¯ Ķ
Ġpract ice
ĠRel ative
ĠíĹ Ī
mnas ium
ĠÃ¼ ber
Ġìĸ¸ ìĸ´
redu ced
clan lp
umpt ion
maxx vit
å½¹ ç«ĭ
tokenizerslang content
" (
: {
G AS
O ut
W ITHOUT
_ )
c argo
p in
q q
y o
| >",
Ġ ant
Ġt iled
ar Ã¡
Ġc ada
Ġc red
id ad
Ġp itch
ig er
ig id
Ġm embers
ma pper
ma chines
um es
ul i
ãģ ¥
qu er
ĠT H
ps ilon
Ġst and
ĠP vt
ĠM a
ĠM MA
Ġus ual
out len
ĠIn MemoryTable
Ġnew er
ãĥ¼ ãģĮ
mo e
ãģĹ ãģı
Ġí ĸ
rel pos
reg ular
Ġcopy file
ĠFlax Roberta
ĠFlax Bart
Ġlocal s
Ġperm ute
Ġìŀ ¬
respon ses
Ġëª ĩ
ìŀ Ħ
Ġdepth wise
æķ Ļ
è¦ģ ç´Ħ
Ġdset s
Ġoptim um
Ġà° ķ
åľ °
OP Y
Ġspeed up
ãĤ¢ ãĥ«
åº ı
ĠCode Gen
db lp
Ġincre mental
Ġfew er
TOKEN S
allow ed
NeX T
Ġtri al
cons istent
align ment
Ġcap ability
AST ER
ĠìŀĲ ëıĻ
ĠOff load
Drop Path
ĠSpec ial
íĥ ľ
Ġanal ysis
PC MultistepScheduler
ãĤ« ãĤ¹ãĤ¿
EPS PEED
ĠParallel ism
CausalLMOutput WithCrossAttentions
ĠRa ise
unkt ion
VAR I
ĠìĦł íĥĿ
ĠLogits Processor
ĠìŀĦ ë²ł
ĠìĥĪ ë¡ľìļ´
ĠPushToHub Callback
Ġpouv ons
$ $
& :
A re
C IT
M ore
P LE
S AN
b reak
u clanlp
é ĥ½
Ġs ources
an illa
Ġd t
Ġf oo
Ġp ode
le ep
Ġm se
Ġm Ã¼ssen
Ġr iding
is inf
Ġl attice
ĠA LBERT
ĠI oU
ĠP L
Ġun ion
ĠB in
IN CE
Ġco okiecutter
Ġë ĨĴ
Ġen coders
Ġsh ell
ĠG LPN
ang ular
AR K
Ġfile path
down scale
ign ored
En gine
Ġfloat ing
reg ressive
=( '
With LMHead
atio Temporal
Wh itespace
LA P
wh l
Re fer
ëĲ ł
RO M
å° ±
Ġest Ã¡
åº Ķ
Ġfeed forward
Ġ\\ (\
ĠBase Tuner
Ġeffect ively
ĠDown loading
limit ations
ĠSoft ware
ĠUni Diffuser
åı¯èĥ½ ãģª
AutoModel Class
ãĥ¼ãĤ¸ ãĤ§
slo pes
ç¿ »
ĠOpenAI GPT
ĠìłĢìŀ¥ ìĨĮ
sa crebleu
Ġapprox imate
Ġë§¤ ìļ°
ĠVQ Model
Ġbibli oteca
ãĥ¯ ãĥ¼ãĤ¯
MOD ULES
Ho ok
ðĿ ķ
ãĤµãĥ³ãĥĹ ãĥ«
ãĥĩãĤ³ ãĥ¼ãĥĢ
OUTLM V
RETUR NS
ãģĸ ãģ¾
ãģķãģ¾ ãģĸãģ¾
ĠìŀĦë²ł ëĶ©
INCE PTION
" -
) **
C urrent
C amembert
D iffusers
H U
J o
S in
a max
g ap
k g
m es
n c
o es
s udo
t gi
y e
æ °
ç ¢º
Ġ ])
in cluding
Ġi mm
Ġc er
Ġf i
Ġf aire
Ġw alk
Ġde i
Ġde coders
un s
un idiffuser
pro gram
ĠA R
ĠA ug
ĠC lip
ĠL LaMA
ĠS ampling
ĠB o
For Prediction
Ġan ch
av es
]) ),
conv olutional
ST ATE
Ġlog probs
with in
ie f
og raph
ãĥĪ ãĥ©ãĥ³ãĤ¹
aut hor
Ġover view
Conv Transpose
Ġapplic ation
Ġmod ifications
Ġlabel ed
Decoder Output
std dev
Ġcod ice
Ġiter ate
Ġstream er
EXT ENSION
Ġest e
Ġìĺ ģ
inv ert
å¿ħè¦ģ ãģª
ĠìłĦ ì²ĺë¦¬
>= ",
æĽ ¸
ĠĠĠĠĠĠĠĠĠĠĠĠĠĠĠĠĠĠĠĠĠĠĠĠĠĠĠĠĠĠĠĠĠĠĠĠĠĠĠĠĠĠĠĠĠĠĠĠĠĠĠĠĠĠĠĠĠĠĠĠĠĠĠĠ ĠĠĠĠĠĠĠĠĠĠĠĠĠĠĠĠĠĠĠĠĠĠĠĠĠĠĠĠĠĠĠĠ
ä¹ Ł
ĠBigBird Pegasus
RES ULT
Download Manager
ĠLa unch
Ġcompar ison
Ġpi Ã¹
ĠìĨį ëıĦ
Pass ing
Ġsat isf
ĠDen oising
ãģ«éĸ¢ ãģĻãĤĭ
è¦ı æ¨¡
Ġns fw
OFF LINE
Ã©chantillon nage
åĳ½ ä»¤
ĠCorrespon ds
Upscale Pipeline
INTERPO LATION
> '
C LIPTextConfig
D PT
G ROUP
N ous
[ \
f i
h l
ç º
è ±
Ġt dnn
od d
ar ound
ic ons
Ġto l
Ġw enn
Ġ( $
Ġg old
ĠC pmAnt
ĠS ource
oc r
ĠF ind
ĠD eterm
bo unds
ĠR TX
ĠM ain
Ġpr incip
To Tensor
To Video
ok ies
Pro v
back ed
Ġup stream
vi el
En c
ĠImage PipelineOutput
FI CS
Ġpo semb
Ġcont en
clip ping
Ġmo vq
ĠJ ust
Arg s
ĠGPT BigCode
ĠSt age
ĠSt ore
Ġseg u
Ġê° Ŀì²´
Ġmer ging
select ed
FIL ENAME
ãģ£ ãģŁ
Pa per
go od
syn ced
éĥ¨ åĪĨ
ĠíĨłíģ° íĻĶ
åįĺ èªŀ
fra c
Over write
åĲĳ ä¸Ĭ
ĠPost Processor
Ġë§Į ëĵ¤
Weight s
Ġpropert y
Ġì¤ Ģ
growth growth
ãģķãģ¾ãģĸãģ¾ ãģª
: ")
D ot
D etect
M N
P ad
S UM
W AV
f lava
s ite
ç ķĮ
Ġt en
as viel
Ġin spired
Ġw in
arg inal
Ġ{ :?}",
con tains
Ġe at
ly asviel
ĠR GB
ĠM etal
IN ES
Ġgener ally
ud ach
Ġwe bsite
ĠH ard
Ġqu esto
sc ratch
Ġch arge
In struction
ĠTF Data
ĠUn icode
Ġshould n
Ġí İ
Ġper cent
ĠDe BERTa
Ġpredict or
Ġ] :
Ġover head
RAN CE
word piece
DITION AL
Ġtemp s
generator s
---------------- ------------
Pr et
è¦ ļ
opt una
éĢ ģ
ĠParam s
å¿ «
git g
ãģĹãģŁ ãģĮ
Ġbehavior s
Normal ize
Ġutil ities
ãģ¦ãģĦ ãĤĭ
çī Ī
ìĥ Ŀ
activ ate
Key words
Ġserial ization
ä¸į åĲĮ
Efficient Net
ç§ ģ
ĠTable Transformer
Ġexpert s
Ġdeterm ined
ãĤŃ ãĥ£
ĠLC M
Ġops et
Ġsuit able
ollow ing
elo ck
anal ysis
åĳ¼ ãģ³
Ġentren amiento
Ġill ustr
ç¶ ļ
ãģķãĤī ãģ«
Ġdiffic ult
ãĥ¼ãĤ¸ãĤ§ ãĥ³ãĥĪ
/ ):
G ET
M atte
P ixel
` '
b ark
f name
g umbel
h ist
m ad
p unc
x FF
z oo
µ Ĳ
¿ ãĤ¹ãĤ¯
ì ĭ¤
Ġ ing
Ġ çļĦ
at ype
Ġs on
od ed
st udio
Ġb ench
Ġw elcome
() (
() `,
ck ing
ext ernal
") ):
Ġre calculate
ĠS emantic
ĠS core
(" >=",
Ġtorch audio
key words
ĠF loat
ĠM ich
ĠM ost
ĠV M
ĠN umpy
ĠG iven
cl usters
]] .
([ '
start s
Ġnew line
Ġne ck
ĠTF PreTrainedModel
ĠAuto Augment
ie ba
book s
ax s
PR OM
ĠTensor Board
Un iversal
Mix tral
Ġinter leave
TF Bert
ìł ĳ
With LMHeadModel
PO RATION
Ġass uming
ĠLo Ha
'] }
ìĬ¤ íĦ´
Ġpres ents
Ġcontin uous
ĠUNet MidBlock
Ġprior ity
ĠY our
Ġfactor s
ãģ¿ ãģ¾ãģĹãĤĩãģĨ
ãĤĤ ãģ§ãģįãģ¾ãģĻ
ĠìĿ´ ëĬĶ
ë² Ħ
Ġsepar ated
Ġincre ases
Ġimpro ved
èĩª å·
æĿ ĥ
ĠìĺĪ ë¥¼
ĠìĺĪ ì¸¡
ìĽ Ģ
regnet y
ĠRoberta PreLayerNorm
ĠíĮĮìĿ´íĶĦëĿ¼ìĿ¸ ìĿĦ
íĥ Ģ
Ġanal y
rec ated
ĠRag Retriever
Ġíķ¨ ìĪĺ
Quant izer
Ġìĺ¤ ëĶĶìĺ¤
Ġalloc ated
anit ize
seres net
æº ĸ
Ġang io
ĠForm at
Ġbear er
ĠCOR PORATION
atthe ws
ç¾ ©
ãģĬåĭ§ãĤģ ãģĹãģ¾ãģĻ
PROM PT
èĩªå· ±
- \
> (),
A rt
E ach
H AL
M apped
` ])
a coustics
d Config
m ind
n dims
p unct
s cheme
t u
| [
í ħį
Ħ ãģ¿
Ġs olution
Ġs ite
Ġto ld
Ġh arm
ãĥ ĺ
pr enet
ĠC ache
ĠO S
py pi
ĠB N
Ġsup posed
RA P
ãĥ¼ ãĤĴ
ĠTF DeiT
ãģ« å¤īæıĽ
ĠĠĠĠĠĠĠĠĠĠĠĠĠĠĠĠ ĠĠĠĠĠ
ll lyasviel
à¤ ¹
trans fo
Mix ed
âĶ Ķ
Auto Mapping
ĠX mod
=[ '
Dataset Info
Ġass igned
present ations
inter pret
ĠGPT SanJapanese
Conditional Detr
ĠStableDiffusion SafetyChecker
ĠSt orage
Roberta Tokenizer
Com pute
Col lection
ãĥģ ãĥ¥
ef ined
ĠMax xVit
ĠAudio LDM
Ġbenchmark s
ãĤ¨ ãĥ¼ãĤ¸ãĤ§ãĥ³ãĥĪ
bl ank
Ġcomplet ion
Ġreport s
brid getower
Lazy AutoMapping
è¡¨ çı¾
ĠTemp late
ĠLi u
ĠSup ported
SentencePiece Processor
Aut omatic
cud nn
íĤ¤ íħį
ĠSFT Trainer
HW C
æĶ¯ æĮģ
ãģĹãģŁãģĮ ãģ£ãģ¦
íĤ¤íħį ì²ĺ
$ ",
D eta
I B
L ittleEndian
N ONE
P oly
k Block
v c
ç ¼
Ġ ĊĠ
Ġs ess
as cii
al most
et y
Ġi magenet
ro y
Ġp hi
ent r
Ġo l
Ġb ash
Ġh ours
up lm
th ird
`` ,
ĠI hr
head ed
Ġv i
), )
Ġse cu
ĠM ean
For XVector
Ġco ol
ay er
pl bart
ĠIn troduction
pi ano
ram id
(( (
ãģ§ ãģĤãĤĬ
ari a
PR I
mod ify
Text Retrieval
ĠPre TokenizedString
Ġmin utes
Ġign ores
ĠSe quential
transform ed
RE G
Ġë° ľ
Ġê° Ĵ
Ġext rem
now ball
inf inity
FA CE
ĠìĿ´ ë¥¼
Ġpret rain
ĠPeft ModelFor
any thing
UNet MidBlock
Ġìŀĳ ìĦ±
ç´ ¢
<' _
TRANS FORMER
TEST S
ĠìĿ¸ ìĬ¤íĦ´
Ġìĭ¤íĸī íķł
Ġyear s
Ġjo urnal
slo pe
STAN D
Download Config
ĠìķĦ íĤ¤íħįì²ĺ
ĠPPO Trainer
Cont ent
Ġreproduc ibility
Ġtell s
cover ed
Ð¾ Ð
Post Processor
nas net
coat net
Ġbenef it
DoubleHeads Model
ĠSDP A
ãĥ¡ãĥ³ãĥĨ ãĥ¼ãĤ·ãĥ§ãĥ³
Ġunic oded
mkd temp
GAS US
CIT ATION
Ġì¤Ģ ë¹Ħ
Ġunicoded ata
+ ",
: *
D NN
L Resource
O ption
O UR
S paces
W ord
k es
t resnet
y olo
z ephyr
{ },
} ":
ë ¨
ë ĺĲ
ļ ¨
el ta
Ġt are
Ġc arg
Ġf ft
Ġp layer
Ġp lot
Ġm l
ex citation
la m
to Be
ol l
pr ng
ĠC annot
ĠS ync
Ġtoken izing
Ġv el
Ġex plain
Ġex Ã©cut
co up
ĠB etter
ĠV oice
log ps
get state
Ġ| =
ĠTF GroupViT
ĠTF MPNet
sh aring
oth Ã¨
mod ified
ĠPre par
Ġoff ers
Auto Class
cor pus
Ġgroup size
mark uplm
mem Layout
enc ies
ov net
å®ļ ç¾©
ãĤ¤ãĥ³ ãĤ¹ãĤ¿
Load ers
Sh ard
rest arts
è¿Ļ ä¸ª
æĹ ¢
Ġti isg
ç¤º ä¾ĭ
Ġmark ed
Ġimplement ations
amb i
KV Processor
Any thing
Ġsymb olic
mobilevit v
Ġìļ °
Ġtimestamp s
(... )
Ġpued es
ãĥ¯ ãĥ¼ãĥī
ãĥĹãĥŃãĤ» ãĤ¹
Predict or
Added KVProcessor
ĠAssert ionError
Ġdelet ed
ãĤĴæıĲ ä¾Ľ
ĵį ä½ľ
Ġeffic iency
ĠìĿ¸ìĬ¤íĦ´ ìĬ¤
ãĤ¤ãĥ³ãĤ¹ãĤ¿ ãĥ³ãĤ¹
D UMMY
M otion
M etaspace
O I
O per
R ON
U E
b io
g ro
p w
p ndm
t iled
Ĳ ìĦľ
Ġs ks
ar ial
Ġc d
Ġc ou
Ġm inds
se en
ex it
ex clude
Ġb urger
am used
ul ative
one former
Ġ` @
Ġ` {"
ol yn
Ġ* __
ĠA us
torch audio
pr ime
ĠF LAVA
ĠR eward
ant a
av a
Ġk ann
ĠN ous
cl vp
ST AT
DE BUG
list s
Ġconv en
De formableDetr
over rides
Ġdown scale
Ġcheck out
,) `):
Ġover la
Ġover written
ãģŁ ãģ¡
Text ual
Ġlimit ed
ì§ ¸
pres et
skip Test
åı Ĭ
à± Ī
ĠCLIP VisionConfig
Re alm
ĠLo Kr
ãĥª ãĤ½ãĥ¼ãĤ¹
ĠSt ates
ĠFace book
Al tCLIP
Ġextract ive
Ġinv ert
super vision
ĠìłĦ ìĹĲ
ãĥĲ ãĥĥãĤ¯
ä¼ ¼
TRANS CRI
ĠHf Api
Ġoptimization s
Ġcap abilities
é¢ ĺ
Ġì° ¨
éĢŁ åº¦
ĠëıĦ ìĽĢ
ĠVi TImageProcessor
watermark er
anc ers
replic ate
MULTI PLE
ä»» ä½ķ
åĬ¹ çİĩ
ãĤĴæĮ ĩ
Ġdecor ator
experiment al
ĠImple mentation
Ġdire ctories
Ġcommun ication
App ly
StableDiffusionXL Pipeline
Ġë¬ ´
Ġê³Ħ ìĤ°
concaten ated
obser vation
ORIGIN AL
Feed Forward
ãģ¸ ãģ®
ĠBytes IO
âĶĶ âĶĢâĶĢ
' }]
C OPY
O FT
f ort
i amo
r uff
Ġs al
it ing
Ġ" ."
Ġn args
() }")
Ġl lama
Ġ[ {
de ploy
th umbnail
ert ification
Ġv ert
co eff
). <
art ifacts
ver gence
ĠR msNorm
log ical
Ġlet s
Ġen counter
ĠU ps
ĠG l
`. <
start ing
ãģ¾ ãģļ
ens itive
ĠCon sistency
ãĥ³ ãĥģ
ä¸ ¡
ak es
Ġperm ut
fl u
Ġ`" </
ĠAd apter
ĠPre cision
ĠConv Net
post Message
Ġvari ation
åı ª
:` (
ãĥ¼ãĤ «
LO GI
DP MSolverMultistepScheduler
ĠCh ange
Ġcontin uing
Ġà¤ ®
ãĥ¬ ãĥ¼ãĥĪ
Ġsum f
Ġcontrolnet s
vers arial
Ġutil iz
sem i
ãĥĥãĤ¯ ãĤ¹
TOKEN IZER
+) ',
END POINT
Ġë°© ìĭĿ
Ġê°Ļ ìĬµëĭĪëĭ¤
Ġ"/ "
Ġdescrib e
ĠDataCollator WithPadding
Convert er
Formers AttnProcessor
Ġfreq s
ĠVi THybrid
Ġconfigura zione
Ġaud ios
ĠUnit ed
Ġbibli othÃ¨
Pattern s
ĠDiffer ent
ester ov
ì¡ ´
ĠìĦ± ëĬ¥
THREAD S
Ġprimary Class
RMS Norm
LOGI TS
D a
H or
I defics
R T
T oday
U MT
k ing
p id
r ist
s st
t g
z v
è ´
ê »ĺ
in str
Ġs olve
Ġd ct
ing u
re z
Ġp in
ig e
est ern
po l
val Strategy
ab stract
Ġ{ :.
ĠL ilt
eight Decay
Ġex pansion
ĠD ATA
ĠR ay
ĠB ioGpt
per centage
]] `
ta il
`. ",
Pro vide
Ġlist ed
sh r
uid ed
patch ing
ãģ§ ãĤĤ
ä½ İ
}) `):
Ġmod al
clip seg
ãģĻãĤĭ ãģĭ
Ġdifferent ly
dist ill
Mask Former
tra iling
Ġnam ing
}} _
ĠCh ar
Ġdist illed
Ġest imate
utorial s
Ġho od
Ġdocument ed
Ġhyper parameter
Max Pool
sn ippets
Ġrot ate
Ġpur pose
éĩı åĮĸ
Ġì° ¾
ĠíħĮìĬ¤íĬ¸ ë¥¼
Ġsn ake
ĠClap Audio
ivers ity
ĠOn ce
ĠErnie M
tw itter
éĹ ´
Si LU
mistral ai
(... )`
loy d
ĠStr ip
DIS ABLE
ðŁĴ ¡
æľĢéģ© åĮĸ
Ġdistil bert
ĠLD M
ĠCudaStorage Slice
Ġcha que
ĠBaseTuner Layer
> "]
A WQ
C AS
L Y
N EXT
c ircle
f riend
p d
p and
s se
y ang
¸ ìĿ´
é ĺ
ì Ī
in el
el t
Ġs olver
al la
Ġc art
Ġc itation
Ġin flu
ent es
Ġw s
Ġl ive
ext ras
up scaler
Ġ) ?
Ġ{ **
ĠA MP
ĠS ch
ĠS lightly
ĠI DE
Ġe cho
ĠF e
ĠD el
ĠB ild
ĠB LOOM
Ġsh all
Ġal most
ĠN atural
In stant
ãĥ¼ ãģ¯
à° ·
Ġê ±
Un der
ĠFlax Beit
Ġover rides
ĠModel Arguments
rid ing
cor rection
wav lm
AN DB
Generator BasedBuilder
Ġsig moid
ĠìĦ ľ
project ed
Ġëĭ¤ ìļ´
Ġpush ed
Ġdiv ersity
Ã¨ s
Ġest imation
MT Model
Ġutil ity
inv isible
ĠSh ift
Ġclo ud
Ġlead s
å¤§ è¦ıæ¨¡
ĠInstant aneous
Ġrot ation
Ġmultip ly
Ġdec imals
Ġprodu ces
cp pe
Ġcr imes
é¢ ĳ
---------------------------------------------------------------- ----------------
Ġmaint en
))? .
Spec ial
GG ING
upd ates
Off set
BU IL
ĠTorch Script
ĠMasked LMOutput
HO ME
Sto ppingCriteria
Ġris ks
åĪĨè¯į åĻ¨
Distil BertModel
NI E
ĠìŀĲìĦ¸ íķľ
å¤ļãģı ãģ®
Sp atioTemporal
ãģĦãģıãģ¤ãģĭ ãģ®
ĠBeispi el
ãĥĪãĥ©ãĥ³ãĤ¹ ãĥķãĤ©ãĥ¼ãĥŀ
ç§ģ ãģŁãģ¡
HAL F
ä¸¡ æĸ¹
- %
/ **
> ();
C OR
F alcon
F loyd
e ca
f am
m ade
s peed
v ovnet
æ ĵįä½ľ
ç ¯
ç Ł¥
er c
Ġs anitized
ic i
re con
Ġp s
ent ren
Ġn gram
ct h
ul lable
ers atile
Ġh int
pr elu
ĠL ambda
Ġv or
Ġpro ces
Ġcon da
Ġun igram
Ġì ¦
ĠM ar
ann ed
Ġwh ite
ĠE num
]) <
ĠIn version
sc rib
col lections
ĠTF Lxmert
Ġsuper vised
vi e
ĠImage Input
ìĦ ł
trans ition
PE ECH
ãģĮ åĲ«ãģ¾ãĤĮ
squ ash
ĠConv Block
Ġëª ©
bar s
ĠJ apanese
Ġkeep dims
ms olver
AD ATA
ãĥ¼ãĤ ¶
Trainer Callback
ov ers
ãĤ¢ ãĥĥãĥĹ
dp msolver
distil gpt
ĠFile NotFoundError
ĠBart Tokenizer
CI AL
Ġjo int
æİ¨ çĲĨ
clear ml
Ġgl ue
ĠKey Error
Ġíķ¨ ê»ĺ
åħ¨ ä½ĵ
ĠSup port
åŁº ãģ¥
ka iming
TIC LE
dark net
assertGreater Equal
éł Ĩ
Push ToHub
ĠTOKEN IZER
ĠFran ce
Ġbelie ve
è¦ĸ è¦ļ
Ġì§ģ ìłĳ
Universal Segmentation
Mapped Table
STAND ARD
! )
/ ~
_ ._
h am
n at
o logy
t weak
x nli
æ Ł
ç °¡åįĺ
el la
Ġs ie
Ġs licing
Ġd ump
Ġf la
ex plain
Ġw ik
Ġa ggregate
Ġst ores
ĠS er
ĠS ummarization
ĠI Python
els ink
con structor
Model Cfg
Ġpro ce
Ġse qu
ĠB ig
Ġx m
Ġx paths
Ġco pies
iv os
cess ary
ĠN llbMoe
cl usion
TI FI
sw ag
Ġ... ],
ĠTF BertModel
Ġforward ed
Ġnorm ally
()) ),
vel oper
Ġpad s
Ġq h
ĠFlax Wav
ph onem
}) `
ãĥĩ ãĥĲ
be en
Dataset ModuleFactory
Vision TextDualEncoderModel
GPT Neo
Ġtrans crib
è¿ ĺ
æķ £
Ex ecut
Ġëª¨ëį¸ ê³¼
Ġìĥ ĺíĶĮ
Ġclean er
Ġpack ages
Ġhe av
IGH T
ëª ¨
ĠComp ose
ĠBart Config
Ġgather ed
BPE Tokenizer
ĠOff set
Ġadv anced
Ġsn apshot
Patch TSMixer
Ġà¤ķ à¤°
ATT ER
IDE N
("- ")[
ĠInstall ation
semb le
ãĤĴç¢ºèªį ãģĹãģ¦ãģıãģłãģķãģĦ
æ¯ ı
bal anced
Ġresid ue
Ġê°ĢëĬ¥ íķľ
ãĥ¦ ãĥ¼ãĤ¶
ForAudio FrameClassification
Ġsit ting
ĠíĻľ ìĦ±íĻĶ
ç¬ ¦
xic ity
Ġphr ase
ĠSqu ad
Ġenh anced
ä¾Ŀ åŃĺ
æĲ į
ĠÃª tre
åĳ¼ãģ³ åĩº
elsink i
' ",
. "),
B L
G oogle
Q L
S u
U AL
a el
d ess
h w
p hoto
p kl
r tol
x clip
y i
§ ĺ
» åĬł
Ġ ãĥ¢ãĥĩãĥ«ãģ¯
Ĳ ì§Ģ
ĊĠĠĠĠĠĠĠĠ ĊĠĠĠĠĠĠĠ
Ġs mp
Ġm im
mp eg
Ġw iki
Ġr anks
Ġ( ))
Ġ( _,
im in
Ġ[ {'
Ġ# @
Ġg ithub
Ġg gml
ir ror
Ġv oice
=" (
co very
ĠR ob
Ġ' ,
Ġë Ħ
Ġë Ĭ
Ġk len
ĠN U
Ġra ised
ifi ers
ãĥ¼ ãĥĩãĤ£
Ġout perform
Ġso undfile
Ġconst raint
ï¼ Ł
íķĺ ê±°ëĤĺ
PR ETRAIN
group ed
jo urn
çĶ ±
Ġpo se
Ġover flows
ãģ¨ ãģĬãĤĬ
press ion
Ġmo untain
Seq TrainingArguments
AL BERT
ĠSt andard
![ (
ãĤģ ãĤĭ
AutoModelFor CausalLM
ä¾ ¡
Ġclip ping
ĠAcc umulation
uf Ã¼gen
ãĤĤ ãģĹ
pret ok
åĨ µ
Ġtrack ing
ç» ĵ
Ġê²ĥ ìĿĢ
æŀ Ħ
Base AutoModelClass
ĠìłĦ ì²´
Ġìĭľ ê°Ħ
Ġìłľ ê±°
asse mble
pat ience
imes former
Stream Handler
Ġdat os
IMP L
ãģĿãĤĮ ãĤī
Ġph one
Ġph onem
äºĭåīį åŃ¦ç¿Ĵ
usoidal PositionalEmbedding
Ġfam iliar
Ġì½Ķëĵľ ë¥¼
ĠíķĦìļĶ íķľ
å¯¹ äºİ
æ· »åĬł
Series Transformer
WOR K
Ġpossib ly
Ġadvant age
æ± º
ĠVari ational
ĠVit Det
ĠER F
Ġmention ed
éĹ® é¢ĺ
Ġsuiv ante
èŃ ĺ
Ġìī ½
SK IP
Poly AI
prelu de
ãĥ¼ãĥĩãĤ£ ãĤª
) `:
. </
A rabic
D DIM
K am
K eras
N iels
` ï¼Į
c la
c asse
g uf
m im
n ative
p romoter
s plinter
u el
x ception
y outube
} %
´ »
å Ħ
æ §ĺ
Ġ Î·
Ġ energy
en alty
Ġs ing
Ġs queeze
as elines
re pla
Ġp seudo
Ġm ass
Ġm illion
Ġn best
ma jor
() ));
ĠT ool
Ġg umbel
ha o
.. ..
Ġbe come
Ġbe comes
res nest
ĠF N
ĠF ilter
ĠD ynamic
ial ias
ĠR AG
ĠE l
set state
rad ius
Ġmax vit
ob re
ST M
label ed
Image ClassifierOutput
ĠTF XLM
ĠTF Tapas
nd file
ĠImage ClassifierOutput
"]) [
Bert ForCausalLM
Bert ForNextSentencePrediction
iter ations
comp lex
do ctest
Ġrel y
ãģĦ ãģĨ
auto encoder
Ġatt ach
ref iner
Py Tensor
GPT Q
ĠInd ic
ìĬ¤ íģ¬
æĪ ¦
ĠìĤ¬ìļ© íķ©ëĭĪëĭ¤
Ġext ensions
Ġà° ¸
ĠPro cessing
ãĤ· ãĥ¥
å¯ ¼
Ġrest ype
report s
Ġê³ ¼
Ġct c
ĠIs ra
íĺ ¸
How ever
("_ ")
oft en
dig o
Beam Search
ĠEuler AncestralDiscreteScheduler
ĠEsm Fold
ĠTFMobile ViT
ãģ«å¯¾ ãģĹãģ¦
Ġdecre ase
MIS C
Ġsoll ten
organ ization
Ġconcern s
Ġangio graphy
OI CE
olyn omial
TIFI ER
IDEN TIFIER
ĠNU MA
* (
= <
D R
F l
a ware
b j
n es
r st
w atch
x xl
y l
at iv
el ements
Ġt ut
he z
ch es
Ġd il
it an
Ġp tr
Ġm Ã¶
lo so
se cs
Ġw te
il ities
de ps
th row
th ough
__ :
"] [:
ĠP andas
ĠF inal
ĠR otation
ific a
ft une
Config Manager
ĠU perNet
ĠE st
Ġmax imize
Ġpass ages
Ġpar agraph
ĠTF DPR
ĠTF RobertaPreLayerNorm
ĠTF Rem
ĠTF Flaubert
ĠTF Esm
pen ding
Ġsc reen
Test ConfigManager
)? )
ree k
à¤ ®
ĠFlax LongT
ĠðŁ Ĵ
ĠX XX
Ġtra it
Co unt
######## ####
ĠSe arch
ĠTh at
ç» Ļ
Int el
å¼ ·
ãģĻãĤĭãģĵãģ¨ ãģ§
(".") [:
æŃ ¥
Ġart ifact
ORT ED
ãĥĪãĥ¼ãĤ¯ãĥ³ åĮĸ
Ġãģ« ãĤĪãģ£ãģ¦
ĠìŀĪëĬĶ ì§Ģ
syn cth
Ġsn ippet
Ġë©Ķ ìĨĮ
(&[ &
Ġìµľ ìłģ
ĠOptim ization
ĠMo ve
Quant ization
ĠState Dict
Ġê°Ģì¤ĳì¹ĺ ë¥¼
subclass ing
æĥħ åł±
æĥħ åĨµ
è©³ç´° ãģ«ãģ¤ãģĦãģ¦ãģ¯
ĠImp ro
simd group
enh ancers
lamb d
Ġtokeniz ador
ĠProject Configuration
Ġíĺķ ìĭĿ
æģ ¯
udach i
æĿĥ éĩį
PRI OR
syncth reads
# @
% %
/ ")
A DER
H x
Q wen
T UN
b eat
b ones
d ice
f ont
f sspec
g end
l anguages
q weight
w uerstchen
½ ãĥ«
è Ħ
Ġ ĊĠĠĠĠĠ
Ġ ä½¿çĶ¨
he el
it ask
le ast
Ġm ot
Ġin verse
lo s
ex haust
un supported
ation Table
Ġ` ["
est imation
Ġg ar
Ġre factor
ĠS pan
ĠS ingle
Ġimport ance
ly ric
For DepthEstimation
IN IT
per cent
Ġ' ''
Ġco uple
Ġen abling
Ġal s
ĠG o
Ġclass ify
inal g
PU B
ãĢģ ðŁ¤Ĺ
Ġso lo
OR Y
Ġup sampled
cy cles
ax es
ag a
names pace
ãģĵ ãģ¡ãĤī
ãĥ¼ãĥ į
Ġcl oned
Ġopen ing
const raints
ĠEn tity
Path Buf
AutoModelFor SequenceClassification
deep lab
Batch Encoding
ãģ®ãĤ ª
ĊĠĠĠĠĠĠĠĠĠĠĠĠĠĠĠĠĠĠĠĠĠĠĠĠĠĠĠĠĠĠĠĠ ĠĠĠĠĠĠĠĠĠĠĠ
Ġbreak ing
æľĢ å¾Į
Ġfilter ing
ĠìĹ Ĳ
inv erted
å¸ ĥ
Ġthread group
Ġlead erboard
Ġrest rict
ega cy
Ġduplic ated
Pix Pipeline
ãģĳ ãĤĭ
Ġì¤ĳ ìļĶ
Length LogitsProcessor
æ· ±
Instruct Pix
Ġë§¤ ê°ľ
Benchmark Arguments
æ¡ £
Ġeff orts
Ernie M
ĠHu ggy
ãĥĨãĥ³ãĤ ½ãĥ«
é¢Ħ è®Ńç»ĥ
[... ]
Ġì»¤ ë®¤ëĭĪíĭ°
need ed
Ġë²Ī ì§¸
Ġentrad a
Ġens ures
ĠAm used
ãĥ©ãĥ³ ãĥĢ
ĠìĤ´íİ ´ë³´
Euler DiscreteScheduler
VARI ATION
ĠDeterm ine
Ġol der
PRETRAIN ING
% |
' ).
A CK
B C
J K
L lava
N ode
O nnx
Q Tensor
S de
S ince
S PIECE
U GE
V ol
W H
g c
l as
l inalg
n ll
z ing
å ĵ
ľ ëĭĿ
Ġs f
Ġs obre
ro tt
ro ts
it les
re presentation
Ġp ure
Ġr ule
Ġde quantize
Ġl atter
ĠT runc
Ġh a
") })
Ġst ick
`` .
add EventListener
Ġus ando
For Test
Ġpr ng
Ġqu el
ĠRes et
ĠCon caten
Ġcheck ed
ĠFlax BertModel
ĠðŁ ı
Ġpy o
Ġro bust
ä» ĭ
Auto Config
Res ized
ĠRe fer
ĠAn swering
ins ide
Ġprob abil
rem oses
ìĦ± ìĿĦ
Ġpla ces
ac remoses
ĠTest Case
pil low
Ã¡ t
åī Ĭ
Ġproject s
Ġcast ing
Comp let
æĸĩ æ¡£
mult istep
Ġsepar ation
ä¾ĭ ãģĪãģ°
èĩ ´
Ġê¸° ë°ĺ
Ġrest art
nv me
Only MLMHead
async io
:? }")
Ġmit igate
<_ >>>
KE YS
Tv lt
ãĤĭãģĵãģ¨ ãģĮãģ§ãģįãģ¾ãģĻ
ĠDPR QuestionEncoder
Ġachie ves
Ġapproach es
ĠìķĦ ëŀĺ
element wise
Ġpan optic
Bytes IO
fra ction
ĠPrun e
ĠTensorParallel Column
//////////////////////////////// ////////////////////////////////
Ġplat forms
Tuning Config
ĠcÃ³ digo
Ġstud y
ê¹ Į
æ¤ľ åĩº
Ġì°¸ì¡° íķĺìĦ¸ìļĶ
Ġë¶ĪëŁ¬ ìĺ¤
Ġinterest ing
ĠCpu Storage
ĠâĪ ļ
íħĲ ìħĺ
Ġcred ential
çīĪ æľ¬
ãĥĺ ãĥĥãĥī
PUB LIC
ĠTensorParallelColumn Linear
! ["
" ^
> ".
B it
B tn
N amed
O ld
P ack
R W
c if
t ert
t runk
¼ ìłĢ
í Ĺ
en ing
at ives
al o
ch i
Ġd os
Ġd istribut
re y
re use
Ġm ol
Ġm ind
Ġin form
Ġthe oretical
Ġw atch
un ar
un masked
ĠT P
arg sort
Ġh av
Ġg rand
ĠA u
pr el
ĠS ame
"] [:,
"] })
). """
Ġun normalized
pre pend
pre computed
Ġ== ================
ft Q
ud get
Ġsh r
ta ct
sw ift
rit ing
grad io
Ġch i
Ġch allen
Ġcomp ressed
ĠTF EfficientFormer
DI CTION
ean s
ĠArg umentParser
Ġ! ="
Ġdoc style
unt u
ãģĦ ãģ¾ãģĻ
vit v
Ġsub modules
Ġro bot
SequenceClassification Loss
ì§ ĳ
acc um
ĠAn swer
ĠEn codes
Ġacc urate
ĠAutoModelFor ImageClassification
Ġëª¨ë ĳĲ
xl s
ĠBert TokenizerFast
ĠSt eps
Ġver bosity
ĠÃ º
md z
Ne zha
âĢ ľ
Ġext ernal
Ġsig u
now ledge
Wav LM
ë§ ī
ung arian
Ġelement wise
Ġproject ions
ĠíĮ ¨
ĠSh arded
æ¨¡åŀĭ çļĦ
åīį åĩ¦çĲĨ
Ġhand ler
ãĥŀ ãĥ«
Ġpip es
ãģĻãĤĭãģĵãģ¨ ãĤĤãģ§ãģįãģ¾ãģĻ
Ġcount s
ĠSD K
Mult imodal
ãģªãģĦ åł´åĲĪ
Ġwaveform s
Ġíħ ĲìĦľ
ĠEng ine
Ġìłķ ë³´
Multi Head
Peft ModelFor
Ġsymb ol
è¨Ģèªŀ ãĥ¢ãĥĩãĥªãĥ³ãĤ°
Ġrespect ive
ĠMemory MappedTable
Ġpower ful
âĶģâĶģâĶģâĶģâĶģâĶģâĶģâĶģâĶģâĶģâĶģâĶģâĶģâĶģâĶģâĶģ âĶģâĶģâĶģâĶģâĶģâĶģâĶģâĶģâĶģâĶģâĶģâĶģâĶģâĶģâĶģâĶģ
Ġíķ¨ ìĪĺë¥¼
ĠMin imum
____ ____
ĠGPTNeoX Japanese
ĠPalest ine
Ġsich er
Tra cker
FeatureExtraction Mixin
Scal er
Ve Scheduler
through put
ë¥´ ê²Į
ĠWindow s
Ġê¸ ¸ìĿ´
ĠSAFET Y
Detect ed
æĲį å¤±
ãģ¨ãģĬãĤĬ ãģ§ãģĻ
' ."
/ `.
E xtension
M atch
N A
T ri
T AG
V ous
\ ":
d ataloaders
e et
e ur
i able
s che
s anitize
} $
â ľ
Ġs moothing
Ġs peak
Ġp rom
Ġm ilit
Ġin forma
Ġb ro
Ġb ars
ma gic
Ġa ugment
Ġst ay
ran ges
ĠC lear
ĠL ast
ĠL imit
ĠL lava
ĠI d
ĠP os
ĠP romise
Ġpro posals
ri ver
ĠM gpstr
ĠB ox
ĠB iases
dataset dict
av atar
ĠN O
ang les
ob Net
PU TS
ãĤĴ åıĤçħ§ãģĹãģ¦ãģıãģłãģķãģĦ
ĠTF ConvNext
ER E
ĠArg ument
Ġbut ton
ak ing
Ġinter act
Ġav o
Ġdis abling
gy m
ì§Ģ ë§ī
ap it
Ġax es
Ġevalu ated
Ġevalu ating
LA MA
mat oes
ëł ī
mapping s
ĠSt at
rem bert
Ġê² Ģ
ìľ ¨
filter ing
Ġev ents
Ġà° µ
]]) ;
ĠBy te
db mdz
Base Output
plo ts
elem s
execut or
Ġregular ization
èĩª åĬ¨
ĠUni PCMultistepScheduler
Ġcolor s
ĠLlama ForCausalLM
åĳ Ĭ
Ġfail ure
çµ ±
ĠTrans foXL
ĠìķĬ ìĬµëĭĪëĭ¤
uper net
Ġ'. '
End point
PP ORTED
Ġconfigura ciÃ³n
Ġëĵ ±
ĠAutoPipelineFor Inpainting
LanguageModeling Loss
Sup port
Ġpropert ies
Resolution Pipeline
ĠíĶĦë¡ľìĦ¸ ìĦľ
Const raint
EXTRA CTOR
ĠGraph ormer
ĠìĹħ ë¡ľëĵľ
ĠProp hetNet
Ġconten u
Hor izontal
Ġhav en
' ></
) [:
. :
. ',
/ <
B ack
E val
P ATTER
T r
X M
] ()
g old
m ember
w ings
x mod
y olos
è ·
Ġ ur
el ec
ar izer
it en
Ġf name
Ġin ject
Ġn ou
ex c
ex plicit
to matoes
Ġde comp
Ġl sh
ot ing
if rame
Ġh it
ab ase
Ġg t
Ġ{ %
torch run
Ġlo ck
ĠS eparable
ĠP at
Ġex emplo
Ġpro xy
ĠW ork
Ġë ¸
ĠG e
ĠG ot
conv ersations
ern o
Ġch apit
ĠTF SequenceClassificationLoss
tt s
ead erboard
ĠCon text
ä¸ ¦
OUT PUTS
Ġprov ider
ãģª ãģŁ
download ed
Decoder Wrapper
Ġvari ety
ãĤĬ ãģ«
Ġpair wise
Ġìł Ĳ
Ġwork flow
loc ally
ĠStableDiffusion Img
Ġtrans lated
LO RA
ãģĤ ãģªãģŁ
ForQuestionAnswering Simple
ê¸° íĻĶ
RO BERTA
Ġlearn s
(_ ,
ĠY oso
mix net
And NoAttention
ãĥĳ ãĥĩãĤ£ãĥ³ãĤ°
vers ing
ĠBy obNet
ĠExamples Iterable
host name
host net
track ed
ga ussian
ĠPatch Embed
bl ur
ãģĪ ãĤĭ
Ġpe ut
Ġrem ember
ĠComp Vis
Video Classification
æł ¼
Ġintrodu ce
Ġplan es
BF LOAT
car bon
amo unt
detect ron
Äł Äł
æį ¢
Ġì²´íģ¬íı¬ìĿ¸ íĬ¸ë¥¼
åĽł ä¸º
ä¿¡ æģ¯
SEG MENT
ĠIh re
Ġnear est
ãĥĨãĥ³ãĤ ·ãĥ§ãĥ³
UniSpeech Sat
Tokenization Test
ĠBE iT
ë£ Į
ĠPegasus X
aj e
åħ± æľī
duplic ate
reload ed
ĠPrior Transformer
Ġampl ify
Ġwik itext
Ġìµľìłģ íĻĶ
rott en
ãĥŀãĥ« ãĥģ
: ]:
B N
D type
L t
L ONG
M ODE
O U
S er
S QuAD
T runcationStrategy
T utorials
] *
c Ã©
f y
k u
r ick
Ë Ĳ
å ĸ
Ġ ãĤĴä½¿çĶ¨
Ĵ Ī
ch er
Ġd et
Ġf all
Ġf requ
re xnet
Ġp es
Ġm esh
Ġw olf
ur bo
up sampler
ĠA SR
ĠP ersimmon
=" {
Ġpro f
Ġpro file
ĠF uyu
ĠD ist
image gpt
cal lable
point wise
Token LogitsProcessor
ĠE xtension
ĠN ode
]) ?;
]] ),
float ing
ec ab
right ness
ĠFlax DistilBert
ãĤĮ ãģŁ
Block s
ãģ¨ ãĤĵ
ĠAN D
hf ma
Ġthan ks
wh ile
ĠìĪĺ ìłķ
Ġman ual
ois y
ier arch
Ġseed s
Ġap pe
Ġsmall est
Th at
Ġuser name
ãģŁãĤģ ãģ®
ë³ Ħ
ãĤ³ ãĥŁ
Base Model
ling ual
Deep Floyd
Ġpick ed
AMP L
Ġâ Ŀ
ĠWith out
ĠTrans fer
ctc decode
å¹ ħ
æĬ ½
plat form
MO BILE
ĠíĻķìĿ¸ íķł
Ġachie ved
ĠìĿ¼ ë¶Ģ
################################ ################################
Ġstat ement
Ġema il
BLE U
ĠDataCollatorFor LanguageModeling
Ġregnet x
ĠCausalLMOutput WithCrossAttentions
Ġíı¬íķ ¨
ç© º
ãĤ¸ãĥ¥ ãĥ¼ãĥ«
PYTHON PATH
ãģ» ãģ¨ãĤĵ
Ġvary ing
ĠëĤ´ìļ© ìĿĢ
ĠmÃ©t odo
æĹ¢ åŃĺ
bio gpt
æĪ¦ çķ¥
Resized Crop
SEGMENT ATION
' ]:
@ @
A VE
C AST
K C
T P
b ra
v ol
ķ ä¾¡
Ġs win
ro g
Ġc allable
id get
Ġw ide
ken v
): <
Ġa j
un o
qu ats
Ġl dm
ĠT GI
Ġ[ &
Ġ[ ==============================
Ġh ence
de cor
oc kenv
ĠP lat
Ġex emple
Ġpro pose
>>> (
IN O
ĠE LECTRA
Ġal gorithms
ĠH ello
Ġset ter
AR I
TI M
ĠTF Hubert
sh op
ora ma
Ġup on
Ġup sampler
ãģ¾ ãĤĬ
ãģ§ ä½¿çĶ¨
ãĥ« ãĥ¼ãĥĹ
ĠðŁ ļ
Ġsub table
fl ush
Ġgrad io
Ġpatch ed
ĠAd ded
ĠConv NeXt
ĠFor ward
ĠJ an
Ġskip ping
ĠAutoModelFor TokenClassification
ĠLo gging
Ġgo es
Ġsav ings
ĠBert Generation
sq r
final ize
RO W
íĻ ķ
Builder Config
Ġthrough put
è® ¤
Ġhand s
serial ize
serial ized
ĠBase Output
ãĥŀ ãĥ¼ãĤ¯
can ine
ĠìĿ¸ ì½ĶëįĶ
è© ķä¾¡
Video MAE
Metric Callback
ĠIgn ore
ĠíķĦìļĶ íķ©ëĭĪëĭ¤
Ġobser ve
åĽł æŃ¤
Zero Shot
LAY ER
Ġtre ated
åħ¶ ä»ĸ
ĠBeam Search
Encode Input
ĠGerman wings
Ġê³µ ìľł
Inst all
èĩªåĭķ çļĦãģ«
Ġìĸ´ íħĲìħĺ
Ġíı ī
ì» ¬
Ġì¢ĭ ìĬµëĭĪëĭ¤
South ern
who le
ìĸĳ íķľ
ãģ¯æ¬¡ãģ® ãģ¨ãģĬãĤĬãģ§ãģĻ
ìĿ´ìłĦ íĬ¸
capt ure
__}" ):
ĠìĪ ľ
ãĤ«ãĤ¹ãĤ¿ ãĥł
Ħãģ¿ åĲĪãĤıãģĽ
entr Ã©e
ĠexÃ©cut er
ĠUps ample
Ġ[============================== ]
C r
E ast
E VA
F lip
F ilter
G P
J ust
M ega
N g
N on
P hone
R og
S ource
V iew
[ {
a ur
b ee
b ands
f le
h over
i ang
k ript
l ion
n ullable
į Ķ
in omial
or w
Ġt alk
Ġs aw
Ġi am
Ġd pr
Ġd ataloaders
re v
re w
Ġb ail
Ġr ho
ab a
ĠA void
Ġst as
Ġre used
ĠS W
ĠS erial
Model Arguments
"] (
ĠF la
ly rics
add ress
Ġ} }
ĠW rite
ĠB peTrainer
IN STANCE
ĠV ivit
Ġ' "
log ies
av i
pl ash
Ġsh uffled
ĠG ather
tim it
our ier
app lication
ãĤĴ äºĪæ¸¬
[: ]
sh i
ĠĠĠĠĠĠĠĠĠĠĠĠĠĠĠĠ ĠĠĠĠĠĠĠ
ash ion
(( -
row d
Ġí ļ¨
Ġcor relation
Ġq weight
Qu ery
ãģ¨ åĲĮãģĺ
Ġindex ed
mean s
Ġav ons
ì§ Ī
Ġfiles ystem
cor por
¨ë Ķ©
PO ST
Ġopen ed
Ġatt ached
è¦ §
lr d
copy file
CL U
Re ason
Ġsav es
è¨ ³
cur ity
ov ing
Ġbreak fast
ë¦¬ ëĬĶ
Ġdiv ided
æ¨ Ļ
math cal
ower case
ild card
Ġta u
ĠAccelerator State
ĠQu ick
Adapter Mixin
ãĤª ãĥ¼ãĥĩãĤ£ãĤª
ĠTFAutoModelFor CausalLM
æĺ¯ ä¸Ģä¸ª
find all
rest ype
ĠNo ise
ĠOver ride
Ġtri e
çİ ¯
ä½ł åı¯ä»¥
Ġdeep er
ĠDes cription
ĠDPR ContextEncoder
å· ²
bh lr
ĠFlava Image
ĠAlbert Config
oper ation
Fa iled
Ġfrozen set
star coder
AP AS
Ġë°ĺ íĻĺ
[... ]<
ĠZh ang
Ġimprov ements
Learn ed
ĠTr OCR
Ġfra ction
ForTextTo Speech
Ġtermin ated
Refer ential
loso ph
cif ar
* /
> **
K osmos
L N
M ust
P PO
S ig
[ ~
` --
` ãĢģ`
d ge
d ates
m ms
m alloc
s ym
v cl
v ations
y f
ĭ ¬
en de
or ld
Ġt area
Ġt iles
Ġs r
Ġs em
al ias
al abs
Ġd dpm
Ġf ire
Ġ" **
Ġn ltk
Ġr an
Ġa pr
one y
", )
ĠT a
ĠT runcation
den senet
th ology
-- |
`` ):
oc ation
con nect
=" \
Ġpro secut
ĠD IS
Ġy min
Ġon line
cal ib
ĠR ange
ĠM etaspace
Ġtext e
Ġsh uffling
ãģ® ãĥ¢ãĥĩãĥ«
sc roll
ib ly
ãĤĴ éĸĭ
ãģ« åŁºãģ¥
Ġpa pers
Ġca pacity
Ġag reement
do main
ìĿ´ ë
ĠðŁ İ
ĠðŁ ĺ
Ġsub dir
Ġìŀ ¥
An swer
clip ped
tes seract
åı ·
Dataset Reader
ĠJ son
Vision Embeddings
Head Dim
Ġpred efined
åĬ ©
efficient vit
åħ ¬
ĠSt udent
}} ",
Ex cite
Ġgu ard
Speech Seq
ĠAl t
ĠGener ated
ĠPro vide
Ġìķ Ī
Ġref ers
unn yu
è® ©
Ġder ivative
ĠíĮĮ ìĿ¸
Ġknow s
Ġho pe
ĠAs Ref
multip les
æĢ§ èĥ½
Ġjob s
Ġpu Ã²
Ġ~ /
ĠAss istant
imate Diff
Patch TST
Ġë¶Ħ íķł
ĠRetrie ves
NOR M
MET ADATA
Ġwait ing
çĦ¶ åĲİ
ĠìļĶ ìĨĮ
does nt
åĲį åīį
Cre ates
Import ing
ASS ERT
Ġdiscuss ion
ĠPool Former
ĠUser Warning
Ġimprov ement
ĠJo hn
ãģĮå¿ħè¦ģ ãģ§ãģĻ
ä½į ç½®
squared cos
PARALLE LI
ãĤĴåĲ« ãĤĢ
STAT ES
Ġëĭ¤ìļ´ ë¡ľëĵľ
Niels Rog
repla ced
vcl ive
NielsRog ge
! \
$ (
C all
E psilon
G e
M al
S ources
T anh
T ENSOR
] "]
b eans
d ire
h ugging
m ha
m argin
s ender
u ate
u ve
Ã µ
à ¹
è ²
Ġ ĊĊ
Ġ åĴĮ
Ġs ul
Ġs ky
al ong
al go
Ġc m
Ġc es
Ġ" ~
re ps
Ġp up
Ġp oly
Ġb all
att ing
Ġde cision
form atter
ĠI PEX
ĠP Y
Ġex am
fa ct
co pied
ĠM usic
For UniversalSegmentation
ca ps
ĠE xt
]) }
', '
]] ):
Ġ[" [
ĠTF BaseModelOutputWithPooling
ĠTF XLNet
fo od
spec ified
Ġtrain ers
MA LL
Ġup grade
DI FFUSERS
CH OICE
jo y
trans posed
Ġinter active
pool former
Ġour sel
ãĤ¯ ãĤ¹
ĠWAR P
Ġcode base
ĠEx periment
CONFIG S
LE RANCE
Ġafter wards
Ġrequire ment
context manager
ĠLo op
rw kv
ĠStableDiffusion ControlNetPipeline
Ġ$ {
Dep recated
Dense Gated
IT Y
Ġëĭ¤ ìĭľ
ë¦¬ ê³ł
ĠìĿ´ íķ´
cogn ized
éģ Ķ
ĠPR NG
Ġren aming
ites paces
Ġì§ Ī
Detr ImageProcessor
ãĥĹãĥŃ ãĥ¼ãĥģ
ĠĠĠĠĠĠĠĠĠĠĠĠĠĠĠĠĠĠĠĠĠĠĠĠĠĠĠĠĠĠĠĠĠĠĠĠĠĠĠĠĠĠĠĠĠĠĠĠĠĠĠĠĠĠĠĠĠĠĠĠĠĠĠĠ ĠĠĠĠĠĠĠĠĠĠĠĠĠĠĠĠĠĠĠĠĠĠĠĠĠĠĠĠĠĠĠĠĠĠĠĠĠĠĠĠĠĠĠĠĠĠĠĠĠĠĠĠĠĠĠĠĠĠĠĠĠĠĠĠ
Ġmultip lied
Ġprodu ced
Ġcar ic
ĠAdapt ers
La unch
ĠDepth wise
Ġdeterm ines
ëĵ¤ ìĿĦ
å· ¥
íķĺì§Ģ ë§Į
Ġconfigura Ã§Ã£o
dig it
Ġguid ed
æ· ·
ë³´ ëĭ¤
Ġì¢ ħ
Ġbound aries
Ġcompos ed
Ġìĥģ íĥľ
å½ĵ ãģ¦
å½¢ å¼ı
Ã¢ sse
BO X
åı¯èĥ½æĢ§ ãģĮãģĤãĤĬãģ¾ãģĻ
ĠìĿ¼ë°ĺ ìłģìľ¼ë¡ľ
Ġadvant ages
æķ°æį® éĽĨ
ĠíĶĦë¡ľìĦ¸ ìĬ¤
ĠìĿĺ ë¯¸
ç¡® ä¿Ŀ
Ġauthent ication
èī¯ ãģĦ
Ġrespons ible
Ġë°ľ ìĥĿ
lambd alabs
Ġë§¤ê°ľ ë³Ģ
ãĥ©ãĥ³ãĥĢ ãĥł
Complet ion
Horizontal Flip
B ER
D onut
F ER
F rozen
G uided
H elsinki
I Z
N C
S BATCH
] \
] ".
b ro
b id
c umulation
d iffuser
j unnyu
l ict
l ive
m name
n ms
p ite
t as
x Formers
od ot
ch a
it ed
Ġf r
Ġ" ").
Ġn v
Ġb a
la int
im inal
Ġl s
Ġ[ ...
Ġmodel ID
de quantize
th ur
Ġg rab
type of
oc or
str ict
ĠP h
=" /
Ġas dict
ĠM esh
pa y
Ġ' âĸģ
Ġco ordinate
import lib
ta pe
Ġj ed
Con trastive
Image Vari
ĠTF Swin
ĠTF Whisper
port ion
Ġsc ipy
proj s
CH ED
CH AN
ĠModel ls
yn chron
ãĤ¯ ãĥŃ
cast ed
ãĥ¼ãĥ Ĳ
"` {
ãĥĥ ãĤ·ãĥ¥
Ġdownload s
æľ Ľ
ViT Model
Ġass umed
´ë įĶ
tra ct
ĠĠĠĠĠĠĠĠĠĠĠĠĠĠĠĠĠĠĠĠĠĠĠĠĠĠĠĠĠĠĠĠ ĠĠĠĠĠ
Ġallow ing
TestCase Plus
Transformer Block
ä¸Ģ äºĽ
Ch unk
cho os
ĠPr etrained
éĢ Ĵ
Ġà° ²
ĠCom m
Ġshow ing
ler ance
parallel ize
dp n
sm i
Ġalong side
Instance Segmentation
Ro C
Ġhand lers
Ġdocstring s
ãĥŀ ãĤ¤ãĤ¶
ãģ§ãģ¯ ãģªãģı
Ġreason s
ãĤª ãĥķ
Ġê²½ ë¡ľ
ĠPar quet
Ġduplic ating
fail ure
çµ Ĥ
cp m
ĠSplit DelimiterBehavior
ĠDis cord
Time out
ãĥĨãĤ£ ãĥŀãĤ¤ãĤ¶
Ġëĭ¨ ìĿ¼
Ġreprodu ce
TR UE
ìĤ¬ ìļ©
Requ ire
ä»£ ãĤı
Instruct Blip
MET RI
Ġff i
adv ant
åħĥ ãģ®
åŃĲ åĮĸ
Ġautom Ã¡t
term inal
Ġaltern ative
prov ider
Ġcal ib
Ġindependent ly
ĠOP EN
Ġë¶Ģ ë¶Ħ
Ġë³ĳ ëł¬
_._ {
Ġproce css
Ġchapit res
Ġoursel ves
ImageVari ation
. "]
C ATE
F G
J ukebox
L AS
N LL
] ['
] `)
e i
f user
i pt
i est
r ho
w ed
z os
í ľ
Ċ ĊĠĠĠĠĠĠĠĠĠĠĠĠĠĠĠĠĠĠĠĠĠĠĠĠĠĠĠĠĠĠĠ
Ġ ^
Ġ ãģ¤
Ġ ãĤ¿ãĤ¹ãĤ¯
Ġt ip
Ġs have
ed elta
ch ing
it i
Ġn av
Ġo pp
Ġb illion
un i
un ce
Ġ` **
po lated
om er
om an
__ }")
ĠL AY
.. ,
Ġbe autiful
"] [-
ĠP oint
Ġun flatten
ter f
Ġì º
add r
ann ing
pa gate
ĠU I
Ġint el
ĠN vidia
Ġ| âĸĪâĸĪâĸĪâĸĪâĸĪâĸĪâĸĪâĸĪâĸĪâĸĪâĸĪâĸĪâĸĪâĸĪâĸĪâĸĪâĸĪâĸĪâĸĪâĸĪâĸĪâĸĪâĸĪâĸĪâĸĪâĸĪâĸĪâĸĪâĸĪâĸĪâĸĪâĸĪ
Image Pipeline
ĠTF Segformer
ĠUn comment
ãģ« æ³¨æĦı
ãģ« å½¹ç«ĭ
new s
Ġconst rained
ĠPy Normalizer
ãģ§ ãģ®
ari os
mon th
comp ressed
TF GPT
TF XLNet
Ġ{} ),
download ing
ãĥ¼ãĥ ł
ĠEx pected
Vision ModelTester
enter Crop
Co arse
LA NG
åħ ¸
è¿ °
StableDiffusion Img
StableDiffusion SafetyChecker
ĠAl tern
Ġchunk ing
equal s
å¾ ĵ
ãģ®ãĤ ¿ãĤ¹ãĤ¯
Ġëĭ¤ ìĸĳíķľ
PreTrainedTokenizer Base
Ġequal s
sin ce
Comp iled
Ġobj et
Ġ", "
Ġpack ing
Ġgit ignore
å½ ±
çĶ»åĥı ãģ®
File Mixin
ç´ ł
ĠTFAutoModelFor Seq
}' .
ĠÃ© t
ä¼ ĺ
åŃĺ åľ¨
åĭ ¾
install ing
æĽ´ å¤ļ
ãĤ° ãĥ©
DeepSpeed Config
Ġcr Ã©er
éĩı åŃĲåĮĸ
Ġseqlen s
Ġë¡ľ ì»¬
Ġrece ive
ãĥĵ ãĤ¸
´ë³ ´ë
åĪĿ æľŁ
Ġpued e
ĠìĽĲ ë³¸
Evalu ation
Ġnel la
echno logies
Ġperf ect
Single FileMixin
IR D
ĠMultiple Choice
æµĭ è¯ķ
ForSpeechTo Text
Part ial
Ġatten uate
Ġ*** ")
Ut ils
ä¼ł éĢĴ
Ã©l Ã©ch
Ġaggi ung
ĠrÃ©s ult
æľīåĬ¹ ãģ«
è± ¡
Ġextrem ely
ãĤĴæĮĩ å®ļ
GGING FACE
Execut ion
æ¯ı ä¸ª
journ als
ĠTrunc ate
ĠConcaten ationTable
tert ransformer
XM ERT
ìĿ´ë ¯¸ì§Ģ
ImageVariation Pipeline
Ġ|âĸĪâĸĪâĸĪâĸĪâĸĪâĸĪâĸĪâĸĪâĸĪâĸĪâĸĪâĸĪâĸĪâĸĪâĸĪâĸĪâĸĪâĸĪâĸĪâĸĪâĸĪâĸĪâĸĪâĸĪâĸĪâĸĪâĸĪâĸĪâĸĪâĸĪâĸĪâĸĪ |
) >,
= /
D i
P OC
S ING
` ..."
d g
m ong
n ational
o ModelCfg
x FE
z ioni
| \
} "),
Ġd ice
Ġc am
re param
pe er
ex isting
Ġb le
ur u
Ġr ich
ge ben
im its
ot he
us p
ab ana
ãĤ ¼
Ġth ird
pr Ã¼
Ġre jected
Ġre cords
ĠL atent
ĠS cal
ĠI G
"] `
Ġse u
ial og
ĠM al
ĠV QA
pos al
eg u
Ġsh aring
Ġpre cis
ĠH igh
ob i
rit ic
Con sistency
Class Label
Ġle aving
check s
ä¸ ¤
Ġinitial izes
Ġdown sampler
comp ilation
Ġrel ies
à¤ ¡
TF ModelTesterMixin
âĶ Ĥ
sub mit
Ġmod ification
Auto Processor
writ ing
CON T
long er
Ġfa ces
Ġstd out
const raint
ense mble
Ġgiv ing
íĬ ľëĭĿ
transform ation
Ġà¤ Ĩ
âĢ ĭ
Ġadapt ive
ëĵľ ëĬĶ
å¾ Ī
ĠBlock Q
ãĤ¢ ãĥĨãĥ³ãĤ·ãĥ§ãĥ³
è® ¡
estamp s
ëŁ¬ ëĤĺ
execut e
stand alone
èĩª å®ļä¹ī
ĠNe uron
Ġcomplet ely
ĠIN FO
è© ±
Ġredu ces
Cuda Slice
Mo ck
job s
ĠSpec ific
ĠSpec ify
Ġlibr er
OPT ForCausalLM
Ġinf inite
ãĥİ ãĥ¼ãĥī
ãĤ¦ ãĤ§
ĠHTTP Error
remain der
DataCollator For
æĻĤ éĸĵ
sign al
Ġmed ical
ĠTFC vt
Ġforecast ing
Padding Strategy
look up
Grad ient
distribut e
ìĽĮ íģ¬
å¼Ģ å§ĭ
Ġestim ates
çĽ´ æİ¥
æ£Ģ æŁ¥
åĲ¯ çĶ¨
ç¿» è¨³
Ġsatisf ied
Ġpermut ation
choos ers
terf lies
åĭ¾ éħį
" '
. ),
= ""
= [[
A da
C P
C entral
E AT
E LU
F LA
G lobal
G host
H i
M ESS
N AS
N HWC
R ED
U LE
U KE
V T
_ |
` -
b oth
e qu
f Ã¼
h ar
h yp
h elper
m u
m atic
s mooth
ë Ĥ´
į ëĭĪëĭ¤
on ini
es lint
Ġs len
ut ter
an z
ch rome
ro c
Ġf ps
Ġo t
un signed
est ra
pro ceedings
mask er
ĠA ccelerated
ĠC l
ĠC ha
ĠS imilar
ĠS ection
ĠS memLayout
ĠO ut
py class
Ġv d
ĠP CI
ĠF ram
Ġy ields
)) <
ĠW u
ĠW ITH
Ġ** _
ctor s
AR GE
ĠTF SequenceClassifierOutput
ĠUn iversity
sh m
OC AL
Ġconv ention
OR MER
ĠRes ponse
ET UN
En v
ĠDe formable
()) ).
à¤ ı
ĠFlax RegNet
Ġinstall ing
ug al
ĠModel ForTest
ph one
press Tokens
ĠAd ding
Auto FeatureExtractor
dis cord
=[ ],
Ġdel imiter
Ġtra verse
const rained
Ġrefer red
char acter
PA INT
éĢ ī
å¾ ħ
ãģ®ãĤ »
¡å ¼
lat ency
Ġë§ ŀ
ĠíĮ ¨ëĶ©
MT LResource
thread Idx
bet tertransformer
Ġcalcul ating
æŀ ¶
ĠCol or
ä¸Ń çļĦ
æĤ¨ çļĦ
Ġimpro ves
Ġcontribut e
Ġíģ °
ãĥĨãĤŃãĤ¹ãĥĪ ãĤĴ
è© ¦
Str ip
UR ES
high way
Ġíķĺ ë©´
ĠìķĬ ëĬĶ
Ġlik elihood
Ġplan ificate
Ġsuccess ful
ĠKey word
Ġdiag ram
ĠObject Id
times former
Ġexper ience
çı¾ åľ¨
su ccess
MOD ULE
ĠStart ing
Ġsim d
ĠRegression Model
ĠíĹ ¤
è¾ĵ åĩº
fla c
FIN ETUN
Skip ping
Ġíı ´ëįĶ
å®Įåħ¨ ãģª
Ġê²°ê³¼ ë¥¼
ĠDonut Swin
North ern
tier ed
ograph y
abstract method
overs moothing
ãĤĤãģĹ ãĤĮ
ĠIndic ates
TUN ING
, \
, ...
L ite
M issing
S erialize
S caling
] )))
a cl
c ores
c annot
c sp
k bit
m mt
| '
ç ĭ¬
é »ĺ
ļ æľ¬
on ical
el et
ar p
Ġc lap
ig an
Ġm ess
Ġa uch
Ġl i
ol ves
ab out
ip es
ĠA rabic
ĠC FG
Ġre order
ĠS pectrogram
ĠI ss
(" ***
py methods
Ġnum el
Ġpro tein
dict ion
dict ionary
ri o
end et
ĠW enn
ĠR wkv
ĠM en
Ġres caled
IN PAINT
ĠE ar
Ġsh adow
Ġget ter
ĠH er
ĠH TML
AR GS
Ġcomp lexity
ĠTF LayoutLMv
ĠAuto PeftModelFor
ĠK a
ĠPy PreTokenizer
Ġbu ff
à¤ µ
Un icode
mod ifier
TF Longformer
Ġover come
ĠModel Card
ne cessary
ãģĻãĤĭ åł´åĲĪ
Ġz ur
ĠRe presentations
Ġbo to
gen res
work ing
function s
åĬ Łèĥ½
ãĥª ãĥĿãĤ¸ãĥĪãĥª
lp n
TO LERANCE
ìĬ¤ íħ
LU RM
ĠToken ization
Ġpres ervation
Ġconstant s
ĠQ ue
AB C
ĠPr et
éĢ Ĥ
Ġpoint ing
Bart Model
æľĢ æĸ°
è® °
Ġupd ating
ëĿ¼ ë¯¸
sl s
ĠBlip Config
vis n
mk temp
med usa
ĠVision TextDual
æĢ ģ
çĶ»åĥı ãĤĴ
nv ml
Sh ared
ĠÃ© ch
Ġmultip lication
deprec ation
SH AR
ĠSeg Former
ãĥĻ ãĥ³ãĥģ
ĠWhisper Processor
Ġíĺ Ħ
ãĤĭãģĵãģ¨ ãģĮ
SW IN
ãģĺ ãģ¦
ĠDownload Config
anc zos
Ġìµľ ëĮĢ
complet ion
Ġì¶Ķë¡ł ìĿĦ
USE D
Ġask ed
gi ant
ĠìĹĨ ìĬµëĭĪëĭ¤
Ġtre in
Ġrecon struction
ĠAg ents
ãģĶ è¦§
Ag ents
èµ ·
fam ily
èĦ ļæľ¬
ĠíĮĮìĿ¸ íĬľëĭĿ
Ãµ es
ä»£ãĤı ãĤĬãģ«
é»ĺ è®¤
ëĿ¼ë¯¸ íĦ°
ãĥĻãĥ³ãĥģ ãĥŀãĥ¼ãĤ¯
) ].
A LI
B oth
D Config
F D
F ram
F ROM
O k
P enalty
S Y
S ys
S YS
T ree
W RAP
a is
a ver
d ct
i Ã¨re
k Hz
m ish
n ato
n umpify
s hap
s ndfile
¹ ìħĺ
è ¼
Ġ ãĥ¡ãĤ½ãĥĥãĥī
or i
or ge
Ġs ha
al gorithm
ar lo
Ġd ynamo
Ġf ive
Ġ" @
Ġin corpor
Ġb ib
and re
ol id
Ġg iou
Ġg aussian
Ġst ory
amp ere
ĠS eries
res ources
"] },
Ġex planation
ĠD S
ĠD i
Ġun o
ĠW AV
ĠR NG
log p
ĠE vent
ba z
float s
TI LBERT
DE EPSPEED
Ġcomp any
Ġcomp ris
ãĥ¼ ãĥĩãĤ£ãĥ³ãĤ°
ãĤĴ è¨Ńå®ļ
ĠTF Bert
Ġsuper vision
Ġconv s
ãģĹ ãģĭ
íķĺ ë©°
url path
Ġrel ations
ĠFlax ResNet
sub dir
sub ject
Ġmod ifier
by ob
ITH UB
Ġexpress ion
cast ing
not race
encode c
ced ure
ìĦľ ëĬĶ
Ġacc umul
loc ations
ĠĠĠĠĠĠĠĠĠĠĠĠĠĠĠĠĠĠĠĠĠĠĠĠĠĠĠĠĠĠĠĠ ĠĠ
LO SS
sq a
RE GI
Speech EncoderDecoderModel
ĠAny thing
ĠPro v
ĠPipeline ImageInput
Ġ"" ;
ě[ ?
try NotFoundError
ĠBe fore
db l
Ġ", ",
ĠViT MSN
concept ual
Ġcombin ations
Llama ForCausalLM
NE W
Inter polation
ĠApp le
assistant s
ÃŃ a
ĠHf Agent
ãĤĪãĤĬ ãĤĤ
Ġbl k
tri als
éģ© åĪĩ
Set ting
web Search
conf idence
Ġutilis ant
Ġê°ľ ìĿĺ
Ġocc up
Ġstrict ly
Squ ad
Ġly rics
VAR S
Runtime Model
Ġì¤ Ħ
OB JECT
ìĺĪ ë¥¼
Ġscen es
ĠReduce Op
Ġbrow ser
ĠUnCLIP Scheduler
Ġmov ies
hypoth esis
ĠíĹĪ ë¸Į
EXTENSION S
Enc Dec
ĠOffset Type
losoph y
Compiled With
ĠMultipleChoice ModelOutput
MTLResource Usage
% )
> :
A WS
B R
E mb
F RA
I ON
N ODE
W ANDB
] ',
d on
e quivalent
g lpn
h ref
l anczos
n ltk
z one
z illa
§ è¡Į
Î ¸
Ġ ãĥĩãĥ¼ãĤ¿ãĤ»ãĥĥãĥĪ
Ġs anity
ch mid
Ġo w
to s
() `](
ĠT uning
ĠT imesformer
Ġ[ /
Ġ[ ("
Ġ[ ![
ate ver
ĠA v
Ġre q
py th
ĠP our
co v
Ġun changed
add im
pp l
ĠR ight
ĠM on
ant asy
Ġx max
cc iÃ³n
ĠE N
bias ed
Ġ. "
([ [[
ess o
Equal ize
à° £
ĠRes hape
ĠRes cale
over ride
split ext
Ġcor ner
à¤ Ł
TF Deberta
ĠConv ersation
ĠData Frame
Ġgroup ed
cket s
inet ics
fill ed
ded uplic
ĠìĤ¬ìļ© íķ´
Ġser ving
Ġdi verse
ĠìĦ ¹ìħĺ
Comp at
åĽ º
ãĤ· ãĥ§
å¿ħè¦ģ ãģĮãģĤãĤĬãģ¾ãģĻ
ä¸Ń ãģ«
ãģĻãĤĭãģĵãģ¨ ãģĮ
æī §è¡Į
Ġbig ram
schedul es
ĠìĥĿìĦ± íķ©ëĭĪëĭ¤
Ġport ed
Ġpartic ip
pick ed
VA LI
izz le
Ġintrodu ction
è§£ æ±º
à¥ĩ à¤Ĥ
ãģĻãĤĭå¿ħè¦ģ ãģĮãģĤãĤĭ
Ġëĭ¨ ìĸ´
fetch er
ĠVisual Bert
éŁ³ é¢ĳ
ç« ¯
Ġguid es
åŁº æľ¬
ĠSA FE
incre ase
ĠImple ment
Runtime Error
Cre ating
ĠìĻ Ħ
ĠMer ge
cret ization
ĠíĻľ ìļ©
ãģĵãģ®ãĤ ¬ãĤ¤ãĥī
ibt ex
ĠFl atten
Field Name
Ġatomic Add
ĠIsra el
åĪĿæľŁ åĮĸ
¡å¼ µ
/ *.
A CT
D ynamic
G elu
G LPN
I l
M vp
M ASTER
N OTE
O pt
a pot
b ibtex
y d
ç Į
Ġ ä¸Ĭ
Ġ odd
ĥ £
Ġs gitg
an ford
st ellen
ch w
Ġc ircle
Ġp p
Ġm ockenv
mp ir
ad al
Ġto ut
un gs
ul ated
om ep
Ġ{ [
") ]]
ĠC lean
ĠC LAP
ĠC JK
ĠL ine
ĠP or
=" _
Ġse in
Tensor Board
ĠF EAT
ĠD at
ĠM O
ĠB l
ĠB est
Ġwh itespaces
pa ges
Ġ' ',
Ġx t
Ġtext wrap
ĠE s
ĠE NV
ang led
ĠH uman
Ġra ises
Ġqu ad
rit on
ĠTF ViTMAE
Ġso us
Pipeline TesterMixin
ĠK o
(( ..,
." ):
Ã© ment
Ġexcept ions
jo int
jo hn
,) `.
join path
files ystem
)] ),
ous ia
---------------- --------
bit Lt
Not CompiledWith
Ġopen ai
ms gs
AN INE
erta int
è¿ ĳ
optim ized
ble urt
ev ance
ĠQ MatMul
assertIs None
ä¸Ģ èĩ´
ĠUs ually
gl u
ãĤ¢ ãĤ¯ãĤ»
ï¸ı â
ë³ µ
bet ter
ç» ı
ãĥ¥ ãĥĭ
Ġrest ore
ç´ Ķ
åĲĮ æ§ĺ
Code book
æĿ ¡
)]) ;
ë° Ķ
Ġspectrogram s
æĹ ł
Ġremain s
Ġfunc iÃ³n
Ġpu oi
Trans lation
astic search
ĠLog ic
One Former
---------------------------------------------------------------- --------------------------------
Ġmusic ldm
Ġíķ´ ê²°
Sw itchTransformers
Sw izzle
ì¤ Ģ
contin uous
Ġlight weight
Ġpossib ilities
çİ° åľ¨
ê· ľ
four ier
separ ate
Ġê°Ħ ëĭ¨
Ġpert e
ĠAnn otation
ĠDataFiles Dict
Ab stract
åıĹ ãģĳ
pearman r
edi ately
ĠDecision Transformer
å¤§è¦ıæ¨¡ ãģª
Offset Referential
åĦ ª
çµ± åĲĪ
ä¸¦ åĪĹ
æ·· åĲĪ
ĠOPEN AI
íľ ĺ
ãĤ¼ ãĥŃ
( """
) !
* ",
C apt
D Y
F allback
G AN
I ST
L INES
M on
M usicgen
Q Former
R ust
U BERT
b ed
c ular
l ating
v or
z o
â ĺĲ
æ ¦Ĥ
ç ¹
ĺ ìĿ´
in proceedings
Ġc ity
Ġc anny
re interpret
Ġp icks
Ġin c
se er
Ġn an
Ġto po
Ġb ou
ur ch
un tains
ĠT RAIN
ĠT wo
ĠT ues
Ġ- (
Ġfor ma
Ġ) );
Ġ{ _
__ ):
ir m
gg ml
res olutions
ub untu
Ġex ponential
Ġ_ )|
Ġ' \
Ġco at
iv ar
ĠU net
íķ ĻìĬµ
net works
ĠN E
ta ges
Ġ... )
Ġwor st
ĠCon nected
Ġone hot
"]) <
ĠWh itespace
ĊĠĠĠĠĠĠĠĠĠĠĠĠĠĠĠĠĠĠĠĠĠĠĠĠ ĠĠĠĠĠ
slice able
iter tools
ag ic
Ġwidth s
à¤ Ĺ
ĠFlax BaseModelOutput
TF Roberta
TF Albert
fore ach
last ic
Ġsub sampled
Vec VisionConfig
Text ModelTester
ne zha
Ġmod ern
ĠOR T
Ġexpress ed
ĠìĿ Į
Ġmin or
local s
åĪ Ļ
ĠCLIP Config
Ġarch ivo
Ġurl s
ãĥĨ ãĥ³ãĥĹ
Ġpl ugin
Le vit
Roberta TokenizerFast
Ġà¤ ²
ĠAttention Processor
ä»¥ åıĬ
Ġmost ly
rot ate
ler p
Ġsumm arize
Ġref iner
Ġvar s
ãĤµ ãĥĸ
Ġphoto graphy
host ed
ä¿ ®
Ġìĸ »
ãģĪ ãģ¦
NE O
æĹ ¥
ail ment
activ ated
Ġtri angular
ĠìĿ¸ ìĪĺ
ĠBart ForConditionalGeneration
ĠRoberta Config
Pa int
ãĥĪãĥ¼ãĤ¯ãĥ³ ãģ®
Ġë°©ë²ķ ìĹĲ
="< |
|> \
Ġchild ren
ĠStableDiffusionXL LoraLoaderMixin
ãģĿãĤĮ ãĤĴ
aud ioldm
ĠResnet Config
SA VE
å°ı ãģķ
Sto chastic
ãĤĴä½ľæĪĲ ãģĹãģ¾ãģĻ
vo Norm
GR ID
Ġband width
ĠMat rix
ĠStableDiffusionXLI n
ĠNaN s
ãĤªãĥĹ ãĥĨãĤ£ãĥŀãĤ¤ãĤ¶
ĠSp atial
Validation Error
iu ae
ãĤĴè¡Į ãģĨ
pag ation
Ġì´Ī ê¸°íĻĶ
Ġstand alone
ĠTemplate Processing
Ġvel ocity
Su ccess
äºĭåīįåŃ¦ç¿Ĵ æ¸Īãģ¿
Vol ta
Ġplanificate ur
omep age
ĠTues day
ãĥĨãĥ³ãĥĹ ãĥ¬ãĥ¼ãĥĪ
* {
+ ")
A ug
A verage
D reamBooth
E MA
G iven
R C
S AM
T runcation
[ ..
d ro
d irect
f fa
f ollowing
g reen
g lich
h uman
j x
j ieba
m x
m Backbone
q dq
s en
u ck
x vector
y en
} ')
¨ ìĸ´
Ġ anno
el ess
Ġs us
as dict
Ġi a
ch ten
Ġd dim
Ġto ok
ra ight
Ġb on
ur ations
Ġr nd
Ġr ules
ct ree
am i
pt er
un igram
is ch
ĠT ri
il m
Ġh at
Ġh ierarch
ãĥ »
emb ds
ĠL ike
ĠS hap
ĠI T
gg le
Ġe ines
use ful
ĠP ot
ĠP RE
Ġcon tr
Tensor flow
ĠD AT
Ġun finished
bo unding
ĠM id
ĠM LM
ĠM PT
ĠB randNew
Ġres caling
ant on
Ġx xx
Ġsh arding
Ġsh utdown
set attr
ĠIn it
Ġcom ando
ãģ® ãģ§
AR EST
([ (
cept ed
Ġpar ents
Image Net
mo uss
ram ids
EN V
ä¸ Ķ
comp el
Gener al
ãĤĮ ãĤĭ
Ġprint f
Ġany more
MODEL ING
ãģĵ ãĤĵ
sub scrib
çĶ¨ ãģ®
Ġro ugh
Ġro uting
STR IB
Ġtemp lates
}" }
Wh ile
auto grad
Ġëª ¨
åı İ
Ġaut ocast
Ġass umes
Ġìł ĳ
Py Object
Re po
inet uning
ĠLo ftQ
UL ER
ĠìĤ¬ìļ© íķĺê¸°
ink ing
ateg orical
Ġeas iest
Ġest imator
ĠìĿ´ ìłĦ
()? ),
Normal ized
ãĤ» ãĤ°
ĠViT Config
ema il
Ġcomputation al
çī ©
Ġ"_ "
ĠPar se
Array U
ĠÃ© gal
NE AREST
ĠSwin v
Ġconf lict
ëŀ ľ
Ġë°©ë²ķ ìĿĢ
tri e
ĠíķĻìĬµ ëĲľ
ç§ »
Convert ing
upcast ing
gluon resnet
Can vas
Ġstat istics
ë¶Ģ íĦ°
Ġtrad itional
ãĤ¹ãĥĨ ãĥł
Ġtar file
Ġdies e
Mat rix
Acc ents
Ġregnet y
Ġalle ged
FEAT URE
SU PPORTED
Ġdig its
fÃ¼h rt
è¶ ħ
Ġut mp
Ġìĸ´ëĸ ¤
íĽ Īëł
Latent TesterMixin
ĠCL VP
ĠìŀĪìľ¼ ë©°
Car bon
Ġmeas ures
Ġíĸ ¥
Prov ider
Ġharm ful
æĥħåĨµ ä¸ĭ
AMPL ES
ĠâĿ Į
ï¸ıâ ĥ£
ivar iate
ĠDAT ASET
ĠÃ©gal ement
! =
* ).
B ros
G reek
J itter
T ABLE
U CT
V GG
a ggreg
c atch
c asing
c wd
j ukebox
k c
n is
q zeros
v iz
v olo
y per
ç ³
ë ¬
Ġ âĶĶâĶĢâĶĢ
į ¼
or arily
el low
Ġs po
it t
Ġf ois
Ġ" ":
Ġto ks
un flatten
Ġ[ _
ol ing
Ġg row
Ġg reen
") ).
__ [
Ġth ous
Ġst raight
pr im
ĠC P
Ġre inforcement
"] ])
)) ),
ard s
ĠR atio
ĠR ank
ĠM CTCT
For VideoClassification
ĠV ous
Ġ' [
ribut es
RA GE
AS SI
DE TE
In former
Con nect
Ġinit ially
ĠUn ivNet
lic he
Ġup loading
DI STRIB
ä¸ ĸ
ãģ¨ ãĤĤ
gn i
ne ftune
obj s
local host
æľ º
ĠJ upyter
Ġax s
ĠCLIP Model
Py Result
ĠAutoModelFor QuestionAnswering
pair wise
Ġ.. ,
RE M
Ġpres erved
StableDiffusion InpaintPipeline
ĠAl low
TE MP
export s
ĠUs es
finet uning
ëŁ °
By oModelCfg
åĨ Ļ
éģ ħ
å¸ «
ĠëĮĢ ìĭł
Ġcaption ing
ĠìĿ´ë¯¸ì§Ģ ìĿĺ
çĲĨ è§£
ãģĻãĤĭãģĵãģ¨ ãģ§ãģĻ
Ġgeneral ized
ĠVision EncoderDecoderModel
ĠDown Block
New Model
compat ibles
ĠUp Block
assertRaises Regex
åĨħ å®¹
Ġbl ank
ĠíĶĦ ëłĪ
Cuda Storage
velop ment
ĠíĽĪëł ¨ëĲľ
Ġtrace back
Ġchat bot
SCRI PT
ĠBaseModelOutputWithPooling AndCrossAttentions
ãģ©ãģ® ãĤĪãģĨãģ«
ĠConvNext V
Ġê°Ģìł¸ ìĺ
ĠEnd point
Distributed DataParallel
æº Ĳ
prop Op
ĠCausalLMOutput WithPast
ê· ¼
Scal ar
Rec ord
Ġter rit
distribut ions
Ġfavor ite
Hu ggy
Sim onini
Downsample Block
Ġpal ette
ĠìŀĲëıĻ ìľ¼ë¡ľ
Are a
ç¼ ĸ
ayer norm
Ġìī½ ê²Į
prel ayernorm
Ġsigu iente
ãĤ³ãĥŁ ãĥ¥ãĥĭ
CHED ULER
ãĥĵãĤ¸ ãĥ§ãĥ³
ãĤĤãģĹãĤĮ ãģ¾ãģĽãĤĵ
byob net
apot ec
ĠFEAT URE
ĠíĶĦëłĪ ìŀĦ
( ...,
A LM
B elow
D ate
F unc
G IT
H I
L ib
N at
T RUN
U RATION
V ocab
X S
b cf
b lend
d ic
h igher
m add
t ect
v d
} ^{
æ ²
í ħįìĬ¤íĬ¸
ĩ ê²Į
al bumentations
an to
an mar
Ġd ed
Ġd la
ent a
iz ado
Ġn f
Ġn ur
Ġn ll
im ately
") );
ĠA L
ĠL ib
Model Pipeline
Ġma chines
ĠR UN
ĠM an
ĠB F
own load
train ers
Ġal g
doc uments
AR TICLE
Ġinit iate
ĠĠĠĠĠĠĠĠĠĠĠĠĠĠĠĠ ĠĠĠĠĠĠĠĠĠ
lic it
ĠCon st
,) ),
TF Funnel
IS PER
format s
cont ents
St ore
coded Input
Ġmod o
Auto Pipeline
ì§ ķ
ĠRe f
ãĥ¢ ãĤ¸ãĥ¥ãĥ¼ãĥ«
à± Ĥ
({ },
Arg ument
ãĥĹ ãĥ«
'] ))
ĠTh us
ĠìĤ¬ìļ© íķĺë©´
cut e
Ġext ern
Com put
ĠZ e
ĠZ hu
ĠZ apotec
Ġfull graph
cur sor
à¥ ģ
ĠY ork
ĠRo FormerConfig
ĠResNet Config
edit ed
ĠLayer Scale
ç» Ħ
environ ments
XLM Tokenizer
ãĤĴç µ
Ġhe alth
Ġcount ed
Sh ort
bl k
ìĥ ī
Split Generator
learn er
regnet x
ÃŃ stic
Ġedit ing
Ġtri es
ENT ENCE
ĠìķĬ ìĿĢ
Ãª me
Ref Mut
comb ine
æ¬¡ãģ® ãĤĪãģĨãģ«
TPU s
Ġactiv ated
Ġph ones
ĠSpec Augment
Ġbr ing
Ġìľł íĺķ
å¦Ĥæŀľ ä½ł
ĠOPT Config
Ġred irect
ĠTemp oral
ĠWhich Model
Ġexpl oration
çŃ ī
Ġocc ur
ĠëĶĶ ëłī
Ġíģ´ëŀĺìĬ¤ ë¥¼
ãģ§ãģĤãĤĭ ãģĵãģ¨
Ġverw endet
omas Simonini
Template Processing
AML ESS
çĻº çĶŁ
æŁ¥ çľĭ
ĠVit Matte
ĠcÃ³ mo
Ġfig ure
Doc ument
ĠSy ri
Ġconj unto
å¤§ãģį ãģª
ĠTimestep Embedding
åįĺä¸Ģ ãģ®
ãģĻãĤĭãģĵãģ¨ãĤĴ ãģĬåĭ§ãĤģãģĹãģ¾ãģĻ
Sin usoidalPositionalEmbedding
anta coder
ĠConvNet s
BL CK
exhaust ed
Ġappe ars
Ġíıī ê°Ģ
pay load
Ġlibrer ia
EncDec Attention
DETE CTION
TRUN CATE
? )
A nn
B ar
B peTrainer
C LI
F ixed
G LU
H ard
H igh
L ander
R ot
S ol
S ET
S NR
T A
T ai
U m
] }."
_ <
` **
a esthetic
b wd
j p
k k
k osmos
p le
v in
w rong
Ð º
å Ŀ
è Ĭ
é ¨
Ġ ve
Ġ ãĤ¹ãĤ¯ãĥªãĥĹãĥĪ
Ġs mem
an cing
Ġd w
ent os
Ġn or
Ġn os
la ke
Ġw a
um b
Ġ# __
Ġh ar
pro xy
ir l
res block
ata k
Ġpro cedure
Ġcon trast
Tensor Spec
)) `
end points
ĠW orker
ĠR and
For Segmentation
ĠV an
Ġx l
ĠG ithub
LI GEN
]] ])
Ġdo v
Ġj ump
ãģ® ãģŁãĤģãģ«
ST EPS
Ġpar sed
Ġch apter
ĠTF Rag
Ġsc oring
ãģ« ãģªãĤĬãģ¾ãģĻ
lic ations
OR G
so undfile
ho use
ðŁ §¨
mon o
comp os
Gener ating
ëĬĶ ì§Ģ
à¤ ĩ
Ġform s
ĠðŁ ¤
ĠGPU ìĹĲìĦľ
An other
Res NeXt
post erior
GPT SAN
Fast Speech
ãĥª ãĤ¢ãĥ«
Ġurl path
Ġtrans posed
sig opt
Ex pand
igh bor
Ġpres erve
Ch en
deep mind
ans a
IT CH
ĠText Input
Ġextract s
Ġbreak s
ear son
éĩ Į
Table Transformer
ĠSpeech EncoderDecoderModel
Ġab ility
Load ed
Ġta il
ãģĵãģ® ãĥ¢ãĥĩãĥ«ãģ¯
Ġme ant
acken ds
ãģĻãĤĭãģĵãģ¨ ãģĮãģ§ãģįãģ¾ãģĻ
å¤§ å°ı
Max xVit
ĠUp load
äºĨ è§£
Ġprodu ction
Ġcar acter
Ġcap ital
Ġjit ted
SW AG
Ġadv ance
Ġmet odo
Metric Info
")} ),
å®ĥ ä»¬
Ġprefer red
Ġlight ing
lead erboard
ĠPreTokenizer Wrapper
cutoff s
Ġaver aged
Ġrecon structed
Ġcover ed
FIN ITY
Ġautom at
Ġcas o
ĠClassifier Head
ĠPalestinian s
Ġê¸°ëĬ¥ ìĿĦ
anch ors
Ġaw esome
ãĤĴæĮģ ãģ¤
Ġmarri ed
Upsample Block
Ġpreced ing
Imp l
alle z
Ġintegr ated
ĠSummary Writer
ĠCour se
OLO S
wt q
ä¸» è¦ģ
draw ing
instant iate
Pret raining
nowball Target
ambi Ã©n
DatasetModuleFactory With
deeplab v
unar Lander
ĠAu fg
PATTER NS
CLU DE
Interpolation Mode
) }.
+ \
= [-
> [
C R
G ITHUB
J ob
K D
M ismatch
M odal
N ars
S amo
S GD
T Model
W ho
W uerstchen
a head
a Kam
d ds
g iou
h if
s f
s id
s ive
è İ
ì ¢
í ĳľ
Ġ arm
Ġ ĊĠĠĠĠĠĠĠĠĠĠĠĠĠĠĠĠĠĠĠĠĠĠĠĠĠĠĠĠĠĠĠĠĠĠĠĠĠĠĠĠĠĠĠĠĠĠĠ
it ud
Ġc li
Ġc ud
Ġ" ),
Ġm b
lo un
ent i
Ġw ent
Ġw heel
Ġr er
Ġr anging
em l
ert z
ip ulate
Ġlo ts
ĠS top
ĠS ending
(" %
ĠP erm
=" #
ri ef
ĠF ull
Ġy max
ĠR ES
ĠM ultip
ĠB ias
ĠB arri
For ced
ĠV ersatile
pa ced
Ġan che
ill s
iv ing
ft fy
Ġby pass
ĠE in
ĠE ing
Ġwe ek
ĠN ames
ĠN AME
ĠN oisy
ils chmid
Ġprompt ing
DE PRE
Con stant
Ġne ces
ĠTF GPTJ
ĠAuto Backbone
Processor Mixin
Ġê ·
ag nostic
TH ER
do cker
Ġcopy right
ĠFlax GPT
ug u
ph ilschmid
St ories
}) ")
Auto former
ĠTo Tensor
ĠEx ponential
etri es
Ġlib rosa
CONFIG URATION
div is
åĪ «
ViT ForImageClassification
QuestionAnswering Pipeline
Ġreg ions
ãĥĹ ãĥª
ãĥª ãĥĨãĤ£
Ġjson l
cre asing
StableDiffusion ControlNetPipeline
deta il
ìĸ ´ë
ãĥŃ ãĥ¼ãĤ«
pack aged
ãģ§ãģĻ ãģĮ
Ġstruct ures
Ġ". [
ĠText ToVideo
Ġpresent ed
pers ist
ãĥĳ ãĥĥãĥģ
ĠPR NGKey
aa a
Ġme hr
Conformer Config
Ġduplic ates
ä¹ Ī
AG ES
Ġce il
æıĲ æ¡Ī
Peft TestConfigManager
Ġflex ible
é«ĺ ãģĦ
Ġrec urse
ĠIndex Map
Er r
ãĥĢ ãĤ¦
Ġstack ed
complet ely
SA FE
ĠDistil BertModel
ĠElectra Config
å¿ľ ãģĻãĤĭ
pars ers
ĠTra cking
PROCESSOR S
Ġbook title
stat istics
Rel ative
ĠProcessor Mixin
ãĤĴç¤º ãģĹãģ¾ãģĻ
ĠBack propOp
íĮĮ ìĿ¼
Ġdecl type
ãĤ¨ãĥ³ãĤ³ãĥ¼ãĥĢ ãĥ¼
éĩįè¦ģ ãģª
ĠìĹ° ê²°
Ġê´Ģ ëł
lec ule
Ġtp itg
ĠSwift Former
ĠOS Error
ĠëıĦìĽĢ ìĿ´
Ġprobabil istic
Ġíļ¨ ìľ¨
IZ ERS
Require ment
ä¼ĺ åĮĸ
Ġoccup ied
mouss aKam
ãĤ³ãĥŁãĥ¥ãĥĭ ãĥĨãĤ£
é¨ ĵ
Nars il
èİ ·
* \
B I
C e
C onf
F FI
H uman
H TML
K LogitsWarper
N U
N a
P our
W enn
d ill
g cc
i y
n u
t vlt
³ ãģ¿
» ê²Į
é ļł
í į¼
en z
es seract
Ġc amp
Ġf ashion
ic an
Ġm m
Ġm ars
ad as
ad ig
la zy
att end
un bind
im s
im ated
is ql
Ġ` /
() ..
po le
Ġh r
de e
th ansa
Ġg ibt
ĠC ast
ĠC ores
ĠL uf
py plot
Ġv os
ĠP A
ĠP an
ĠF ixed
ĠF FN
ĠD DPO
:: $
ĠM E
For InstanceSegmentation
Ġ** `
Ġx b
li u
li chen
Ġal la
ĠN ougat
ĠH elper
Ġlayer drop
Ġqu at
ĠTF OpenAIGPT
ĠUn like
Ġle af
ĠCo unter
patch tst
ie h
requ ested
Ġrel atively
runc ated
ĠFlax RobertaPreLayerNorm
TF Electra
TF BaseModelOutputWithPooling
Ġany way
ãĥ¼ãĥ ĳ
squeeze bert
ĠRe ferences
Ġac qu
GPT BigCode
ãĥĹ ãĤ·ãĥ§ãĥ³
Ġresidual s
Ġíķ Ń
Up load
Ġcontin uation
íķĺëĬĶ ì§Ģ
Al pha
Ġev idence
Ġpush ing
ĠY ang
Ġhy brid
Ġinv olve
ung le
red ownload
FF N
æĸ¹ å¼ı
ĠInter valStrategy
ĠInter national
ãĤ· ãĤ¹ãĥĨãĥł
XLM ProphetNet
execut able
execut ables
Code Gen
Ġcontribut ion
gu ess
Ġfill ed
ÃŃ f
but terflies
ĠGroup Norm
ĠìĿ¸ ìĪĺë¥¼
Ġmon itor
å¤ī æķ°
Ġìłķ íĻķ
ti iuae
ĠURL s
çķ ³ãģ¿
íı¬ ì§Ģ
Lat in
ands cape
ĠDPR Reader
BE AM
Ġfriend s
Ġìľł ìļ©
rouge L
åħ¥åĬĽ ãĤĴ
TextTo Unit
ĠPPO Config
Ġë³´ ìĹ¬
HuggingFace H
Ġocc urr
æĭ ¡å¼µ
CausalLMOutput WithPast
Ġíı¬íķ ¨ëĲ
ForAudio Classification
ç¬ ¬
PIPE LINES
Git Hub
ForSpeechTo Speech
Ġlever aging
ĠStableDiffusionXLI mg
Ġsubmit ting
Ġanch ors
ĠMich ael
circle ci
Ġoutperform s
nes day
AVE RAGE
advant ages
Compat ible
å°ıãģķ ãģª
ĠLuf thansa
çķ³ãģ¿ è¾¼ãģ¿
" ><
* ',
/ __
/ ')
> ',
A F
B etter
C l
D CrossAttn
E xt
E sk
G mem
L LAMA
M essages
O K
S ENTENCE
V LT
] +)
a ggregate
b z
b ow
d av
d yn
d vclive
g est
g zip
m al
m ers
m vp
m embers
n en
p et
w p
y y
y ed
} (
¶ Ģ
æ ¥
Ċ ĊĠĠĠĠĠĠĠĠĠĠĠĠĠĠĠĠĠĠĠĠĠĠĠĠĠĠĠ
Ġ æ¨¡åŀĭ
Ġ vez
er ence
od os
Ġd types
Ġd rive
Ġd ays
it a
it Ã©
Ġf ich
Ġ" :
Ġ" "))
Ġp b
Ġthe ory
Ġn tg
ex pl
Ġa ggreg
att o
to ctree
ge fÃ¼hrt
ul ien
Ġl lm
Ġl fs
ĠT arget
ot ball
Ġ# ##
pro ces
") `
ĠA UTO
"" .
ĠC onf
ĠS in
ĠO pt
ĠO per
(" ...
ĠP oly
Ġex c
Ġex llama
Ġpro c
Tensor s
Ġon to
cal c
ĠR igid
ĠM ET
ĠM RPC
Ġres olutions
Ġx mod
av as
... ",
Token ize
Ġk Smem
Ġal iases
pect s
sc ikit
ization s
Ġno vel
Ġpar sing
ec ar
Ġrequir ing
Pro ject
In ception
ĠTF ModelTesterMixin
mo ving
down cast
tt ing
arch ives
De formable
ìĹ °
Ġ(" <
PreTrained Config
seed s
TF DistilBert
ãģ¨ ãģ¯
cript or
ModelFor ImageClassification
ell ig
Ġbuil ds
Ġcode c
ĠPre pend
ãĤ¤ ãĤ¹
Wh ich
cor is
Ġmo vie
ĠAn imateDiff
Ġreg ard
imple ment
'] },
Ġman age
Ġser vers
ãģĭ ãģ«
AB LED
cut mix
Ne St
hash code
âĢ Ķ
ĠLoRA AttnProcessor
Ġcons umption
Ġà° ħ
ĠPro ble
ĠPipeline LatentTesterMixin
Ġdist rib
Ġìĺ ¬
del ay
ãĥķãĤ £
Ġcommon ly
Ro le
Ġphoto graph
Ġho use
ãģĻãĤĭãģĵãģ¨ ãģ¯
ControlNet InpaintPipeline
Ġincre ased
æī ¹
xx large
ĠPar a
Ġìĭ¤ ìłľ
compat ibility
ë° ©
uman pp
Ġdec ide
condition ed
BigBird Pegasus
è¨Ń è¨Ī
Ġcare ful
tap es
CLIPTextModel WithProjection
ĠìĨ Ĳ
å± ķ
ãģ¡ ãģ¾ãģĻ
NUM BER
Ġë©Ķ ìĦľ
Ġespec ÃŃf
ĠëĺĲ íķľ
ĠBark Fine
ĠBeit Config
cap es
Ġstat ements
Ġencoura ge
SPE CIAL
Ġfo otprint
ĠĈĈ /
ĠĈĈ \
kt ur
ĠTensorParallel Row
TASK S
ĠDataCollatorFor Seq
Ġnu clear
HifiGan Config
Ġthrow n
Ġìłľê³µ íķ©ëĭĪëĭ¤
ĠRegression Dataset
ĠCont ribut
Ġsit uation
Ġìĸ´ íľĺ
Ġpat ient
}}{{ #
prov ided
fÃ¼h ren
ĠUnder standing
ä¸ĢèĪ¬ çļĦãģª
dS ame
Ġìĸ´ëĸ »ê²Į
ĠMay be
quer ier
ĠLogitsProcessor List
Ġimm ediately
íĹ ĺ
æĬ½ åĩº
decor ator
East ern
ãģ«æ³¨æĦı ãģĹãģ¦ãģıãģłãģķãģĦ
Ġcompris ing
ãĤ¢ãĤ¯ãĤ» ãĤ¹
ç³ »
ÃŃstic as
ĠBarri entos
ãĥŃãĥ¼ãĤ« ãĥ«
FFI CI
Ġhr net
ĠTensorParallelRow Linear
( ()
( ?:
A c
B IG
C or
M ind
O ur
P ooling
R U
R ank
d em
d uring
d ino
f id
f re
k b
p ly
s us
v ous
w ide
x dist
z s
½ æķ°
é ª
en a
at z
at least
ed nesday
st er
st ra
re i
le ment
ig u
Ġm p
Ġto t
Ġr at
un fuse
ers ions
Ġ` {'
po ss
arg min
model ID
de quant
ab la
Ġg es
int ent
all s
ĠL E
ĠS plits
ĠO b
res ampler
Ġse a
ĠF ake
num bers
ĠD reambooth
Ġun c
ĠB aseModelOutputWithPast
ĠV ocab
ĠV ER
com ments
Ġ== >
Ġ' _
Ġ' ')
ãĢ ħ
cl oned
ĠH i
ĠH as
ere o
Ġspec ulative
Ġ[" <
AS R
ess ian
Ġpar k
DE BERTA
Ġsize of
ãĤĴ åĨį
ãĤĴ åıĸå¾Ĺ
ĠUn ity
tain er
over head
Ã© t
ax i
ze ich
aut hors
Ġinter pret
Ġform al
ãģ¨ ãģĦãģĨ
Ġprint ed
Conv Block
Text Embeddings
sub plots
ĠConv Norm
cor relation
Ġdel ay
Ġvari ations
ãĤĬ ãģ¾ãģĻ
Vision Text
Ġjust ice
´ë ¶Ģ
AL O
ãĥª ãĥ¼ãĤ¹
gram ming
cut outs
ìĸ ¼
export ers
Ġes egu
Ġnames paced
Ġê° ķ
Ġà° Ł
åĩ ½æķ°
ĠìĿ´ ìłľ
ìķ Ī
Ġref lect
Ġ({ "
Audio Classification
inish Reason
ĠRo PE
DAT E
light ning
Ġexecut ing
ĠCol umn
ControlNet Img
å¤§ å¹ħ
=$ {
ĠãĤĴ åıĤçħ§ãģĹãģ¦ãģıãģłãģķãģĦ
Ġmon o
\. \
Ġcar reg
Ġparticular ly
ä½ł çļĦ
My anmar
Set tings
ĠíĬ ľ
Mo E
Ġfunctional ities
ĠMobileViT Config
aud i
å¢ Ĺ
ĠAct iv
éĿŀ å¸¸
Ġturn s
HuggingFace M
éĸĵ ãģ®
ĠAda factor
ĠAda LoraConfig
fold ers
Ġdemonstr ates
ĠĈĈ -
ĠĈĈ |
ĠSEW D
incre ases
ĠBasic Tokenizer
ĠNV Me
Ġtreat y
amazon aws
Control net
ĠìķĮ ìķĦ
ĠMult ilingual
ãĥļ ãĤ¢
******************************** ********************************
Ġpublish er
ê¹ ħ
è«ĸæĸĩ ãģ®
ãĥ¬ãĤ¤ãĥ¤ ãĥ¼
Dot Type
ĠIDE FICS
Ġtranscrib er
ĠðŁļ Ģ
ynchron ous
METRI C
ãģĶè¦§ ãģıãģłãģķãģĦ
ãĤ·ãĥ§ ãĥĥãĥĪ
ertaint y
Samo yed
Esk imo
= }
> ":
> ::
B AR
C ha
C UR
D D
E ither
G Y
G ather
I PEX
K o
L ocation
M OS
N CHW
P erm
P omer
S ageMaker
V QA
b ung
h ug
i ates
m ra
m ention
q d
t ec
v ic
w alk
ë °Ģ
ï ¾
Ġ ãģ¾ãģŁãģ¯
es cape
he x
ig a
Ġn x
Ġb b
Ġb ackends
um s
ul li
Ġl j
ol ated
Ġh w
Ġ* [
de ed
pro per
ke esh
ip a
ĠA ggregation
ĠC ong
Ġre ct
ĠL ingu
ĠS un
ĠS chedul
gg an
oc Stories
Ġbe i
ub elet
ĠP e
ĠP olynomial
ĠF n
ĠF ore
Ġun ter
os ing
ĠW ednesday
ind i
For Entity
IN FINITY
tensor ize
tensor float
Ġare as
block ing
Token ForGeneration
tim edelta
ĠIn f
ment o
ok emon
Ġch arger
ĠTF Wav
Ġle ak
ich ini
ĠĠĠĠĠĠĠĠĠĠĠĠĠĠĠĠ ĠĠĠĠĠĠĠĠĠĠĠ
Ã© c
ax ial
comp ression
trans fer
TF RoFormer
TF ORMER
.{ {
FOR E
Ġsub words
Vec VisionModel
Ġmod es
LayerNorm ConvLayer
ä» ĵ
Ġz um
mut able
CausalLM Batch
ì§ ģ
acc ard
Ġfa cing
Ġtra jectory
-> ...
Ġmain ly
å¤ į
types cript
Re peat
ĠBert Normalizer
Input s
LU KE
ME M
ĠCh in
vari ation
Ġë° Ľ
Ġad a
Dense ActDense
mak ing
ìĭ ¬
Al t
Ġev a
prior s
(| _|
è¯ ´
lv r
åł´åĲĪ ãģ«
Ar thur
Ġìĺ µ
ada factor
ëŁ ¼
erature LogitsWarper
sin cos
ëĿ¼ ëĬĶ
Result s
ï¼ī ï¼Į
ãĤ³ ãĥŀãĥ³ãĥī
Ġauthor ized
Ġeven ly
clud es
ĠQu ery
ä¸Ĭ è¨ĺ
Ã§ Ãµes
èĩª çĦ¶
Ġgen res
ãģĪ ãĤīãĤĮ
é¡ ¹
Ġëĭ ¬
Ġpu is
åĢ ĭ
Ġíķĺ ìľĦ
ĠDummy Metric
ĠScheduler Type
ĠDepth Anything
Ġneg ot
ĠSam Processor
Ġins erted
Ġìŀħëł¥ ìĿĦ
ĠAttn AddedKVProcessor
æĪĸ èĢħ
bound ary
eff net
ĠInstruct Pix
Ġcompar able
LAY OUTLMV
Ġà°® à°°
WOR LD
ĠFa ctory
Ġë§Ī ì§Ģë§ī
çĽ¸ åĲĮ
æ± Ĥ
sec ure
Ġë¹ł ë¥´ê²Į
ì° ¨
Ġflo or
ãģ®ãĤ· ãĥ¼ãĤ±ãĥ³ãĤ¹
Ġexceed s
æķĻ å¸«
ĠPL Bart
Ġsecu encia
Ġmainten ance
Ġps util
entren ado
ĠëĬ Ĳ
swift former
sche mas
erno ulli
Sources ExamplesIterable
LANG U
FINETUN E
ĠMen ichini
avas cript
Pomer anian
keesh ond
$ ,
, <
? ")
C ong
E s
F used
G l
I mages
M ON
P LogitsWarper
R ENT
S afe
T ry
W D
] '
g ar
m f
p ic
r le
s ur
v id
} ],
Î ±
ĵ ¨
ł ¤
on y
Ġt itles
Ġt Ã©lÃ©ch
as m
it ative
Ġf tf
Ġm al
Ġm obilenet
se ct
Ġn ach
Ġa max
is digit
Ġ- --------
ot on
Ġh olds
de form
de veloper
lass es
pro fil
Ġg guf
ĠC lient
oc cer
ĠP l
ĠP ut
ĠW ER
ĠW orld
ĠR ate
ĠM NLI
eg ian
Ġlet ter
ĠE mpty
Ġal Ã©
ĠG ELU
Ġpre view
ĠIn stance
Ġj ungle
act ers
([ ^
ib et
Ġcomp ress
ãĤĴ ãĤ¤ãĥ³ãĤ¹ãĥĪãĥ¼ãĥ«
Ġlist a
tt cfg
ĠK E
Ġu char
forward Generator
ĠWh ere
Ġcol d
íķĺ ëıĦë¡Ŀ
FI mg
çĶ °
Ġprocess us
ìĹĲ ê²Į
TF Mobile
Ġdiff ers
Ġarg max
long t
Ġmo str
åı ĺ
æľ ª
extend s
Ġacc ents
ĠCLIP FeatureExtractor
AD AM
AD DITIONAL
äº Ĵ
ĠCh rist
Ġpres er
ĠQ KV
ĠLoRA Compatible
({" .".
Com m
ìĦ± ìĿ´
Ġclip ped
Ġlearn er
ĠInst allez
Ġprior it
ĠY AML
DCondition Output
ĠìĿ´ ìĥģ
Normal ization
ĠTrainer State
ĠSh ared
ĠFile Lock
Ġcard s
çĶ»åĥı ãģ¨
Ġfix es
Ġalign ments
ãĤ¨ ãĥ©
BA AI
wer ra
ĠSwin Transformer
Ġcu i
au c
align ments
ĠWhisper Config
rs b
segment er
Ġappropr i
è½ ¬
RES NET
ëĵ¤ ìĿĢ
Download Mode
Ġë¡ľ ê·¸
hal ves
à°¡ à°²
Ġinf os
Ġgpt q
bt n
sql ite
Cont ribut
mi il
LAY ERS
Ã¼h ren
Ġbas eline
HO ST
Ġdecor ation
Ġly ric
dependen cy
Encode c
ãĥı ãĥĸ
ĠDep ending
ãģĵãģĵ ãģ§ãģ¯
åĪĩ ãĤĬ
ãĥĳãĥķãĤ©ãĥ¼ãĥŀãĥ³ãĤ¹ ãĤĴ
ĠgÃ©nÃ© rer
æ® µ
íĽ Ħ
åįķ è¯į
Ġprel oad
íĸĪ ìĬµëĭĪëĭ¤
ĠUtil ities
ãĤ¯ãĤ¨ ãĤ¹ãĥĪ
Oper ation
ĠbibliothÃ¨ ques
ç¯ ī
ĠmÃ¶ chten
ĠìĹĲ ìĿ´ìłĦíĬ¸
<_>>> ()?;
ĠStat ute
orw egian
çİ¯ å¢ĥ
Fram es
REGI STR
æ··åĲĪ ç²¾åº¦
Ġìłĳ ê·¼
oling ual
hif igan
divis ibility
Ġftf y
# "{
B S
B en
B ot
C ell
C alcul
E BA
G aussian
K a
L ambda
M LM
N T
S pace
S FT
T yp
W armup
[ ];
b ros
f Hx
i bert
j ar
k inetics
s plat
t res
u w
v its
w ds
Ñ ĥ
è ĭ
ë ħ
Ġ ed
Ġ arn
Ġ kwarg
or o
Ġt x
Ġt une
et ic
ro om
Ġc la
Ġc ela
ic he
ic lass
re assemble
Ġin complete
ad j
Ġb lip
Ġb loom
Ġb wd
Ġw i
Ġw el
Ġw ur
Ġde ad
Ġ` ${
ĠT iny
ot ide
Ġh uge
de ad
ort ed
Ġg ray
ãĤ º
ĠA ccess
ĠA wq
Ġst ars
ĠL iteral
ĠL UKE
che my
Ġe yes
co uld
Ġun s
Ġun squeeze
art icles
ĠR ocStories
ĠM att
Ġres block
max pool
for k
ud y
ĠE very
ĠE lastic
ĠN CHW
ĠG loun
Ġdo cker
Ġra mp
Ġpass age
([ ("
Ġdim ensionality
Pro gress
Pro gramming
Image GPT
Ġne u
ĠTF LED
Ġob tenir
Ġparam etr
ãģ« æ¸¡
MA CH
MA KER
)? )?
nam ing
Ġimp ossible
Ġblock ing
Ġê ¶
Bert SelfOutput
Ġend points
ãģ¦ ãģ¿ãģ¾ãģĹãĤĩãģĨ
TF T
TF AutoModel
Ġsub str
writ es
Ġsu fficient
ĠX u
ĠX ception
audio folder
Ġcomm its
Ġargument o
Ġdel le
ap ers
ite z
clo va
tra cer
Ġscal er
Re inforcement
Ġent re
GE MAKER
Feature Encoder
_{ {
ĠQ table
ãģĭ ãĤĤãģĹãĤĮãģ¾ãģĽãĤĵ
Ġiter ating
ĠGener ates
Ġsum l
Ġcons ist
RO SS
ĠImageNet PreTrainedConfig
multi processing
ĠText Generation
ãģ®ãĤ ¨
Ġauto encoder
ĠGet s
cle otide
VI DE
################ ####
å®Ł éļĽ
med ia
ĠControlNet s
Ġvector ized
Ġê¸° ìĹ¬
Ġgrid Dim
("/ ",
ãĥĨãĤŃãĤ¹ãĥĪ ãģ®
ĠIN STANCE
ĠOutput s
Ġcateg orical
Vi TFeatureExtractor
XX X
ĠMix tec
Ġëª¨ëĵ Ī
Ċĉĉĉĉĉĉ ĉĉ
syn thesis
Ġdest ination
Ġtutorial s
ĠAtt empt
ĠTime SeriesTransformer
ibli othe
Ġìľł ì§Ģ
ĠBark Semantic
ĠTim esteps
ĠëĶĶ ë²Ħ
ĠPass ing
su ite
Ġff mpeg
ãĥĪãĥ¼ãĤ¯ãĥĬãĤ¤ãĤ¶ ãĥ¼
æµ ģ
Ġly r
äºĭåīįãĥĪãĥ¬ãĥ¼ãĥĭãĥ³ãĤ° ãģķãĤĮãģŁ
pow f
Ġ"# /
ĠRO UGE
mnas net
æľĢåĪĿ ãģ®
ãĤªãĥĹ ãĤ·ãĥ§ãĥ³
íĨłë¦¬ ìĸ¼
Ġinflu ence
ĠLimit ations
Back ward
elec S
ĠìĿĮ ìĦ±
DISTRIB UT
íı¬ì§Ģ íĨłë¦¬
ecar esnet
ä»ĵ åºĵ
* .<
- )
B lo
C vt
D ist
D TYPE
H ET
I ES
N um
O ps
S um
S AT
W estern
c ion
c url
d ated
f un
i ers
l ilt
m arginal
n ystromformer
p it
q tensor
s peak
t b
x d
z t
í ĵ¨
Ġ ]]
ar beit
it ate
it ute
Ġf allback
Ġp ri
ig its
Ġm i
Ġm Ã¡
Ġto lerance
Ġb rief
Ġw m
Ġw ds
um t
Ġ( /
Ġa i
am ba
un ary
Ġis ize
Ġis Expand
is chen
ĠT akes
ĠT itan
Ġ[ --
Ġh al
Ġh ot
Ġ* .
") ],
ĠA ction
Ġst ated
ĠI mages
oc i
ath on
ath an
ĠP ossible
Ġex pose
=" .
Ġimport able
Ġcon nections
ĠF UN
Ġun comment
Ġì ¹
)) ],
pp ers
ĠB f
ĠB n
ĠB ranch
ĠB oo
Ġres umed
ĠV IT
iv id
li e
get cwd
import able
ĠE ither
ject ories
ĠN ER
ĠN ested
ifi able
np m
In DS
Ġcomp iler
ãĤĴ ãĤµãĥĿãĥ¼ãĥĪ
ĠTF Seq
Ġob s
Ġsc orer
ĠK L
af c
De vices
ens ure
iss age
ìĹ ´
The Blo
ĠCon catenate
ãģ¯ ãģĤãĤĬãģ¾ãģĽãĤĵ
pytorch video
ag ers
Ġcopy ing
Un ity
ĠFlax Seq
TF Blip
ãĤĮ ãģ°
FOR MA
Ġsub stant
Scheduler TesterMixin
IL T
ãģĻãĤĭ ãĤĪãģĨãģ«
gy mnasium
Ġdes criptions
sd k
ĠEx port
ãĥ¢ ãĥ¼ãĥĢ
(* [
ĠJ ian
ite ktur
Py Any
cket kn
Ġquant izer
Re pository
ãĥª ãĤ¯ãĤ¨ãĤ¹ãĥĪ
Ġmut ed
EX AMPLES
TO DO
ĠBatch Sampler
ĠÃ ī
Ġevery one
ãĥ¬ ãĤ¯ãĥĪ
multi head
ãĤĴä½¿çĶ¨ ãģĹãģŁ
ac cepts
lin ks
ĠPipeline Karras
Th reads
ĠìĹ ´
Ġ`` "
ĠInter nal
Ġein fa
ç» Ĩ
inst ances
Ġnecess arily
ĠìľĦ ì¹ĺ
Ġì§ ĳ
ĠReg ex
Ġìŀĳ ìĿĢ
WAR D
ãģĭãĤī ãģ®
Conformer Model
Info Proto
à±ģ à°Ĥ
wik isql
hu ggan
ãĥķãĤ© ãĥ¯ãĥ¼ãĥī
ä¹ ł
ĠLlama Config
SH ARD
Ġì² «
åŃ¦ ä¹ł
ĠAdapt ion
Stream er
ĠDummy GeneratorBasedBuilder
sk learn
ĠAc cept
ĠOPT ForCausalLM
Can ine
ĠRegNet Config
DDP M
session Id
ĠAdditional ly
ãģ®ãĤ³ ãĥŀãĥ³ãĥī
Ġcomb ines
ĠìĦ¸ íĬ¸ë¥¼
Embed der
âĢĿ ,
ĠPatchTSMixer Config
Sup pressTokens
star to
ett mers
indic ated
Ġej ecut
æľŁ å¾ħ
ĠCapture Std
Evalu ate
Evalu ating
èª¬æĺİ ãģĹãģ¾ãģĻ
He addim
Ġdro pped
ĠAg ain
ĠTFC amembert
ĠíĶĦë¡¬íĶĦ íĬ¸ë¥¼
ĠìĬ¤íģ¬ë¦½ íĬ¸ë¥¼
ãĥľ ãĥĥãĤ¯ãĤ¹
ĠZero Shot
ĠëıĦêµ¬ ë¥¼
GA TIVE
ĠOnnx RuntimeModel
UST OM
ĠëĤ ´ë³´ë
ENSOR S
ImageProcessing Tester
Ġlever ages
Ġvo ir
èªŃãģ¿ è¾¼
Ġaim s
ĠCour t
ĠCr iminal
ĠStream ing
åºı åĪĹ
æºĸ åĤĻ
ãĤ¤ãĥ³ãĤ¹ãĤ¿ãĥ³ãĤ¹ åĮĸ
Ġoverla pping
ç»ĵ æŀľ
ê¹Į ì§Ģ
Ġchallen ges
TAG S
ĠFla wed
yf cc
acl web
subscrib er
Ġíĸ¥ ìĥģ
ĠSchedul es
ibet an
REGISTR Y
MACH INE
ĠisExpand ed
TheBlo ke
ãĥ¢ãĥ¼ãĥĢ ãĥ«
cketkn ight
ĠPipelineKarras SchedulerTesterMixin
" *
% :
' ")
( ?
; \
A h
B egin
C AT
D istribution
D inat
H andle
J s
L ight
M RPC
N ystromformer
R ight
R emove
S imilar
] }")
a Ã§Ã£o
e ither
n re
q wen
r atic
r sqrt
r etry
s len
s ized
u ary
w all
w end
y er
} `,
Ġ ort
in em
in ess
er ing
Ġt b
Ġt anh
Ġs ou
Ġs now
as a
an iel
an ese
ro unding
Ġd rag
id a
ic as
Ġ" :"
Ġ" ?"
Ġm icrosoft
ent issage
Ġn Ãº
ad ers
Ġo gni
Ġto wards
Ġb us
ma c
ur y
to ml
to wn
ge bung
im mt
Ġ` >=
Ġl ife
ĠT ools
arg a
arg parse
if User
if Assistant
ol ving
de a
Ġg ran
om etimes
ĠA rt
pr entissage
ĠS ystem
oc iation
encoder Tiny
Ġv an
Ġv ice
ĠP UB
ĠF used
Ġimage folder
odu lo
ĠB rain
For VisionText
ific aciÃ³n
ĠV GG
Ġpr s
ĠU m
ĠH ybrid
Ġclass Names
]] `:
ta pex
def init
seq eval
Ġind em
Ġinst al
Ġcomp et
Ġcomp aring
ĠTF RegNet
mo zilla
fil elock
Pipeline ImageInput
Ġconv next
Ġê µĲ
ĠRes ampling
row n
En glish
ãģ§ å®Łè¡Į
cat s
Bert Intermediate
Ġq ar
à¤ ļ
TF RobertaPreLayerNorm
Ġtr end
ĠModel Mixin
)] ["
Conv NeXT
}") ]
ãģĻãĤĭ éļĽ
CON STANT
CLIP Config
ĠData Loaders
Pr oduct
({ '
inter p
ĠìŀĪ ì§Ģë§Į
Ġtrans lator
Flax BigBird
ãĤĪ ãĤĭ
ãģį æıĽ
Ġfl ush
UL TS
ê¸° ë¥¼
Ġser vices
cre BLEU
ren amed
PA CE
Ġsum s
Ġsum y
Ġcons ult
pack ed
Ġidx s
ä¾ ¿
Ġà° ī
åĩ Ĩ
pers on
ID S
Ġhigh way
è® º
sin usoid
Table QuestionAnswering
íĦ° ë¦¬
ĠBlip TextConfig
Ġaccess ible
Common Test
Ġì¶Ķ ì¶ľ
ĠTokenizer TesterMixin
pass age
Ġcombin ing
Ġbin arize
ãĥĩãĥ¼ãĤ¿ ãĤĴ
ë° ľ
Ġpe u
================ ================
SC B
Ã¤ ch
ĠìĥĿìĦ± ëĲľ
Ġdetect or
Ġconditioning s
ĠSw itch
Ġtri ed
atom y
reedy Search
ä»¥ä¸ĭ ãģ¯
Multi SourcesExamplesIterable
Peft Config
Ġassign ment
ãĥĩãĤ£ ãĥ¬ãĤ¯ãĥĪ
uo i
Ġevent ually
ĠDistilBert ForSequenceClassification
Ġmix ing
bh ld
ì¶ Ķ
ĠìķĦ ëĭ
Ġìľł ìĤ¬
ĠCre ating
nlp town
ĠBark Coarse
Ġess entially
ãĥĵ ãĥĥãĥĪ
ĊĠĠĠĠĠĠĠĠĠĠ ĊĠĠĠĠĠĠĠĠĠ
Ġdq h
dig its
Off load
Ġincorrect ly
ĠAda Lora
<< <
Over flow
contin ue
ĠStr ide
æĻĤ ãģ«
ĠFa iss
ALL BACK
ara ma
---| ---|
Diff Edit
FEAT URES
ĠìĿ¼ë°ĺ ìłģìĿ¸
Ġcy cle
ãģĶ ãģ¨
want ed
ĠAdv Prop
ãĤ¯ãĤ¨ ãĥª
ĠðŁĮİ )
ĠStoppingCriteria List
ðĿķ ł
ëĺĲ ëĬĶ
coup led
ĠAus g
BUIL D
ĠEst imator
Ġìłķë³´ ë¥¼
Ġnav igate
Execution Provider
FRA ME
æĿ¡ ä»¶
Sol arize
().. );
CUR RENT
ĠalÃ© ato
DISTRIBUT ED
ĠBoo lean
ĠPUB LIC
ãĥĩãĤ£ãĥ¬ãĤ¯ãĥĪ ãĥª
% ">
B iT
D V
D en
G AT
M ARK
O F
P at
S L
S epar
S ummarization
V er
X FormersAttnProcessor
] }.
` (
b ort
d n
f Q
g oog
h it
k al
k to
m j
m ine
n def
n atural
q tz
s pout
s omething
s leep
s uno
w k
w pe
y mnasium
} \\)
Ċ ĊĠĠĠĠĠĠĠĠ
Ġ ken
en fr
er en
er Output
ut ch
st as
st ro
ro uting
Ġd k
ic ated
re h
re ach
le y
Ġm es
ent angled
Ġn dim
Ġn egatives
Ġb loc
to wer
Ġ` #
() },
Ġl ed
Ġl ives
Ġl aden
il low
ĠA DE
ĠA WQ
Ġst derr
ĠC mp
ĠS im
ĠS ha
ĠS DE
ĠS mall
head masking
Ġpro p
ĠF ollow
ĠD ie
ĠD emo
end re
ĠR ed
ĠM IT
Ġus are
Ġres ampling
For Reg
Ġ' *
get value
Ġen ch
Ġen joy
ĠN am
ĠN esterov
ĠN aga
]] }
Ġkey words
Ġdo ct
Ġqu ats
Ġcom ing
tf ds
col ored
([ [-
ec sls
ĠTF Bart
ĠTF ResNet
Ġout file
ĠUn aryOp
back ground
ãģ« åĪĨåī²
lic ity
Ġla gs
og ene
lm z
comp are
Ġcor rupted
Ġrel u
Un a
Ġinter net
mod ulation
ĠFlax PreTrainedModel
ĠFlax StableDiffusionPipeline
TF XLM
TF SequenceClassifierOutput
ug ar
PE GASUS
St eps
}) "):
Text Generation
ne ptune
ä» ħ
be cause
Encoder Output
Ġdes erial
vector ized
Ġmin s
Ġbo ard
Ġlib rispeech
channel wise
Pr enet
AD DR
Ġnam ely
Re vision
Ġthem e
'] }")
ãĥª ãĤ¹ãĥĪ
ãĥª ãĥªãĥ¼ãĤ¹
Flax T
Ġzip file
Ġiter ative
Ġà¤ ī
ĠPro b
å¾ ¡
ãģ®ãĤ Ĥ
ĠTask Type
Ã¡ met
Ġë³ ¼
ĠTPU v
Ar ch
FIL L
ìķ ĺ
åĪĨ å¸ĥ
æľĢ çµĤ
ãĤĴæ ¸¡
ĠBy T
sg d
Ro cketknight
ëĲĺ ê³ł
iver gence
graph ormer
mn ist
Ġsto pped
TOKEN IZERS
ĠOpen Llama
Ġìĭ ¶
Split DelimiterBehavior
æ¸ Ľ
learn able
assistant Id
ĠPa ir
ë¶ ģ
ãĥ¢ãĥĩãĥ«ãĤĴ å¾®èª¿æķ´
ëŀ µ
ĠCustom Config
ti isg
Ġserial ize
izz a
cro pped
Ġwar ped
ĠDo es
Ġ>> =
FS MT
Ġrep vgg
Resnet DownsampleBlock
Ġ`"< |
Ġê·¸ ëŁ¬ëĤĺ
instruct pix
Ġapprox imation
Ġrecent ly
depen ding
ë¶Ģ ë¶Ħ
æĮĩ ç¤º
pars ing
:?} ");
criter ion
found ation
Push ing
åĪ¶ å¾¡
Ġattempt ing
sel ecsls
ĠNamed Split
Ġíĺ¸ íĻĺ
!! !!
Ġpublish ed
PIPE LINE
Ġdur ch
conversation al
æ® ĭ
Ġíĳľ ìĭľ
UnCLIP Pipeline
Ġbrow n
ĠJs Error
ĠControl s
Ġbes o
Segment erOutput
ĠLoHa Config
ĠLoKr Config
instr ument
imin ary
ĠðŁı Ĩ
åĸ Ħ
PARALLELI SM
Ġë§¤ê°ľë³Ģ ìĪĺ
DY NAM
Ġrough ly
ãĤ»ãĤ° ãĥ¡ãĥ³ãĥĨãĥ¼ãĤ·ãĥ§ãĥ³
viz doom
Ġcaracter ÃŃsticas
ì¢ ħ
ãĥĢãĤ¦ ãĥ³
ĠíĬľ íĨłë¦¬ìĸ¼
Ġmobilenet v
ãĤº ãĥł
' ]]
) ãĢģ
A m
B ad
C N
D ie
E LECTRA
F rench
F ocalNet
H as
I gn
M ar
N ice
N AT
P LU
Y I
b ul
c ents
d ia
e il
g re
i adapter
p mean
r te
s ided
s mem
u j
y ear
z A
Ġ ;
ĠĠ Ċ
el ity
es itate
Ġs af
Ġs ides
ut ures
as i
al chemy
Ġi ci
Ġd am
Ġd ive
Ġd ens
Ġ" ../
re b
Ġp c
Ġp et
le gend
Ġm odulo
Ġin secure
Ġb ed
Ġw ater
ma gnitude
to h
one hot
im i
is cale
est i
Ġh p
Ġh esitate
__ "
ĠA pr
ĠA ff
ĠL I
ĠL OCAL
ĠS AM
ĠS eed
res olver
Ġv isible
ĠP ick
ĠD av
ĠD LC
kw ard
age NotFoundError
ĠM ac
ĠM ASK
ĠM otion
ĠB S
ific ar
ific ial
ore an
Ġ** {
Ġ' -
iv atives
li ers
ds h
Ġen force
Ġint s
Ġk s
ĠN an
ĠN UM
Ġ// =
ãģ® ãģĤãĤĭ
Ġspec ulate
par ms
In creasing
Image Folder
Ġne ither
ĠTF VisionEncoderDecoderModel
Ġtrain s
ĠK e
ĠK on
Ġpast e
Ġrun ner
`: <
imp ro
Ġcor rection
à¤ ¦
Ġfol gen
lip per
man ipulate
we i
ĠðŁ §
Sequence ForGeneration
Text ForConditionalGeneration
Linear Layer
ĠWe i
Ġconvert ir
ä» Ĭ
ĠPre fill
Ġsu c
ĠEx pl
Wh y
post fix
Dataset Builder
ä½¿çĶ¨ çļĦ
Ġreg ist
ãĥĹ ãĥĥãĤ·ãĥ¥
AN Y
UN ET
Down loading
DP M
Ġpres ident
Ġser vice
mm lab
Ġremo ves
RO I
ãĥķ ãĥ¬ãĥ¼ãĥ
ĠCom mand
Ġshift s
Ġshift ing
Ġìķ ½
uf en
Ã¨ tres
visual bert
Ġenv s
Ġsent inel
del tas
è® ¸
ĠEfficient FormerConfig
ĠMODEL S
åĨ ³
ãĥ¼ãĥĪ ãĥªãĤ¢ãĥ«
EIGH T
vq gan
pick led
Us ers
Ġnumer ator
ĠTrans pose
ĠKeras MetricCallback
PTION S
dd d
Ġcap able
ãĥĪãĥ¼ãĤ¯ãĥ³ ãĤĴ
Ġcare fully
Ġexpen sive
Ġattr s
Cuda Device
éĸ¢ éĢ£
ĠBigBird Config
Ġsuffix es
Piano ForConditionalGeneration
ĠRag Config
å¹¶ ä¸Ķ
éĢļå¸¸ ãģ®
ãĤ¹ãĥĨ ãĥ¼ãĤ¸
å¿ľ ãģĺãģ¦
ĠNormalizer Wrapper
ĠSkip ping
Ġbook s
ko hya
Marian MTModel
ĠNV Link
tab fact
Ġaffect ed
ĠìĻ ĦìłĦ
esthet ics
Ġreplay s
Ġíĥ Ĳì§Ģ
echno logy
Ġpartition ed
jectory Transformer
ĠDPO Trainer
MIS SING
Ġste pped
åĮħ åĲ«
ĠLin ux
åİ Ł
uns plash
Ġanaly zing
ãĥģãĥ¥ ãĥ¼ãĥĪãĥªãĤ¢ãĥ«
éĺ ħ
StoppingCriteria List
Ġì¦ ī
å¯¼ åĩº
ĠTestCase Plus
Pack ageNotFoundError
RW KV
Ġmol to
âľ ĵ
ãģ»ãģ¨ãĤĵ ãģ©ãģ®
vol ume
TIM IZER
ĠTa ken
ASSERT M
DenseGated ActDense
FER ENCE
ĠFram ework
ĠìĻĦ ë£Į
æ² ¡
èĬ Ĥ
ighbor hood
ĠNames pace
Better Transformer
æ¥ Ń
ĠìĨĲ ìĭ¤
ĠLingu istics
Ġê¶ Į
PLU S
= \
A PEX
B IRD
C am
C ategorical
E C
I ss
K R
K h
M ra
M ay
N ON
N CCL
R OC
R IGHT
S ync
T an
X u
a gger
a esthetics
c raft
f ol
f ps
g f
g iven
h add
i ences
l c
p ur
s ma
} ))
µ ëĭĪëĭ¤
æ ´»
ĺ ìĸ´
in formation
Ġs ia
Ġs ld
Ġs implify
ut ral
al ing
ar Äĥ
st ell
ch anges
Ġd ise
it Ãł
Ġc ual
Ġf ul
re ceiver
Ġp ow
Ġm ig
ad ores
Ġto ur
to String
qu ÃŃ
ext ent
pro tein
int ra
ist an
ĠA D
ĠA U
ĠA ctor
ĠA ud
Ġlo se
`` :
ĠL XMERT
ĠS low
ĠS NR
ĠI R
"] <
Ġv qa
Ġe q
ĠP ipelines
Ġcon vergence
co la
Ġun supported
ĠW MT
Ġpr od
Ġx ml
Ġë ¨
Ġen semble
Config s
Token Cho
ON GE
ĠE ven
íķ ĳ
Ġlen gu
Ġal ias
Ġj our
RA T
Tokenizer TesterMixin
sc ene
([ {"
sw eet
In fer
ĠTF CTRL
Ġso und
mo untains
ãģ« è¨Ńå®ļ
ãģ« è¿½åĬł
ãģ« å¾ĵ
sh arding
ĠĠĠĠĠĠĠĠĠĠĠĠĠĠĠĠ ĠĠĠĠĠĠ
ĠĠĠĠĠĠĠĠĠĠĠĠĠĠĠĠ ĠĠĠĠĠĠĠĠĠĠĠĠĠ
map ed
à° ¬
Ġpadding s
De epspeed
iss l
ĠCon stant
ĠImage Processing
forward ed
Gener ated
TF Conv
TF BaseModelOutput
With LM
ell ing
AT en
Ġfa iling
Ġaudio folder
ap prentissage
comm ended
object ness
ord ers
ĠClass Var
íĬ¸ ë¶ģ
Ġtrans lations
Ġëª¨ëį¸ ë§ģ
ev ens
ĠInc re
ĠCh unk
Cross EntropyLoss
Ġcond uct
Ġbeha ves
(| |
Buil ding
Ġreplace ments
è¡Į ãĤı
pers immon
master piece
ĠìĿ´ë ıĻ
az ioni
ãĥĸ ãĥŃãĤ°
ĠBe ide
ç» Ł
å¸ ®
ãĥĿ ãĥ¼ãĥį
å½ Ļ
Ġê¸° ì¡´
Ġart icles
\\ ),
ãģ£ ãģ¦ãģĦãģ¾ãģĻ
ãģ£ ãģ¦ãģĦãĤĭ
Ġimpro ving
ĠTFAutoModelFor TokenClassification
æĽ ¿
Ġrele ases
ĠInput s
Ġëĭ¤ìĿĮ ìĿĦ
ìĽ ¨ìĸ´
è¿Ļ æł·
ĠSwin Config
PRE DICTION
Ġë² ĪìĹŃ
Ġë³Ģ ìĪĺ
æıĲ ç¤º
ObjectDetection Output
eb d
sk etch
Ġì¶Ķê°Ģ íķĺëĬĶ
coco a
à°² à°¨
ĠGrad io
bon us
ĠFrom SingleFileMixin
ĠDrop Connect
Resnet UpsampleBlock
esm fold
çĦ ¡
å®Į äºĨ
orator y
åıĸ ãĤĬ
íĶ ¼
Off sets
BLOCK S
Ġtod os
Ġmaintain ing
hyper parameter
LR Scheduler
symb olic
ĠSequenceClassifierOutput WithPast
adv anced
åĽŀ çŃĶ
Acc uracy
ãģ«å¯¾ ãģĻãĤĭ
Ġcach es
Ġë°ĺ ë³µ
ĠCar bon
TX T
ĠBack ward
ãĤµãĥ³ãĥĹ ãĥªãĥ³ãĤ°
Ġsimpl ified
hint s
å®Įåħ¨ ãģ«
ãģ®ãĥª ãĤ¹ãĥĪ
ãĤĴè¦ĭ ãģ¤
Ġprel iminary
Ã´ t
ä»ĺ ãģĳ
ç· ´
ëį° ìĿ´íĦ°
ãģķãģĽ ãĤĭ
ëĲĺìĹĪ ìĬµëĭĪëĭ¤
Reduce Op
{} ));
Ġconven ient
PushToHub Mixin
Fl atten
############ ###
åīĬ éĻ¤
Ġdistribut e
Ġbro ken
Tr OCR
ãĤªãĥķ ãĥŃãĥ¼ãĥī
POC H
ĠPCI e
ĠRight s
prim ary
ASSI STANT
ĠRand Augment
sus nato
å¤§å¹ħ ãģ«
ë°Ģ ëıĦ
#"{ "
èĭ ±
Devices Hook
ãĥķãĥ¬ãĥ¼ãĥ ł
âľĵ ]
TokenCho oser
ONGE ST
sweet cocoa
ãĥĿãĥ¼ãĥį ãĥ³ãĥĪ
( "".
) '
, '
> ),
> ()?
A rab
B OT
B ioGpt
B aselines
C lip
E ven
F n
F unctional
G ML
J peg
M agic
O INT
P ick
P ATCH
Q FormerConfig
R R
S ame
T W
W A
X D
Y olos
_ `
a ma
d ar
e ba
i ro
m att
n der
p db
t k
t urn
u ma
y ong
y oso
~ /.
½ ľ
ç Ŀ
en ced
Ġs Ã©
ut zer
as pp
ar es
an other
an ey
an thology
st ores
st aging
ch r
it ut
Ġc ert
Ġc ores
Ġf wd
Ġ" |
Ġin line
ent elemetry
Ġb ir
Ġb ond
Ġr s
Ġr Ã¡
Ġr anges
Ġa plic
to xicity
ass isted
qu ote
ht sat
Ġl andscape
Ġh ac
ip Llava
all eng
ĠA re
ĠA pi
Ġst ays
ĠL u
ĠL es
ĠS olution
py function
py ctcdecode
Ġv anilla
Ġv reinterpret
co okies
ĠF unktion
ĠD ual
der ing
Ġ} ),
ĠR W
ĠU P
Ġall ons
Ġwe ird
Ġal bumentations
ĠG GML
Ġtokenizer URL
Ġpre c
ãģ® æķ°
ess entia
ST EM
ãĤĴ ãģĶè¦§ãģıãģłãģķãģĦ
ER NIE
ES M
Lay ers
ĠĠĠĠĠĠĠĠĠĠĠĠĠĠĠĠ ĠĠĠĠĠĠĠĠĠĠ
ĠCo unt
Ġup scale
Ġup scaled
ãģ¾ ãģ§
height s
Layer FF
Layer SelfAttention
patch er
Ġê ¹
tr il
ĠPy Object
ĠPy ramid
pad e
ðŁ Ķ
url lib
Ġtarget ed
Ġq zeros
ãģ¦ ãģĬãĤĬ
ìĹĲ ëıĦ
ĠFlax Mistral
Ġobtain ing
min or
St yle
ModelFor ConditionalGeneration
Conv Embedding
Ġro ck
Ġoff ensive
CON FORMER
ĠConv NeXT
dis cretization
Ġwas m
Lo oks
ãĥ¢ãĥĩãĥ« ãģ¨
Ġcorrespon den
AN TI
ê°Ģ ì§Ģ
Flax Electra
Ġver ification
Ġcontin u
Ġad ic
è¨ ¼
Ġsum i
Buil d
ê² ĥ
Ġstream s
gl igen
ov ert
lv ain
Ġexp lo
ãģ¤ ãģ¾ãĤĬ
ĠY u
Th omasSimonini
ĠìĿ´ë ¯¸
ĠGet ting
ãĤĴæ İ
vis ible
OS MOS
Ġme et
çī ĩ
Ġsa crebleu
æī ¾
ĠsetUp Class
ĠAs ync
Ġnamed tuple
br ing
ãģ© ãģĨ
èªŀ å½Ļ
multip ly
Ġsimp licity
ĠìĥĿìĦ± íķł
ãģķãĤĮãģ¦ãģĦ ãĤĭãģĵãģ¨
ãĥ³ãĥĹ ãĥ«
çķ ª
çķ Ļ
æĦı åĳ³
Ġintrodu ces
ĠDes ign
Stream ing
Ġcro pping
æĬ Ģ
Ã©r er
ĠOff line
sk i
AC C
ĠìŀĳìĹħ ìĹĲ
éĽ £
("< |
etition Penalty
ĠComput ational
!("{ }",
Off line
assertNot In
Ġtod o
ĠDeiT Config
ĠPredict ed
è¯· åıĤ
Ġinvestig ators
Custom Config
å¿ľ çŃĶ
entraÃ® nÃ©
ç±» åŀĭ
BrandNew BertModel
Distributed Type
Ġvis n
å½¢ çĬ¶
Bin aryOp
ĠëĤĺ íĥĢ
ĠZh ou
Basic Tokenizer
å°ĳ ãģªãģı
Ġphr ases
ĠCheckpoint s
Ġentrad as
ãģ®ãĤ³ãĥ¼ãĥī ãģ¯
Ġë¦¬ íı¬ì§ĢíĨłë¦¬
ä»ĺ ãģį
Ġir relevant
ĠEval Prediction
ued es
ä¸Ģéĥ¨ ãģ®
é«ĺéĢŁ åĮĸ
Ġbal ance
Ġcir cum
HU GGINGFACE
ë¨ ¸
Ġcarg ar
TRANSCRI PTIONS
æĹ¢åŃĺ ãģ®
Phone me
ĠComm unity
Ġìº ¡
Ġaggiung ere
Ġble u
CONT ENT
ãĤ¦ãĤ§ ãĤ¢
æŀ¶ æŀĦ
ãģĹãģĭ ãģĹ
éģ©åĪĩ ãģª
Ġbou cle
inem atic
GAT RON
Separ ables
Ġench Ã¢sse
Ġbeso in
lipper y
Ġê¶Į ìŀ¥
å¸® åĬ©
Ġvreinterpret q
. "],
< (),
= }")
> "],
A str
B B
B n
C ore
C andle
L ine
L ONGEST
M eta
O b
S a
S he
S MALL
T Processor
` /`
b old
c ube
c ertification
d inat
g YI
l ater
n coder
n ccl
p al
s I
s udachi
s antacoder
t x
v T
v ivit
z ure
| :---:|:---:|
â Ī
Ċ ĊĠĠĠĠĠĠĠĠĠ
Ġ ult
Ġ ãĤ¬ãĤ¤ãĥī
ĳ ĺ
Ń ìĭľ
on aut
es Net
Ġs un
Ġs ans
Ġs pot
Ġs leep
Ġs acremoses
st en
it oring
Ġf are
ic ious
re inforcement
Ġm eg
Ġm edia
Ġin completely
Ġw d
ur ating
Ġde activated
un fold
im m
em otion
Ġ- ----
ot s
th r
Ġg er
class if
class List
con sum
Ġex change
fa ces
ĠF ill
ĠD er
Ġun pad
)) ):
art e
ind ividual
pre par
ĠV ector
Ġx y
Ġx min
for ge
Token izers
ĠE dit
ĠH and
ĠH ence
Ġclass ic
Ġ& (
DE ncoder
In verse
ãĢĤ `
ĠTF Speech
ĠTF QuestionAnsweringModelOutput
ĠTF TokenClassifierOutput
Ġsc ience
ãģ« ä¾ĿåŃĺ
ãģ« å¿ľãģĺãģ¦
ãģĹ ãģ¾ãģĹãĤĩãģĨ
vi val
ĠCon s
check sums
ãģ§ ãĥĪãĥ¬ãĥ¼ãĥĭãĥ³ãĤ°
ãģ§ ãģıãģłãģķãģĦ
split lines
ĠDe coding
ax ed
fn s
default dict
trans cribe
urr y
ĠFlax CLIP
Ġform er
Type Wrapper
factor s
ĠModel ing
ĠCON V
ãĥ¼ãĥ ĭãĥ³ãĤ°
Ġcl as
ãĤ¤ ãĥĪ
acc ording
ãĥ¢ ãĥ¼ãĥī
ãĥĥ ãĤ°
Ġcontext s
({ })
Co unter
ref ine
Ġìł Ī
ĠAutoModelFor MaskedLM
tra verse
Input Example
Ġprefix es
Extra ct
ev h
RE QU
cre ations
Ġorder ing
Speech Recognition
ĠLoRA s
Seg Former
enc er
Al so
Ġfp n
ForImage And
aw a
å° İ
ov o
lv werra
Ġdiv ing
ĠY olo
ë² Ī
stack overflow
ãģĵãĤĮ ãģ§
ĠCross AttnUpBlock
edit ing
ĠPR s
ĠLora Layer
Ġmult inomial
æŃ ¢
ä½ľ æ¥Ń
ĠUp dates
hu yong
atom s
bloom z
Do es
ãĤ»ãĥĥãĥĪ ãĤ¢ãĥĥãĥĹ
Ġplan e
ĠDataCollator ForTokenClassification
Ã©r ence
Vi THybrid
Ġrepla ces
Ġë¬¸ ìŀ¥
ĠMix Net
Ġph ase
Initial izing
ĠEncoder Decoder
Ġpublic ly
ĠAdamW eightDecay
èªį èŃĺ
ĠíĽĪëł¨ ìĿĦ
anc estral
Ġìµľ ìĭł
åįĺ ç´Ķ
å¯¹ è±¡
ĠíĬ¹ ì§ķ
å¾® è°ĥ
ConvNext V
ç¨ ¿
Ġìĺ¤ ë¥ĺ
æĭ ¬
ĠìĹ¬ ê¸°
ĠMod ified
ãĤĴå®Łè¡Į ãģĹãģ¾ãģĻ
Ġì¶ľëł¥ ìĿĦ
dw conv
Ġì£¼ ìĸ´
ãĤĴä½¿çĶ¨ãģĻãĤĭ ãģ¨
ĠëĿ¼ìĿ´ë¸ĮëŁ¬ë¦¬ ë¥¼
ì½Ķ ëĶ©
ĠIh ren
ĠDep loy
Ġattempt s
ãģłãģĳ ãģ§ãģĻ
Ġrender ing
ĠDiffer ence
ĠëĶ°ëĿ¼ ìĦľ
ĠRepo Type
Ġì¢ĭ ìĿĢ
ĠëĤ ´ë¶Ģ
anch or
orn ia
ä¹ĭ åīį
ĠðŁĵ ļ
ĠEle utherAI
Ġcir cular
Ġíİ ¸
Ġmodal ities
Ġëª© ë¡Ŀ
ç¬¦ åı·
Ġë©ĶìĨĮ ëĵľë¥¼
æľĢå¾Į ãģ«
Ġë¸ Ķ
è®© æĪĳä»¬
Ġcaric are
Ġnv ml
ĠíĺĦ ìŀ¬
VALI D
ä¸ĸ çķĮ
Ġterrit ories
ĠíĶĦëłĪìŀĦ ìĽĮíģ¬
ĠëĶĶëłī íĦ°ë¦¬
Ġrat ios
ĠActiv ates
SFT Trainer
ĠnÃº mer
fQ gYI
ogene ous
WA YS
overt ure
Astr onaut
ForImageAnd TextRetrieval
fQgYI uo
$ .
. (\
A i
B Y
B IT
C enterCrop
C ALLBACK
E th
E VAL
E POCH
F B
F R
G O
M pt
P o
Q EBA
R eward
S ch
S plinter
S omething
S nowballTarget
T w
V Gen
_ "):
a us
a atype
g h
g li
m atte
n atten
n lvr
p net
p icture
q id
r ub
s pearmanr
u v
x id
x ml
ì Ķ
í ı
Ġ utf
Ġ åľ¨
Ġ edges
en en
on k
Ġs pe
Ġs igned
Ġs lot
al am
st ory
st sb
st evh
Ġd al
Ġc b
Ġc ent
Ġc ri
Ġc map
Ġ" .",
re fer
Ġm or
Ġm arginal
Ġb is
Ġb udget
Ġa o
Ġa vez
Ġa Ã±
() )?,
Ġdef in
ort ing
Ġg zip
ĠC ell
ĠS U
ĠS ig
str s
res mlp
ĠP as
ĠP ip
ĠP apers
Ġex pon
Ġcon structed
Ġcon tact
Ġma g
ĠF inishReason
ĠD as
ĠD irectory
assert Sequence
bo to
Ġ} ))
ĠW orks
ĠR aw
ff i
Ġan s
Ġë ħ
io pic
file obj
__( &
Ġdo gs
ãģ® ä½¿çĶ¨
sample factory
ST A
cept ual
ient ific
Ġind ivid
}. ",
ĠTF DistilBertModel
fo otprint
EN ABLED
Ġlog prob
Pre cision
Test ing
Test Test
Ġapp ended
)? ),
ING S
Layer Drop
Processor WithLM
De f
De BERTa
En abled
Ġrun wayml
ĊĠĠĠĠĠĠĠĠĠĠĠĠĠĠĠĠĠĠĠĠĠĠĠĠ ĠĠ
Ġnorm s
Bert Output
iter dir
iter ables
Ġq b
ìĿ´ íĬ¸
ug ht
unt il
ãģĮ ãģĤãĤĬ
ãģĦ ãĤĭ
Ġsub sections
Ġpy pi
flow Overflow
ãĤ¯ ãĥĨãĤ£
An s
çļĦ ãģ«ãģ¯
Ġpatch ified
__() `
move axis
Ġsu a
}" #
")) [
xiv it
bit m
ãĥĥ ãĥĹãĥŃ
div ersity
Ġfa ir
Ġpart ially
Ġcontext ual
Py ValueError
å¤ ©
ĠSe ven
ron s
äº ¤
ĠStableDiffusion InstructPix
Ġet iqu
Flax Albert
Ġlong itud
ĠQ A
Ġlinear ly
ìĸ ¸
Ġà¤ ħ
AutoModelFor Seq
enc ias
(| &
ĠLe ViT
Ġextract ing
`). "
Ã¡ n
Ġorig inally
ĠDefault DataCollator
ãĤ¢ ãĥĥãĥĹãĥŃ
Ġeta g
emo ved
ĠCross AttnDownBlock
sl aney
éģ ķ
Ġcell ule
oug ht
Ġhash ing
Ġop posed
\\ (
}' ")
ãĥĹãĥŃ ãĤ°ãĥ©
Inter face
Ã¤ nd
è¿Ļ ç§į
Ġport rait
Ġmultip les
deprec ations
Ġdec imal
åĢ į
fr ench
ĠWhisper ForConditionalGeneration
Ġìłķ ë°ĢëıĦ
Ġsqu ared
Ġserial izer
Ġëį°ìĿ´íĦ° ë¥¼
Ġadjust ed
QA PipelineTests
Ġãģ« ãģĤãĤĬãģ¾ãģĻ
Min LengthLogitsProcessor
ĠAdapt ive
go ing
Time Series
trace malloc
SW ITCH
æĬ ķ
gml Type
è£ ½
ĠScheduler Object
ä¿Ŀ æĮģ
Index Map
bh l
ãĥĬ ãĥ«
ĠIndex Op
Script s
Ġess ential
ì²ĺ ëŁ¼
ĠTemp oraryDirectory
aws docs
ĠMo E
å¾Ĺ ãĤīãĤĮ
íĮ ¨
Free U
ĠFunnel Config
Ġclos est
Ġsk ips
Ġdies em
ĠìĹĨ ëĬĶ
ĠAfter wards
sat urating
<_>> (),
Predict ed
ĠMusicgen ForConditionalGeneration
Sam Model
fla ky
ãĥı ãĥ¼ãĥī
ãĥĲãĥĥãĥģ ãĤµãĤ¤ãĤº
Kandinsky V
TFAutoModelFor SequenceClassification
ãģłãģĳ ãģ§
PRO GR
ë§Ī ëĭ¤
ðĿ Ķ
íĮĮ ëĿ¼ë¯¸íĦ°
ĠìĹ° ìĤ°
ĠìŀĲìĦ¸ íŀĪ
ĠCL ASS
Ġsugg est
dr ug
Att ribute
æĸĩåŃĹ åĪĹ
åĮħ æĭ¬
ĠOFT Config
Sharded DataParallel
ĠDoc ument
ĠTH READ
hist ogram
<'_ >)
Under flowOverflow
ç§ģãģŁãģ¡ ãģ¯
ĠImageClassifierOutput WithNoAttention
âĶģâĶģâĶģâĶģâĶģâĶģâĶģâĶģâĶģâĶģâĶģâĶģâĶģâĶģâĶģâĶģâĶģâĶģâĶģâĶģâĶģâĶģâĶģâĶģâĶģâĶģâĶģâĶģâĶģâĶģâĶģâĶģ âĶģâĶģâĶģâĶģ
Ġavo ids
aur ant
ãģ«åŁºãģ¥ ãģĦãģ¦
LAS H
ĠLAY OUTLMV
MESS AGE
csp net
INPAINT ING
SY STEM
çĮ ®
ĠPot entially
aggreg ator
REM OTE
Ġpriorit ize
ĠBranch Separables
ĠAdaption Prompt
Ġsou ha
Ġsaf ely
dsh ieh
æ²¡ æľī
Ġlengu aje
Jpeg Image
alleng ing
etitionPenalty LogitsProcessor
stevh liu
assertSequence Equal
ãĤ¢ãĥĥãĥĹãĥŃ ãĥ¼ãĥī
PROGR ESS
$ :
' \
' )]
) ((
: >
> %%
B l
G ot
M IX
O s
P LA
R ay
S olution
S LIC
S pectrogram
V al
W EIGHT
X mod
] /
b add
c el
c pe
e h
f olding
h len
k ar
p kg
r etries
s capes
v map
v env
x E
y ue
z ed
} ):
Å £
è Ļ
ì į
Ċ ĊĠĠĠĠĠĠĠĠĠĠĠĠĠ
Ġ âĸģ
Ġ ãĥ¢ãĥĩãĥ«ãģ®
Ġ emoji
Ĥ £
ut hs
ar ized
Ġi x
st ances
Ġc argo
Ġf antasy
Ġm iss
Ġm anner
Ġin planes
se veral
ad ene
Ġto y
Ġto wer
Ġr etry
Ġa esthetic
att ach
un DiscreteScheduler
un fused
Ġl ing
arg nums
ol lin
rom an
Ġh s
Ġh olding
__ ],
ĠA bs
Ġst uff
torch sde
Ġbe at
key word
"] '
"] );
ĠP ART
Ġpro posal
Ġse mp
ĠF inetuning
ĠD Ã©
os car
add c
ĠB en
ĠB nb
ĠB OS
per iments
Ġco vers
dir path
get ting
Ġqu esta
Ġche ese
ob rain
Ġ< >
ãģ® éĩįãģ¿
Ġ: ]:
index ing
par agraph
ST RATE
ĠUn set
no ised
à° ľ
ãģ¾ ãģł
PT ER
tr uths
und red
ĠDe epspeed
Ã© ri
Ġfil elock
ĊĠĠĠĠĠĠĠĠĠĠĠĠĠĠĠĠĠĠĠĠĠĠĠĠ Ġ
ng huyong
PR OT
imp ly
Ġbu gs
TH RES
do i
IS PEECH
Ġover riding
ffic ial
vit matte
Ġsub tle
ĠGPU ê°Ģ
by t
by ollin
çĶ¨ ãģ«
Ġversion e
Ġdes pite
---------------- ----
---------------- ------
ĠEx plicit
Ġwant ed
ĠFor ce
ĠJ FT
à± Ĭ
QuestionAnswering Loss
ĠEn codedInput
ms el
ref lect
ĠAutoModelFor CTC
GPT SanJapanese
ĠìŀĪ ìĿĦ
={" ":
char acters
Ġcre ar
TokenClassification Loss
AutoModelFor ImageClassification
see k
à¥ ¤
Ġpost erior
Ġëĭ¤ ì¤ĳ
Ġdiv ers
ĠY es
mix tral
Ġident ified
Ġident ifiable
Ġinv olves
Ġdesc ending
ãĤ³ ãĤ¢
Ġta ille
å®Ł é¨ĵ
No Frames
ãĤĴç ĲĨ
ìĭľ ëĭ¤
Ġmult iling
å½ ķ
ĠReg ister
çĶ»åĥı åĪĨé¡ŀ
Llama Tokenizer
åį Ĺ
ĠAs ymmetric
Ġsom ew
ĠPE GASUS
BatchNorm Act
åı¯ä»¥ ä½¿çĶ¨
Ġê²½ìļ° ìĹĲëĬĶ
ãģªãģĦ ãģĵãģ¨
regnet z
ĠìĥĿìĦ± íķĺëĬĶ
oken izer
ĠIN T
ĠComp are
åĨħ éĥ¨
ĠAss ume
slo t
|> "`):
ĠDecoder Wrapper
ĠMix up
SD Pipeline
AdamW eightDecay
ì¶ ķ
éŁ ¿
ĠValid ate
ĠíĨłíģ° ìĿĦ
web dataset
ĠëĲ ł
ĠNeed ed
ĠIdefics ForVisionText
Ġdevelop ed
iven ess
Ġocc urs
æĮĩ åįĹ
tre in
rd zv
è©³ ãģĹãģı
iert en
ĠMod ify
Ġë§Į ëĵ
ĠArrow Writer
Ġê²° íķ©
ĠBloom Config
æıĲä¾Ľ ãģķãĤĮãģ¾ãģĹãģŁ
gr n
Ġperson ally
NF C
åĪ¶ éĻĲ
Import ant
Distil BERT
prefetch er
Ġpat ients
lst m
SEW D
çµĲæŀľ ãĤĴ
Ġë¡ľëĵľ íķł
Ġsil ence
ĠíķĺëĤĺ ìĿĺ
Ġíĳľ íĺĦ
aka obrain
Ġamb iente
ãģ®ãĤµ ãĤ¤ãĤº
Ġutilizz are
ãĥĻãĥ¼ãĤ¹ ãģ®
Ġì»´ íĮĮìĿ¼
ĠAb stract
ãģĹãģŁãģĦ åł´åĲĪãģ¯
lik elihood
ãĤ¹ãĤ± ãĤ¸ãĥ¥
ê¸ ī
ĠentraÃ® ner
diag onal
Ġìĺģ íĸ¥
ä¸įåĲĮ çļĦ
ĠìĿ¸ìĬ¤íĦ´ìĬ¤ íĻĶ
Ġheav ily
dess us
Ġê³¼ ìłķ
Sde VeScheduler
Ġquel ques
ĠPos itional
Ġdecomp ose
ĠJan uary
ĠFlavaImage Codebook
TENSOR FLOW
éģĶ æĪĲ
Ġì§Ī ë¬¸
NAS Net
estra mento
Ġconvention al
ugal score
adal ora
Capt ion
ĠMatrix View
Ġìĺ¬ ë°Ķ
ibliothe k
Ġcircum stances
STA TIC
âĶģâĶģâĶģâĶģâĶģâĶģâĶģâĶģâĶģâĶģâĶģâĶģâĶģâĶģâĶģâĶģâĶģâĶģâĶģâĶģâĶģâĶģâĶģâĶģâĶģâĶģâĶģâĶģâĶģâĶģâĶģâĶģâĶģâĶģâĶģâĶģ âĶģâĶģ
STRATE GY
NoFrames kip
ãĤĴçĲĨ è§£
- "
? "]
B est
D uring
F ull
F inet
F USED
G RA
H ungarian
K N
L ow
M CTCT
S erial
S QU
S aved
T ibetan
W indow
Z a
Z HA
^ ^
d ivergence
f ocus
g het
k HeadDim
l z
m ma
m ission
p ico
q c
r ul
s ensitive
u ched
u ÃŃ
u cf
w idget
x paths
y j
} `.
´ ãĥª
é ¦
Ġ eight
Ġ ãģ§ãģ¯
Ġ ãĥĩãĥ¼ãĤ¿
Ġ åıĤæķ°
ĵ ç·´
en ro
or row
Ġs y
Ġs ched
Ġs ays
al og
Ġi ma
ch ied
Ġd b
Ġd ar
Ġf ront
id en
Ġp okemon
ig t
lo x
se curity
iz ont
Ġw o
Ġw arm
Ġr ad
pt s
Ġl la
ĠT APAS
den oised
Ġ* "
Ġ* _
Ġg rey
ĠA P
ĠA LL
Ġst one
Ġst ato
ĠC ircle
ĠC ANINE
Ġre build
ĠL y
ĠL ONG
ĠL egacy
ĠS po
ĠS parse
ĠS aving
ĠS alesforce
ĠS park
ĠS tack
Ġconfig URL
con current
Model l
ener e
ĠP O
ĠP attern
Ġex clusive
ĠF OR
ĠD ies
Ġun install
Ġun necessary
ure z
ard o
ĠW riting
ĠM IN
ĠM PS
ĠM UST
ĠB uf
pre ad
ff ff
IN V
pa ca
load u
Ġco okies
av x
ĠE ffect
ĠE voNorm
Ġk mask
Ġcan onical
ĠN LL
ĠH yper
Ġtf ds
ëĭ µ
Ġj avascript
AR C
Ġtim ing
ãĢģ ãĢĮ
Ġch r
Ġcomp r
Ġout line
string ify
EN ET
down scaling
ãģ« ãģĤãĤĭ
OC K
Ġconv ersations
PT H
ĠK B
Layer Collection
Ġu vit
(& [[
ĠWh y
=' '),
oth ing
ìĿ´ íį¼
Un ivNet
cript ive
Text Classification
ne y
sub command
Attention Block
Ġro ll
ĠOR DER
Ġcode vectors
Ġdis count
te a
Ġformat o
gen re
Seq SequenceClassifierOutput
Ġspecial ized
help ers
ap pro
Ġ[[ '
Ġafter ward
Ġarch ives
tra it
Ġwork around
cr pe
Ġden oting
Ex port
ME GATRON
Dep ending
hor se
Ġad j
Ġad vised
Ġes per
Ġà¤ ¬
fast speech
è¨ ĵç·´
ĠGener ative
ãĥ¬ ãĥĻãĥ«
Ġsp Ã©c
wn li
let on
pg hostnet
ac iones
ĠCom ment
Ġloc ations
ĠLoad s
ĠTrainer Control
ï¼ī ãĢģ
mult is
uplic ate
å¸ Į
Ġlaunch ing
ĠBlip VisionConfig
ëĲĺ ë©°
ãĥŀ ãĥĥãĥĹ
ĠQu oc
Adapter Pipeline
Ġsto ps
dec imal
+) \
Read Instruction
Ġbig gest
bl as
.) ](
NE GATIVE
("/ ")[
ĠHf DeepSpeedConfig
ĠDistributed DataParallel
aff ili
Ġimplement ing
ĠDis play
DistilBert Config
Ãª nc
Ġ<< <
ëł¤ ë©´
Ġíĺ ¼
Ġjit ter
ãģĻãģ¹ ãģį
ĠStableDiffusionXL ControlNetPipeline
hn en
detect or
ç® ¡
pear son
Spec Augment
Ġentry point
Ġë³´ ê²łìĬµëĭĪëĭ¤
VecVision ForImageClassification
XLMRoberta XL
Ġì¶Ķë¡ł ìĹĲ
ĠAlign DevicesHook
Positional ConvEmbedding
Cont iguous
Ġaus fÃ¼hren
ĠíħįìĬ¤íĬ¸ ë¥¼
ãĥĶ ãĥ¼
Task Type
DataCollator WithPadding
Ġbas ename
ĠReformer Model
ĠTapas Config
Ġfin ding
ëĮĢ ë¡ľ
éķ· ãģĦ
éķ· ãģķ
XGLM ForCausalLM
Top KLogitsWarper
ìĹĪ ìĬµëĭĪëĭ¤
Ġcollect ed
ĠDeta ils
separ ated
Ġfun zione
EM PT
ì» ¤
ĠXLMRoberta XL
æīĭ éłĨ
Kernel Error
Position Embedding
åĪĽå»º ä¸Ģä¸ª
Ġconj unction
(", ")
~~~~~~~~~~~~~~~~~~~~~~~~~~~~~~~~ ~~~~~~~~~~~~~~~~~~~~~~~~~~~~~~~~
ĠEle ment
Ġdifer entes
Ġant ialias
æ° Ĺ
growthgrowth growthgrowth
yolo v
ĠDel ete
made byollin
phonem izer
ãĥĩãĥĲ ãĤ¤ãĤ¹
ĠëĦ ¤
ãģĤãģªãģŁ ãģ®
ãĤĴéĸĭ å§ĭ
Ġpup py
ĠExperiment al
ĠAltern atively
DataCollatorFor LanguageModeling
="" ):
equ iv
mpir ank
ãĤ¼ãĥŃ ãĤ·ãĥ§ãĥĥãĥĪ
ĠStableDiffusionXLIn paintPipeline
MaxxVit Cfg
persist ence
æıĲæ¡Ī ãģķãĤĮãģ¾ãģĹãģŁ
Ġregard less
fid elity
ĠVER SION
è«ĸæĸĩãģ® è¦ģç´Ħ
çĽ¸åĲĮ çļĦ
è½¬ æį¢
ĠCmp Op
ãĥķãĥ¬ãĥ¼ãĥł ãĥ¯ãĥ¼ãĤ¯
prepar ation
Ai Agent
SLIC E
ãĤ¹ãĤ±ãĤ¸ãĥ¥ ãĥ¼ãĥ©
âĶģâĶģâĶģâĶģâĶģâĶģâĶģâĶģâĶģâĶģâĶģâĶģâĶģâĶģâĶģâĶģâĶģâĶģâĶģâĶģâĶģâĶģâĶģâĶģâĶģâĶģâĶģâĶģâĶģâĶģâĶģâĶģâĶģâĶģâĶģâĶģâĶģâĶģ ě[
ghet ti
izont ally
ìĿ´íį¼ íĮĮëĿ¼ë¯¸íĦ°
: ',
= `
G re
G LIGEN
G reedySearch
K Smem
L eaderboard
M oses
M BartForConditionalGeneration
N y
P an
R Net
S ie
S AME
S LURM
W arn
X PU
\ )|
_ [
b an
c ial
f ront
g ist
g rained
g ly
h in
h ann
m atthews
n h
n yu
p ile
s alesforce
t c
t an
u ro
v and
y ond
y dshieh
Ñ Į
ç ¤
ê µĲ
Ġ ents
Ġ urs
er ize
Ġt uned
Ġt each
Ġs Ã£o
al ib
an cy
Ġd h
Ġc entral
Ġc ertification
id ade
Ġ" ")]
Ġp unto
le w
le gal
Ġm ist
Ġm oses
Ġm irror
Ġin ds
ent ailment
Ġn ms
Ġn egat
Ġb ank
ce b
Ġa ber
Ġde b
un requested
ul ations
one ccl
() [:
Ġl ign
Ġh id
Ġ* ((
config ure
ab el
Ġg ro
") ?.
ke it
all gather
ĠA PEX
ir i
ĠC H
Ġre ject
Ġre cor
Ġre versing
ĠL ight
ĠL ink
ĠS PE
ĠS peed
ĠS kript
ĠS elecS
Ġor th
ub les
Ġv env
Ġse hr
ĠD a
ĠD INO
[" [
Ġun iversal
os ine
ĠW H
ĠW ho
ĠR om
ĠR ome
ĠM el
Ġwh atever
For ce
For Pretraining
ĠV is
Ġtest er
Ġ' --
Ġit m
ĠE mbed
ĠE CA
Ġk on
ĠG audi
ang rul
`] ).
ãģ® ä¸¡æĸ¹
sc an
([ ^\
cept ive
Ġpos it
In v
In troduction
ĠTF QuestionAnsweringLoss
ĠTF TokenClassificationLoss
org i
Ġout er
== =
)? ))
new line
Ġla zy
Ġla kes
Ġwor th
Ġí ĴĪ
ĠImage Folder
Ġ(" [
read able
Ã© m
uct ure
Bert Attention
={ [
={ {
ìĿ´ ëĤĺ
Un used
ãģ¦ ãģıãģłãģķãģĦ
TF Rem
TF Flaubert
Ġform ulation
Ġtr icks
Qu ick
Sequence FeatureExtractor
Ġsupport ing
min max
afet ensors
(' ./
åĲ ¦
bin ding
Ġcl ase
Ġback bones
ä½¿çĶ¨ ãģķãĤĮãģ¾ãģĻ
Ġperform ances
ref in
Ġarch ivos
UN I
Feature Projection
Par quet
Ġresnet v
ĠÃ ¤
Ġimg s
ĠAl len
Ġà¤ µ
piece Tokenizer
mix up
Ġdist ill
big G
Ġinv olved
Ġhigh light
ãĤĴæ ¤ľ
Ġab c
Ġab ide
ĠPR OCESS
eng ali
Be cause
ĠBlip Text
Ġabs olut
å¼ ł
ê° Ĵ
Ġexecut able
Ġreason able
æĤ¨ éľĢè¦ģ
Ġrest aurant
æī ©
clean up
ĠSE AMLESS
ãĥĨãĤŃãĤ¹ãĥĪ çĶŁæĪĲ
VER BO
ĠLlama Tokenizer
ĠLlama TokenizerFast
ĠBaseModelOutput WithNoAttention
çī¹ ãģ«
SH OT
ä¸º äºĨ
ãģ¹ ãģį
QU ANTI
å¹ ³
æł ¹
ĠSelect ive
BE FORE
ĠíĬ ¸
syn th
Ġmodify ing
ê·¸ ëŀ
Iter ative
ĠMegatron LM
hal ten
Ġge mm
æĺİ ç¤º
è¯į åħ¸
ĠQuant ized
ĠMBart ForConditionalGeneration
íķĺëł¤ ëĬĶ
Ġê·¸ ë¦¬ê³ł
XLMRoberta Tokenizer
æŃ£ ç¢º
IDE FICS
Blenderbot ForConditionalGeneration
SA GEMAKER
Ġexper iences
ĠGroupViT VisionConfig
ĠParallel Mode
æĻĤ çĤ¹
ĠFa irseq
ĠìĽĲ íķĺëĬĶ
Ð° Ð
pars ed
adv ance
Ġ"' ",
sequent ly
Ġì°¸ ê³ł
Top PLogitsWarper
Ġpersonal izz
Rag Retriever
ĠDate i
Delimiter Split
ĠMer ges
DIS TILBERT
ãĥŀãĤ¹ãĤ¯ ãģķãĤĮãģŁ
ĠER NIE
è¶ ³
ãĥĩãĥķãĤ©ãĥ«ãĥĪ ãģ®
ëĦ Ĳ
ĠDetect ed
ĠRec urs
Imp ro
æłĩ è®°
ĠAdv anced
Ġë³µ ìĤ¬
Ġëªħëł¹ ìĸ´
ãĥį ãĥĥãĥĪ
ĠkBlock N
éĢģ ä¿¡
OUR CE
Textual InversionLoaderMixin
CAS ES
ãĥĩãĥĲ ãĥĥãĤ°
Ġheav y
Quantization Config
beat step
itask Prompt
Ġì¤ĳìļĶ íķľ
WH ISPER
ĠDPRQuestionEncoder Tokenizer
ì§ĳ ëĭĪëĭ¤
LAYER NORM
fle xivit
Sig moid
Ġsem i
Ġexam ination
prÃ¼ ng
æ£ĢæŁ¥ çĤ¹
Ġtrein amento
ĠíĹĪë¸Į ìĹĲ
ĠMO BILE
Ġcoat net
compos ite
adig m
ĠPA TH
Arthur Z
LANGU AGE
ëħ Ĳ
HET NET
çĿ Ģ
ĠEncoderDecoder Model
Ġurs prÃ¼ng
( $
> {},
C lear
G F
G reat
L V
L LaMA
L unarLander
M PT
N PU
P lace
Q DQ
S low
S UMM
W iki
[ *
` ï¼ļ
a ic
a pe
d emos
d ummies
g m
h ifi
j ava
m ecab
o pacity
p seudo
v otes
w x
z i
} `:
µ Ń
ç Ł
é Ĥ£
Ġ ].
Į į
at l
at ures
el asticsearch
Ġt esto
od ds
Ġi pex
ch et
Ġ" %
re map
ig th
ig ration
ent ro
ex cite
ex emple
Ġb anned
Ġa ir
Ġde cent
Ġde composition
un defined
ãģ ŀ
", ),
qu ier
() )))
ĠT w
ĠT APEX
Ġ- --------------------------------
il mente
Ġfor ces
den om
ol es
ol den
Ġh omepage
de cision
Ġg le
Ġg ra
Ġg ave
Ġ) ]
__ `].
all ery
ĠA ctions
ran e
ĠC E
Ġre cognized
ĠL ow
ĠS H
ĠS ort
ĠS aves
ĠO N
ĠO CR
oc a
py tree
ss ier
ath ers
Ġv a
Ġv add
Ġse ason
ĠD ark
Ġun filtered
ial o
ĠM sg
ĠB r
Ġres nest
ant ialias
ĠV o
Ġë ı
ay a
íķ ¨
íķ ´ë³´
Ġsh allow
tim ings
Ġmax imal
ern ite
ãģ® ãģ¯
DE xtension
In correct
ĠTF MaskedLMOutput
Ġparam Ã¨tres
spec ulate
ram LogitsProcessor
Se cond
List Array
ĠK ar
ĠK ernels
patch ts
hub er
Ġper ceiver
[- (
Bert Encoder
={ ()
Ġcor r
trans lated
Vec DotType
Conv NeXt
Ġtop ic
ãĥ¼ãĥ Ĩ
Res et
Ġdes de
ĠX PU
ĠX NLI
ĠX FormersAttnProcessor
te ins
late au
sd ay
Ġcontrol led
acc ent
cor eml
ĠRe inforce
ãĥĥ ãĤ»
Ġpart e
ĠAn other
Ġcontext manager
Ġax ial
ĠCLIP Processor
Py TypeError
Ġword piece
Ġbuild ers
match ing
summ aries
Par se
ĠìĤ¬ìļ© íķĺëł¤ë©´
Temp eratureLogitsWarper
prev ent
ãģĵãģ¨ ãģĮãģ§ãģįãģ¾ãģĻ
cho oser
ãģ§ãģį ãĤĭãģĵãģ¨
ĠPro gress
ëĵľ ìĽ¨ìĸ´
à¥ ī
Batch Feature
stream er
ĠCom b
ĠCom mit
ey e
des igning
Ġsort ie
{{ /
Ġest a
ãĥ¡ ãĤ¤ãĥ³
GPU S
åĪĨ ç±»
ãĤ¤ãĥ³ ãĥģãĥ¥
ĠRo le
ade pt
Ġê²ĥ ìľ¼ë¡ľ
Ġcho osing
ãĤĴç Ľ
ND M
ì² Ń
ĠBase ImageProcessor
Imple ment
ĠVision TextDualEncoderModel
è¾ ĥ
ãĤ¨ ãĥ³ãĥī
Ġgen re
æĸ¹æ³ķ ãĤĴ
Ġfill ing
ĠApp end
NG ramLogitsProcessor
Ġrot ated
ĠMulti Adapter
ĠComp ared
Ġconf irm
ĠRead er
Ġconcaten ation
ä¸į æĺ¯
Ġproduct s
Ġwar pers
ĠDP MSolver
Ġë¬¸ ìŀĲ
ĠDo cker
ãĥķãĤ¡ ãĤ¤ãĥ³ãĥģãĥ¥
POSI TIVE
ceed ing
Ġë¶Ħ ìĤ°
è¨Ģèªŀ ãĥ¢ãĥĩãĥ«
ĠAtt ributes
ç® Ģ
bon d
proto buf
Ġrec ipes
OPT Model
ĠVi LT
Simple CrossAttn
TextTo Video
Ġaud iting
Requ ires
ante es
XLNet Tokenizer
ãģ®ãĤ³ ãĥ³
Ġê°ľ ë°ľ
Ġê°ľ ëħĲ
_* ",
Ġweb dataset
ĠWordPiece Trainer
ele ase
Ġcp pe
éħįç½® æĸĩä»¶
Ġë§¤ íķĳ
ĠLuke ForEntity
æĭ ©
Ġbound ary
ĠMod ules
incre ment
Unigram Trainer
updated At
Dec ision
Ġaver e
Ġaver aging
Aut hor
Ġslo pes
Ġmeaning ful
Train State
epis ode
Ġthresh olds
Ġdiscuss ed
Ġspa cing
ë£ ¨
anal y
Ġdig ital
crit ics
åĳ¼ ãģ°
åģ ļ
ĠíĨłíģ¬ëĤĺìĿ´ìłĢ ë¥¼
kh z
Super ResolutionPipeline
Ġsynchron ize
ĠSy lvain
Ġsm art
Ġtrade off
ĠkBlock M
Ġhist ories
Ġschedul es
ĠUniDiffuser Pipeline
Ġanch or
çº §
Ġì¤Ģë¹Ħ ê°Ģ
ë¨ ¼ìłĢ
pw conv
Ġconven ience
TRANSCRI PT
åĵ ģ
//////////////////////////////////////////////////////////////// ////////////////////////////////
Ġspeak ing
å·² ç»ı
ãĤ¯ãĥŃ ãĤ¹
å½± éŁ¿
utter ance
éĢī æĭ©
ĠVisionTextDual Encoder
Ġhierarch ical
ĠConf erence
ĠOb tenir
Repeat NGramLogitsProcessor
Ġken obi
Ġcorresponden ce
QEBA QEBA
è«ĸæĸĩãģ®è¦ģç´Ħ ãģ¯æ¬¡ãģ®ãģ¨ãģĬãĤĬãģ§ãģĻ
ê·¸ëŀ ¨
DExtension Type
' );
( ());
= ]
B eta
B aseModelOutputWithPast
D C
D ir
E ye
F utureWarning
G ood
J S
L i
L in
L en
L ATE
L egacy
M ost
O VER
P oint
Q FormerModel
T Tokenizer
T ake
T echnologies
V anilla
Y E
\ `
b ib
e od
f uyu
h qk
h done
m ise
m tf
n y
n oc
q as
r p
s ine
s liced
t ran
u uid
w y
x z
} <
} `):
¦ çĶ°
Ñ ĭ
è Ī
ë Ĥ
Ġ Å
Ġ ĊĠĠĠĠĠĠĠĠĠĠĠĠĠĠĠĠĠĠĠ
Ġ ãĤ¯ãĥ©ãĤ¹
in x
in former
el ix
Ġt ambiÃ©n
al ks
it ar
Ġc Äĥ
id as
Ġ" .")
Ġ" "):
re et
re ib
re curs
Ġp asse
Ġp ndm
le v
ig lu
Ġin iz
Ġthe msel
Ġn ature
Ġw get
ur sday
Ġa post
to bool
to chastic
un ched
is se
is ort
() ];
Ġl l
ĠT D
ĠT an
Ġh undred
ab i
Ġst ands
pr io
ha w
ĠC ritic
ĠS anity
ĠI M
ĠI hnen
.. (
(" __
Ġbe g
"] `.
Ġv ld
=" `
ĊĊ ĊĊ
Ġse c
Ġse hen
Ġma e
ĠF ig
ĠF light
ĠD iT
Ġun specified
bo ut
path lib
ĠM ODE
ĠB ackend
Ġres p
optional ly
ca it
Ġ' @
norm ed
iv ity
li a
ìĿ ĳ
get size
code c
ĠU t
Ġall en
eth inking
]) ],
Ġpre act
ĠH o
ribut os
Ġmax es
sc reen
Ġ: )
Ġ[" âĸģ
cept ron
seq s
idx es
DE CODE
Pro ceedings
Ġch allenging
}. \
ãĤĴ å®ļç¾©
Ġso cket
adapt ive
no ising
gger gan
Ġup scaler
attr s
Layer CrossAttention
patch ed
ĠCon trastive
Ġu a
ãģ§ ãģĹãĤĩãģĨ
Ġ! [
"]) ):
ðŁ ĳ
ãĤ¹ ãĥļ
à¤ ¶
trans cript
TF MPNet
TF Camembert
Ġpo or
Ġtr ip
IS ION
ĠðŁ ¦
min imal
(' _
ne on
Ġdis covered
cor ner
Ġbo unds
"` ).
ĠJ IT
Ġprob able
work flows
Ġgroup ing
Ġass isted
ĠIt s
Ġselect ing
ys ical
Ġíķ ©
)` ).
"} ]
offload ing
ĠÃ ľ
MS tochastic
StableDiffusion UpscalePipeline
hor izon
cut lass
Ġiter atively
Ġlr s
wn ed
enc ent
è¡Į åĪĹ
ĠInst ances
ov ic
des cribe
Ġsyn th
ĠBlock s
FIL T
Ġutil ize
Table Equal
lag ents
ãĤ¿ ãĥ¼ãĥ³
Ġview s
éģ ¿
à°¿ .
ï¼Ī [
ï¼Ī `
State Dict
Ġemb d
ãĤ· ãĥ³
æľī åħ³
ãģĿ ãģĹãģ¦
æŃ ¦çĶ°
Ġart ist
åį ģ
\\ ).
Ġhard coded
+) \.
Sh are
Ġbenchmark ing
ric ity
åı¯ä»¥ åľ¨
ãģªãģĦ åł´åĲĪãģ¯
è¿Ļ éĩĮ
è§ Ĩ
Ġwra pping
ëŀ Į
cons olid
Ġcar bs
Ġmark down
Make up
Ġě[ ?
ãĤı ãģĭ
peak ed
ĠDPR Config
flo yd
("_ ",
ãģĿãĤĮ ãģŀ
Ġsn r
ê·¸ ëŁ°
Struct ure
Pretrained Model
RegNet Cfg
ĠBaseModelOutputWithPooling AndNoAttention
VecVision ForSemanticSegmentation
Ġsupp ly
instruct blip
ãĥĵ ãĥ«
ä»» æĦı
Ġpan ther
xA A
ĠRandom ResizedCrop
Ġobser vations
User Warning
ĠÐ ¿
æ© Ł
åĽł æŀľ
Ġdeploy ment
Ġprim arily
ĠíĨµ íķ©
symb ol
ett ura
Tuning Init
ĠìļĶ êµ¬
ĠìļĶ ì²Ń
Ġaspect s
Names pace
ĠRa ises
Ġglob ally
Ġresearch ers
discuss ions
Ãº n
ĠPatchTST Config
TRAIN ING
ãĥı ãĤ¤
Control ler
ĠìķĮ ê³ł
coust ic
NI ST
VQ Model
ãĤĴè¿½åĬł ãģĹãģ¾ãģĻ
è¿Ķ ãģĹãģ¾ãģĻ
Ġhinz ufÃ¼gen
Cy rl
Mod ules
åĪ¥ ãģ®
isf inite
Ġextend s
ĠWeb Search
æ¤ľ ç´¢
Ġmis leading
à¸ ²
CF G
Ġprepar ation
Mer ging
è» ¢
Ġbal anced
Yi Yi
urk ish
æķĻ ç¨ĭ
åºĶ è¯¥
Current ly
å¿« éĢŁ
Ġing l
Ġê°Ĵ ìĿĦ
Apply Eye
ãĥĪãĥ©ãĥ³ãĤ¹ãĥķãĤ©ãĥ¼ãĥŀ ãĥ¼
recon struction
ImageClassifierOutput WithNoAttention
Ġê¸°ë°ĺ ìľ¼ë¡ľ
Ġcredential s
Ġ================== ======
Ġnou ve
ĠDist illation
MOBILE VIT
ĠMusic Gen
ialog ue
è®¡ ç®Ĺ
ĠSmemLayout Atom
Shared Embeddings
åĽº æľī
Ġquad ratic
åĲĮæ§ĺ ãģ«
Ġspo ken
Ġstraight forward
vin ai
ë°© íĸ¥
Ġë¡ľê·¸ ìĿ¸
Ġë¨ ¼ìłĢ
Ġê¹ Ĭ
Ġëħ ¼
multis et
Warn s
Ġnegat ively
ĠPROCESS OR
ialo GPT
patchts mixer
recurs ively
Ġthemsel ves
ggergan ov
MStochastic Iterative
ãģĿãĤĮãģŀ ãĤĮ
ApplyEye Makeup
% .
' `.
[...]
