{
  "version": "1.0",
  "truncation": null,
  "padding": null,
  "added_tokens": [
    {
      "id": 0,
      "content": "<|endoftext|>",
      "single_word": false,
      "lstrip": false,
      "rstrip": false,
      "normalized": false,
      "special": true
    },
    {
      "id": 1,
      "content": "<fim_prefix>",
      "single_word": false,
      "lstrip": false,
      "rstrip": false,
      "normalized": false,
      "special": true
    },
    {
      "id": 2,
      "content": "<fim_middle>",
      "single_word": false,
      "lstrip": false,
      "rstrip": false,
      "normalized": false,
      "special": true
    },
    {
      "id": 3,
      "content": "<fim_suffix>",
      "single_word": false,
      "lstrip": false,
      "rstrip": false,
      "normalized": false,
      "special": true
    },
    {
      "id": 4,
      "content": "<fim_pad>",
      "single_word": false,
      "lstrip": false,
      "rstrip": false,
      "normalized": false,
      "special": true
    },
    {
      "id": 5,
      "content": "<filename>",
      "single_word": false,
      "lstrip": false,
      "rstrip": false,
      "normalized": false,
      "special": true
    },
    {
      "id": 6,
      "content": "<gh_stars>",
      "single_word": false,
      "lstrip": false,
      "rstrip": false,
      "normalized": false,
      "special": true
    },
    {
      "id": 7,
      "content": "<issue_start>",
      "single_word": false,
      "lstrip": false,
      "rstrip": false,
      "normalized": false,
      "special": true
    },
    {
      "id": 8,
      "content": "<issue_comment>",
      "single_word": false,
      "lstrip": false,
      "rstrip": false,
      "normalized": false,
      "special": true
    },
    {
      "id": 9,
      "content": "<issue_closed>",
      "single_word": false,
      "lstrip": false,
      "rstrip": false,
      "normalized": false,
      "special": true
    },
    {
      "id": 10,
      "content": "<jupyter_start>",
      "single_word": false,
      "lstrip": false,
      "rstrip": false,
      "normalized": false,
      "special": true
    },
    {
      "id": 11,
      "content": "<jupyter_text>",
      "single_word": false,
      "lstrip": false,
      "rstrip": false,
      "normalized": false,
      "special": true
    },
    {
      "id": 12,
      "content": "<jupyter_code>",
      "single_word": false,
      "lstrip": false,
      "rstrip": false,
      "normalized": false,
      "special": true
    },
    {
      "id": 13,
      "content": "<jupyter_output>",
      "single_word": false,
      "lstrip": false,
      "rstrip": false,
      "normalized": false,
      "special": true
    },
    {
      "id": 14,
      "content": "<empty_output>",
      "single_word": false,
      "lstrip": false,
      "rstrip": false,
      "normalized": false,
      "special": true
    },
    {
      "id": 15,
      "content": "<commit_before>",
      "single_word": false,
      "lstrip": false,
      "rstrip": false,
      "normalized": false,
      "special": true
    },
    {
      "id": 16,
      "content": "<commit_msg>",
      "single_word": false,
      "lstrip": false,
      "rstrip": false,
      "normalized": false,
      "special": true
    },
    {
      "id": 17,
      "content": "<commit_after>",
      "single_word": false,
      "lstrip": false,
      "rstrip": false,
      "normalized": false,
      "special": true
    },
    {
      "id": 18,
      "content": "<reponame>",
      "single_word": false,
      "lstrip": false,
      "rstrip": false,
      "normalized": false,
      "special": true
    }
  ],
  "normalizer": null,
  "pre_tokenizer": {
    "type": "Sequence",
    "pretokenizers": [
      {
        "type": "Digits",
        "individual_digits": true
      },
      {
        "type": "ByteLevel",
        "add_prefix_space": false,
        "trim_offsets": true,
        "use_regex": true
      }
    ]
  },
  "post_processor": null,
  "decoder": {
    "type": "ByteLevel",
    "add_prefix_space": true,
    "trim_offsets": true,
    "use_regex": true
  },
  "model": {
    "type": "BPE",
    "dropout": null,
    "unk_token": null,
    "continuing_subword_prefix": null,
    "end_of_word_suffix": null,
    "fuse_unk": false,
    "byte_fallback": false,
    "ignore_merges": false,
    "vocab": {
      "<|endoftext|>": 0,
      "<fim_prefix>": 1,
      "<fim_middle>": 2,
      "<fim_suffix>": 3,
      "<fim_pad>": 4,
      "<filename>": 5,
      "<gh_stars>": 6,
      "<issue_start>": 7,
      "<issue_comment>": 8,
      "<issue_closed>": 9,
      "<jupyter_start>": 10,
      "<jupyter_text>": 11,
      "<jupyter_code>": 12,
      "<jupyter_output>": 13,
      "<empty_output>": 14,
      "<commit_before>": 15,
      "<commit_msg>": 16,
      "<commit_after>": 17,
      "<reponame>": 18,
      "!": 19,
      "\"": 20,
      "#": 21,
      "$": 22,
      "%": 23,
      "&": 24,
      "'": 25,
      "(": 26,
      ")": 27,
      "*": 28,
      "+": 29,
      ",": 30,
      "-": 31,
      ".": 32,
      "/": 33,
      "0": 34,
      "1": 35,
      "2": 36,
      "3": 37,
      "4": 38,
      "5": 39,
      "6": 40,
      "7": 41,
      "8": 42,
      "9": 43,
      ":": 44,
      ";": 45,
      "<": 46,
      "=": 47,
      ">": 48,
      "?": 49,
      "@": 50,
      "A": 51,
      "B": 52,
      "C": 53,
      "D": 54,
      "E": 55,
      "F": 56,
      "G": 57,
      "H": 58,
      "I": 59,
      "J": 60,
      "K": 61,
      "L": 62,
      "M": 63,
      "N": 64,
      "O": 65,
      "P": 66,
      "Q": 67,
      "R": 68,
      "S": 69,
      "T": 70,
      "U": 71,
      "V": 72,
      "W": 73,
      "X": 74,
      "Y": 75,
      "Z": 76,
      "[": 77,
      "\\": 78,
      "]": 79,
      "^": 80,
      "_": 81,
      "`": 82,
      "a": 83,
      "b": 84,
      "c": 85,
      "d": 86,
      "e": 87,
      "f": 88,
      "g": 89,
      "h": 90,
      "i": 91,
      "j": 92,
      "k": 93,
      "l": 94,
      "m": 95,
      "n": 96,
      "o": 97,
      "p": 98,
      "q": 99,
      "r": 100,
      "s": 101,
      "t": 102,
      "u": 103,
      "v": 104,
      "w": 105,
      "x": 106,
      "y": 107,
      "z": 108,
      "{": 109,
      "|": 110,
      "}": 111,
      "~": 112,
      "¡": 113,
      "¢": 114,
      "£": 115,
      "¤": 116,
      "¥": 117,
      "¦": 118,
      "§": 119,
      "¨": 120,
      "©": 121,
      "ª": 122,
      "«": 123,
      "¬": 124,
      "®": 125,
      "¯": 126,
      "°": 127,
      "±": 128,
      "²": 129,
      "³": 130,
      "´": 131,
      "µ": 132,
      "¶": 133,
      "·": 134,
      "¸": 135,
      "¹": 136,
      "º": 137,
      "»": 138,
      "¼": 139,
      "½": 140,
      "¾": 141,
      "¿": 142,
      "À": 143,
      "Á": 144,
      "Â": 145,
      "Ã": 146,
      "Ä": 147,
      "Å": 148,
      "Æ": 149,
      "Ç": 150,
      "È": 151,
      "É": 152,
      "Ê": 153,
      "Ë": 154,
      "Ì": 155,
      "Í": 156,
      "Î": 157,
      "Ï": 158,
      "Ð": 159,
      "Ñ": 160,
      "Ò": 161,
      "Ó": 162,
      "Ô": 163,
      "Õ": 164,
      "Ö": 165,
      "×": 166,
      "Ø": 167,
      "Ù": 168,
      "Ú": 169,
      "Û": 170,
      "Ü": 171,
      "Ý": 172,
      "Þ": 173,
      "ß": 174,
      "à": 175,
      "á": 176,
      "â": 177,
      "ã": 178,
      "ä": 179,
      "å": 180,
      "æ": 181,
      "ç": 182,
      "è": 183,
      "é": 184,
      "ê": 185,
      "ë": 186,
      "ì": 187,
      "í": 188,
      "î": 189,
      "ï": 190,
      "ð": 191,
      "ñ": 192,
      "ò": 193,
      "ó": 194,
      "ô": 195,
      "õ": 196,
      "ö": 197,
      "÷": 198,
      "ø": 199,
      "ù": 200,
      "ú": 201,
      "û": 202,
      "ü": 203,
      "ý": 204,
      "þ": 205,
      "ÿ": 206,
      "Ā": 207,
      "ā": 208,
      "Ă": 209,
      "ă": 210,
      "Ą": 211,
      "ą": 212,
      "Ć": 213,
      "ć": 214,
      "Ĉ": 215,
      "ĉ": 216,
      "Ċ": 217,
      "ċ": 218,
      "Č": 219,
      "č": 220,
      "Ď": 221,
      "ď": 222,
      "Đ": 223,
      "đ": 224,
      "Ē": 225,
      "ē": 226,
      "Ĕ": 227,
      "ĕ": 228,
      "Ė": 229,
      "ė": 230,
      "Ę": 231,
      "ę": 232,
      "Ě": 233,
      "ě": 234,
      "Ĝ": 235,
      "ĝ": 236,
      "Ğ": 237,
      "ğ": 238,
      "Ġ": 239,
      "ġ": 240,
      "Ģ": 241,
      "ģ": 242,
      "Ĥ": 243,
      "ĥ": 244,
      "Ħ": 245,
      "ħ": 246,
      "Ĩ": 247,
      "ĩ": 248,
      "Ī": 249,
      "ī": 250,
      "Ĭ": 251,
      "ĭ": 252,
      "Į": 253,
      "į": 254,
      "İ": 255,
      "ı": 256,
      "Ĳ": 257,
      "ĳ": 258,
      "Ĵ": 259,
      "ĵ": 260,
      "Ķ": 261,
      "ķ": 262,
      "ĸ": 263,
      "Ĺ": 264,
      "ĺ": 265,
      "Ļ": 266,
      "ļ": 267,
      "Ľ": 268,
      "ľ": 269,
      "Ŀ": 270,
      "ŀ": 271,
      "Ł": 272,
      "ł": 273,
      "Ń": 274,
      "ĠĠ": 275,
      "ĠĠĠĠ": 276,
      "ĠĠĠ": 277,
      "ĊĠĠĠĠ": 278,
      "in": 279,
      "en": 280,
      "on": 281,
      "er": 282,
      "at": 283,
      "or": 284,
      "el": 285,
      "Ġt": 286,
      "ĊĠĠĠĠĠĠĠ": 287,
      "ĊĠĠĠĠĠĠĠĠ": 288,
      "es": 289,
      "Ġs": 290,
      "ut": 291,
      "Ġ=": 292,
      "as": 293,
      "al": 294,
      "ion": 295,
      "ed": 296,
      "od": 297,
      "et": 298,
      "ĊĠĠĠ": 299,
      "ar": 300,
      "he": 301,
      "an": 302,
      "ĊĠĠĠĠĠĠĠĠĠĠĠ": 303,
      "Ġi": 304,
      "st": 305,
      "ch": 306,
      "ro": 307,
      "elf": 308,
      "Ġd": 309,
      "ing": 310,
      "it": 311,
      "Ġc": 312,
      "Ġf": 313,
      "put": 314,
      "id": 315,
      "ic": 316,
      "Ġ\"": 317,
      "re": 318,
      "Ġp": 319,
      "le": 320,
      "ig": 321,
      "Ġm": 322,
      "Ġin": 323,
      "lo": 324,
      "ent": 325,
      "odel": 326,
      "se": 327,
      "Ġthe": 328,
      "iz": 329,
      "mp": 330,
      "Ġn": 331,
      "ĊĠĠĠĠĠĠĠĠĠĠĠĠ": 332,
      "ad": 333,
      "Ġo": 334,
      "Ġself": 335,
      "pe": 336,
      "Ġto": 337,
      "ra": 338,
      "ex": 339,
      "Ġb": 340,
      "la": 341,
      "Ġw": 342,
      "ma": 343,
      "ur": 344,
      "ken": 345,
      "ce": 346,
      "Ġr": 347,
      "um": 348,
      "onf": 349,
      "onfig": 350,
      "ĊĠĠĠĠĠĠĠĠĠĠĠĠĠĠĠ": 351,
      "):": 352,
      "Ġ(": 353,
      "ct": 354,
      "Ġa": 355,
      "att": 356,
      "to": 357,
      "ass": 358,
      "ge": 359,
      "am": 360,
      "Ġde": 361,
      "pt": 362,
      "un": 363,
      "utput": 364,
      "ul": 365,
      "ize": 366,
      "ãģ": 367,
      "one": 368,
      "and": 369,
      "Ġis": 370,
      "cod": 371,
      "\",": 372,
      "qu": 373,
      "im": 374,
      "orch": 375,
      "ation": 376,
      "ers": 377,
      "orm": 378,
      "Ġif": 379,
      "ht": 380,
      "is": 381,
      "Ġ`": 382,
      "()": 383,
      "em": 384,
      "Ġl": 385,
      "est": 386,
      "ĠT": 387,
      "rain": 388,
      "sor": 389,
      "ĊĊĠĠĠĠĠĠĠ": 390,
      "None": 391,
      "ention": 392,
      "Ġ-": 393,
      "self": 394,
      "po": 395,
      "il": 396,
      "ot": 397,
      "Ġof": 398,
      "ck": 399,
      "arg": 400,
      "Ġ[": 401,
      "if": 402,
      "Ġfor": 403,
      "ate": 404,
      "ask": 405,
      "attention": 406,
      "model": 407,
      "size": 408,
      "Ġ#": 409,
      "den": 410,
      "Ġmodel": 411,
      "ol": 412,
      "ĊĊĠĠĠ": 413,
      "ext": 414,
      "rom": 415,
      "us": 416,
      "Ġh": 417,
      "Ġ*": 418,
      "ue": 419,
      "idden": 420,
      "de": 421,
      "Ġdef": 422,
      "lass": 423,
      "mage": 424,
      "ĠNone": 425,
      "up": 426,
      "coder": 427,
      "atch": 428,
      "urn": 429,
      "eturn": 430,
      "pro": 431,
      "th": 432,
      "ensor": 433,
      "val": 434,
      "ith": 435,
      "\":": 436,
      "config": 437,
      "ert": 438,
      "ort": 439,
      "token": 440,
      "ãĥ": 441,
      "ab": 442,
      "emb": 443,
      "Ġg": 444,
      "Ġand": 445,
      "ve": 446,
      "ps": 447,
      "ype": 448,
      "int": 449,
      "ĊĠĠĠĠĠĠĠĠĠĠĠĠĠĠĠĠ": 450,
      "ist": 451,
      "ame": 452,
      "Ġ)": 453,
      "om": 454,
      "Ġreturn": 455,
      "ict": 456,
      "Ġ{": 457,
      "args": 458,
      "\")": 459,
      "ates": 460,
      "ãĤ": 461,
      "lay": 462,
      "embed": 463,
      "ight": 464,
      "__": 465,
      "ke": 466,
      "input": 467,
      "ional": 468,
      "ult": 469,
      "ip": 470,
      "//": 471,
      "Ġnot": 472,
      "mask": 473,
      "all": 474,
      "ĠA": 475,
      "ir": 476,
      "Ġth": 477,
      "Ġst": 478,
      "states": 479,
      "output": 480,
      "mport": 481,
      "izer": 482,
      "ids": 483,
      "torch": 484,
      "len": 485,
      "form": 486,
      "ran": 487,
      "Ġlo": 488,
      "class": 489,
      "\"\"": 490,
      "ding": 491,
      "ces": 492,
      "pr": 493,
      "ha": 494,
      "ĠC": 495,
      "Ġoutput": 496,
      "hidden": 497,
      "Ġinput": 498,
      "amp": 499,
      "--": 500,
      "``": 501,
      "Ġre": 502,
      ">>": 503,
      "type": 504,
      "lab": 505,
      "ptional": 506,
      "ĠL": 507,
      "ĠS": 508,
      "from": 509,
      "],": 510,
      "Ġtoken": 511,
      "ice": 512,
      "ĠO": 513,
      "ĠI": 514,
      "..": 515,
      "ine": 516,
      "els": 517,
      "Ġel": 518,
      "head": 519,
      "rans": 520,
      "ence": 521,
      "Ġconfig": 522,
      "atas": 523,
      "ataset": 524,
      "gg": 525,
      "oc": 526,
      "(\"": 527,
      "Ġor": 528,
      "str": 529,
      "Ġtorch": 530,
      "che": 531,
      "py": 532,
      "rue": 533,
      "ĊĠĠĠĠĠĠĠĠĠĠĠĠĠĠĠĠĠĠĠ": 534,
      "hape": 535,
      "Ġbe": 536,
      "Ġwith": 537,
      "key": 538,
      "res": 539,
      "ss": 540,
      "con": 541,
      "ath": 542,
      "ast": 543,
      "gth": 544,
      "name": 545,
      "eight": 546,
      "Model": 547,
      "\"]": 548,
      "ub": 549,
      "encoder": 550,
      "ener": 551,
      "Ġv": 552,
      "Ġe": 553,
      "ata": 554,
      "),": 555,
      "layer": 556,
      "use": 557,
      "ĠP": 558,
      "Ġex": 559,
      "mpt": 560,
      "are": 561,
      "Ġnum": 562,
      "=\"": 563,
      "rained": 564,
      "ĊĊ": 565,
      "Ġimport": 566,
      "Ġpro": 567,
      "Ġcon": 568,
      "dict": 569,
      "ow": 570,
      "Ġse": 571,
      "ri": 572,
      "fa": 573,
      "ransform": 574,
      "Tensor": 575,
      "Ġma": 576,
      "co": 577,
      "ĠĠĠĠĠĠĠĠ": 578,
      "ile": 579,
      "able": 580,
      "vice": 581,
      "ĠF": 582,
      "num": 583,
      "Ġ+": 584,
      "://": 585,
      "htt": 586,
      "ĠD": 587,
      "text": 588,
      ").": 589,
      "length": 590,
      "[\"": 591,
      "icen": 592,
      "Ġun": 593,
      "batch": 594,
      "ix": 595,
      "ial": 596,
      "Ġfrom": 597,
      "Ġelse": 598,
      "Ġy": 599,
      "ter": 600,
      "os": 601,
      "lock": 602,
      "der": 603,
      "iff": 604,
      "::": 605,
      "gging": 606,
      "image": 607,
      "assert": 608,
      "loat": 609,
      "Ġon": 610,
      "cal": 611,
      "Ġì": 612,
      "ew": 613,
      "ly": 614,
      "eat": 615,
      "Ġ(`": 616,
      "ect": 617,
      "embedding": 618,
      "init": 619,
      "add": 620,
      "https": 621,
      "alse": 622,
      "test": 623,
      "ou": 624,
      "))": 625,
      "ure": 626,
      "Ġattention": 627,
      "bo": 628,
      "ase": 629,
      "eps": 630,
      "`,": 631,
      "pp": 632,
      "Ġhidden": 633,
      "ard": 634,
      "True": 635,
      "Ġimage": 636,
      "art": 637,
      "path": 638,
      "dim": 639,
      "ition": 640,
      "valu": 641,
      "etrained": 642,
      "kw": 643,
      "Ġ\"\"\"": 644,
      "Ġ}": 645,
      "ample": 646,
      "kwargs": 647,
      "ance": 648,
      "Ġas": 649,
      "##": 650,
      "ep": 651,
      "end": 652,
      "ĠW": 653,
      "odu": 654,
      "raining": 655,
      "ver": 656,
      "quence": 657,
      "age": 658,
      "icense": 659,
      "ĠOptional": 660,
      "ind": 661,
      "ĠR": 662,
      "Ġ_": 663,
      "ĠM": 664,
      "ĠB": 665,
      "aram": 666,
      "Ġuse": 667,
      "ugging": 668,
      "labels": 669,
      "Ġus": 670,
      "shape": 671,
      "inputs": 672,
      "Ġres": 673,
      "weight": 674,
      ">>>": 675,
      "ents": 676,
      "iffus": 677,
      "les": 678,
      "ann": 679,
      "Ġwh": 680,
      "ipel": 681,
      "pre": 682,
      "For": 683,
      "values": 684,
      "ive": 685,
      "odule": 686,
      "ault": 687,
      "Ġdefault": 688,
      "its": 689,
      "ific": 690,
      "value": 691,
      "ant": 692,
      "ched": 693,
      "pec": 694,
      "ff": 695,
      "```": 696,
      "ore": 697,
      "point": 698,
      "IN": 699,
      "ĠV": 700,
      "device": 701,
      "com": 702,
      "ges": 703,
      "Ġthat": 704,
      "Ġpr": 705,
      "pa": 706,
      "Ġ**": 707,
      "Ġ==": 708,
      "ransformers": 709,
      "per": 710,
      "optional": 711,
      "dataset": 712,
      "ĠThe": 713,
      "ĠLicense": 714,
      "ator": 715,
      "pos": 716,
      "Ġtest": 717,
      "ise": 718,
      "cessor": 719,
      "embeddings": 720,
      "face": 721,
      "**": 722,
      "ca": 723,
      "attn": 724,
      "Ġ'": 725,
      "Ġx": 726,
      "layers": 727,
      "ipeline": 728,
      "ave": 729,
      "](": 730,
      "load": 731,
      "Ġco": 732,
      "pretrained": 733,
      "ãĢ": 734,
      "To": 735,
      "ctor": 736,
      "Ġan": 737,
      "norm": 738,
      "prompt": 739,
      "max": 740,
      "Ġbatch": 741,
      "heads": 742,
      "embeds": 743,
      "ill": 744,
      "attentions": 745,
      "log": 746,
      "tensor": 747,
      "ckpoint": 748,
      "iv": 749,
      "av": 750,
      "Ġthis": 751,
      "cc": 752,
      "ction": 753,
      "tokens": 754,
      "Ġare": 755,
      "cess": 756,
      "eg": 757,
      "ĊĊĠĠĠĠĠĠĠĠĠĠĠ": 758,
      "dir": 759,
      "li": 760,
      "chann": 761,
      "low": 762,
      "ft": 763,
      "ds": 764,
      "own": 765,
      "Ġlet": 766,
      "ror": 767,
      "ward": 768,
      "chedul": 769,
      "Ġtext": 770,
      "uggingface": 771,
      "block": 772,
      "...": 773,
      "ìĿ": 774,
      "Ġyou": 775,
      "for": 776,
      "Ġstr": 777,
      "train": 778,
      "get": 779,
      "Ġë": 780,
      "out": 781,
      "----": 782,
      "Ġen": 783,
      "ias": 784,
      "Config": 785,
      "ĊĠ": 786,
      "uto": 787,
      "feat": 788,
      "io": 789,
      "Token": 790,
      "Ġby": 791,
      "uple": 792,
      "ay": 793,
      "Ġgener": 794,
      "huggingface": 795,
      "code": 796,
      "ures": 797,
      "Ġ->": 798,
      "decoder": 799,
      "ud": 800,
      "ON": 801,
      "ĠU": 802,
      "Ġint": 803,
      "Ġinputs": 804,
      "pl": 805,
      "pout": 806,
      "Ġit": 807,
      "import": 808,
      "ropout": 809,
      "ĠE": 810,
      "ated": 811,
      "ide": 812,
      "ject": 813,
      "file": 814,
      "ba": 815,
      "mages": 816,
      "cheduler": 817,
      "cale": 818,
      "íķ": 819,
      "Ġsh": 820,
      "Ġlen": 821,
      "data": 822,
      "net": 823,
      "channels": 824,
      "state": 825,
      "Ġk": 826,
      "ary": 827,
      "fer": 828,
      "Ġcan": 829,
      "Ġall": 830,
      "Ġwe": 831,
      "Ġget": 832,
      "Ġal": 833,
      "ĠN": 834,
      "ĠG": 835,
      "ĠĠĠĠĠĠĠ": 836,
      "cl": 837,
      "rib": 838,
      "tim": 839,
      "ang": 840,
      "eth": 841,
      "ision": 842,
      "])": 843,
      "Ġtokenizer": 844,
      "ning": 845,
      "set": 846,
      "Ġencoder": 847,
      "Ġpre": 848,
      "Ġdataset": 849,
      "ool": 850,
      "ĠH": 851,
      "ification": 852,
      "rad": 853,
      "False": 854,
      "pect": 855,
      "ocab": 856,
      "Ġ|": 857,
      "`):": 858,
      "outputs": 859,
      "amples": 860,
      "ions": 861,
      "ity": 862,
      "Ġ__": 863,
      "our": 864,
      "Ġrequ": 865,
      "__(": 866,
      "ribut": 867,
      "LI": 868,
      "gener": 869,
      "ative": 870,
      "Ġnn": 871,
      "',": 872,
      "qual": 873,
      "iffusion": 874,
      "ai": 875,
      "conv": 876,
      "Ġclass": 877,
      "Ġsequence": 878,
      "Ġlayer": 879,
      "Ġmask": 880,
      "ire": 881,
      "Ġmax": 882,
      "]]": 883,
      "edict": 884,
      "Ġat": 885,
      "ray": 886,
      "ust": 887,
      "Ġ--": 888,
      "ĠIn": 889,
      "rror": 890,
      "eta": 891,
      "Ġset": 892,
      "ument": 893,
      "Ġsup": 894,
      "Ġtf": 895,
      "ern": 896,
      "().": 897,
      "ment": 898,
      "Ġwill": 899,
      "ils": 900,
      "doc": 901,
      "Ġkey": 902,
      "ok": 903,
      "ta": 904,
      "Error": 905,
      "Ġdo": 906,
      "`]": 907,
      "._": 908,
      "Ġra": 909,
      "Ġqu": 910,
      "ode": 911,
      "ëĭ": 912,
      "prob": 913,
      "Ġche": 914,
      "Ġ[`": 915,
      "Ġtraining": 916,
      "Ġweight": 917,
      "float": 918,
      "Ġj": 919,
      "tokenizer": 920,
      "Ġoutputs": 921,
      "Ġunder": 922,
      "ross": 923,
      "Ġ>>>": 924,
      "steps": 925,
      "ĊĠĠĠĠĠĠĠĠĠĠĠĠĠĠĠĠĠĠĠĠĠĠĠ": 926,
      "param": 927,
      "Ġcom": 928,
      "adding": 929,
      "Ġload": 930,
      "ual": 931,
      "RA": 932,
      "stance": 933,
      "ere": 934,
      "bias": 935,
      "ob": 936,
      "LM": 937,
      "Ġ//": 938,
      "his": 939,
      "tf": 940,
      "Ġ<": 941,
      "ices": 942,
      "Tokenizer": 943,
      "apt": 944,
      "pi": 945,
      "ãģ®": 946,
      "lable": 947,
      "inal": 948,
      "Ġ&": 949,
      "def": 950,
      "*,": 951,
      "sc": 952,
      "\"\"\"": 953,
      "Ġspec": 954,
      "position": 955,
      "Ġshape": 956,
      "Ġ:": 957,
      "Ġ\\": 958,
      "act": 959,
      "ong": 960,
      "Ġ@": 961,
      "AR": 962,
      "Ġassert": 963,
      "dtype": 964,
      "TI": 965,
      "ser": 966,
      "models": 967,
      "Ġdata": 968,
      "array": 969,
      "ersion": 970,
      "Ġpass": 971,
      "Net": 972,
      "etr": 973,
      "Ġdefaults": 974,
      "Ġ.": 975,
      "bool": 976,
      "Ġ[\"": 977,
      "umm": 978,
      "Ġadd": 979,
      "bu": 980,
      "Ġprompt": 981,
      "checkpoint": 982,
      "`.": 983,
      "Ġtransformers": 984,
      "ãģĻ": 985,
      "ifi": 986,
      "index": 987,
      "col": 988,
      "dropout": 989,
      "Ġname": 990,
      "ee": 991,
      "istribut": 992,
      "Ġused": 993,
      "erm": 994,
      "([": 995,
      "AS": 996,
      "utils": 997,
      "ess": 998,
      "pected": 999,
      "Ġdecoder": 1000,
      "par": 1001,
      "ach": 1002,
      "sw": 1003,
      "start": 1004,
      "lax": 1005,
      "Ġnew": 1006,
      "Float": 1007,
      "Ġloss": 1008,
      "PU": 1009,
      "nn": 1010,
      "Ġdim": 1011,
      "FloatTensor": 1012,
      "ailable": 1013,
      "logits": 1014,
      "np": 1015,
      "rop": 1016,
      "uld": 1017,
      "Ġdevice": 1018,
      "Ġraise": 1019,
      "Ġargs": 1020,
      "plit": 1021,
      "inear": 1022,
      "ĠFalse": 1023,
      "rit": 1024,
      "Equal": 1025,
      "cache": 1026,
      "sample": 1027,
      "ization": 1028,
      "ference": 1029,
      "ST": 1030,
      "bert": 1031,
      "Ġno": 1032,
      "cept": 1033,
      "loss": 1034,
      "Ġ/": 1035,
      "eler": 1036,
      "seq": 1037,
      "Ġhas": 1038,
      "cceler": 1039,
      "Ġpar": 1040,
      "ec": 1041,
      "idx": 1042,
      "Ġrequir": 1043,
      "Ġvalue": 1044,
      "ery": 1045,
      "grad": 1046,
      "extra": 1047,
      "ient": 1048,
      "Output": 1049,
      "fix": 1050,
      "Ġtim": 1051,
      "reate": 1052,
      "Ġpos": 1053,
      "alue": 1054,
      "run": 1055,
      "Ġfile": 1056,
      "DE": 1057,
      "istributed": 1058,
      "Ġind": 1059,
      "scale": 1060,
      "images": 1061,
      "pu": 1062,
      "Ġ...": 1063,
      "ithub": 1064,
      "label": 1065,
      "Ġinst": 1066,
      "ib": 1067,
      "features": 1068,
      "ãĢģ": 1069,
      "github": 1070,
      "Pro": 1071,
      "Ġch": 1072,
      "In": 1073,
      "ould": 1074,
      "instance": 1075,
      "Ġcomp": 1076,
      "ized": 1077,
      "ãĥ¼": 1078,
      "app": 1079,
      "}.": 1080,
      "process": 1081,
      "Con": 1082,
      "ãĢĤ": 1083,
      "ript": 1084,
      "Image": 1085,
      "pare": 1086,
      "Ġinit": 1087,
      "upy": 1088,
      "upyter": 1089,
      "Ġtype": 1090,
      "Ġne": 1091,
      "Ġsize": 1092,
      "ãĤĴ": 1093,
      "jupyter": 1094,
      "ĠTF": 1095,
      "org": 1096,
      "ory": 1097,
      "Ġlist": 1098,
      "rg": 1099,
      "main": 1100,
      "():": 1101,
      "wor": 1102,
      "Ġob": 1103,
      "Ġtensor": 1104,
      "Ġout": 1105,
      "arget": 1106,
      "port": 1107,
      "lob": 1108,
      "angu": 1109,
      "ransformer": 1110,
      "Ġso": 1111,
      "pen": 1112,
      "Ġfeat": 1113,
      "ations": 1114,
      "ĠTrue": 1115,
      "ĠUn": 1116,
      "idth": 1117,
      "ww": 1118,
      "tain": 1119,
      "base": 1120,
      "roup": 1121,
      "string": 1122,
      "ER": 1123,
      "[:": 1124,
      "Ġnp": 1125,
      "Ġparam": 1126,
      "fo": 1127,
      "adapt": 1128,
      "Ġmay": 1129,
      "spec": 1130,
      "Ġdtype": 1131,
      "==": 1132,
      "Ġhead": 1133,
      "Ġtokens": 1134,
      "processor": 1135,
      "mo": 1136,
      "fil": 1137,
      "ies": 1138,
      "Ġtrain": 1139,
      "Class": 1140,
      "iffusers": 1141,
      "atents": 1142,
      "Ġle": 1143,
      "vocab": 1144,
      "ĠValue": 1145,
      "Ġwhen": 1146,
      "ram": 1147,
      "ES": 1148,
      "weights": 1149,
      "no": 1150,
      "EN": 1151,
      "Ġ>": 1152,
      "down": 1153,
      "Ġlog": 1154,
      "Ġsc": 1155,
      "list": 1156,
      "etric": 1157,
      "anguage": 1158,
      "Pre": 1159,
      "ĊĠĠĠĠĠ": 1160,
      "thon": 1161,
      "ptim": 1162,
      "ich": 1163,
      "Se": 1164,
      "*):": 1165,
      ");": 1166,
      "ĠAuto": 1167,
      "Lay": 1168,
      "emp": 1169,
      "Pipeline": 1170,
      "ump": 1171,
      "uration": 1172,
      "Ġisinstance": 1173,
      "ethod": 1174,
      "arning": 1175,
      "Ġexpected": 1176,
      "Ġsuper": 1177,
      "gger": 1178,
      "ange": 1179,
      "back": 1180,
      "Test": 1181,
      "ores": 1182,
      "egative": 1183,
      "rc": 1184,
      "Ġelif": 1185,
      "ĊĠĠĠĠĠĠĠĠĠ": 1186,
      "(),": 1187,
      "ãģ«": 1188,
      "sh": 1189,
      "ĠThis": 1190,
      "tro": 1191,
      "MA": 1192,
      "ĠĠĠĠĠĠĠĠĠĠĠĠĠĠĠĠ": 1193,
      "argument": 1194,
      "Ġbool": 1195,
      "cond": 1196,
      "ber": 1197,
      "table": 1198,
      "Ġapp": 1199,
      "ora": 1200,
      "umn": 1201,
      "elp": 1202,
      "Ġweights": 1203,
      "unction": 1204,
      "Ġforward": 1205,
      "eters": 1206,
      ")?": 1207,
      "proj": 1208,
      "ech": 1209,
      "ĠIf": 1210,
      "new": 1211,
      "You": 1212,
      "].": 1213,
      "Ġdistributed": 1214,
      "List": 1215,
      "ING": 1216,
      "ummy": 1217,
      "Ġshould": 1218,
      "ĉĉ": 1219,
      "ixel": 1220,
      "tt": 1221,
      "irst": 1222,
      "ĠCo": 1223,
      "module": 1224,
      "lic": 1225,
      "arch": 1226,
      "nam": 1227,
      "Ġhave": 1228,
      "rate": 1229,
      "ĠValueError": 1230,
      "OC": 1231,
      "Ġconv": 1232,
      "--------": 1233,
      "OR": 1234,
      "Ġup": 1235,
      "ash": 1236,
      "Ġeach": 1237,
      "Ġlabels": 1238,
      "'s": 1239,
      "with": 1240,
      "zer": 1241,
      "udio": 1242,
      "Ġla": 1243,
      "Ġposition": 1244,
      "map": 1245,
      "classes": 1246,
      "assertEqual": 1247,
      "available": 1248,
      "ign": 1249,
      "ãģĹ": 1250,
      "à°": 1251,
      "ãģ¾": 1252,
      "attr": 1253,
      "andom": 1254,
      "ree": 1255,
      "Ġimp": 1256,
      "DI": 1257,
      "Ġresult": 1258,
      "vi": 1259,
      "':": 1260,
      "uid": 1261,
      "Ġusing": 1262,
      "so": 1263,
      "PT": 1264,
      "Ġpadding": 1265,
      "ead": 1266,
      "itional": 1267,
      "past": 1268,
      "Ġblock": 1269,
      "nd": 1270,
      "ml": 1271,
      "ĠK": 1272,
      "training": 1273,
      "height": 1274,
      "((": 1275,
      "af": 1276,
      "Ġ=>": 1277,
      "Ġ`(": 1278,
      "Layer": 1279,
      "eval": 1280,
      "tester": 1281,
      "trol": 1282,
      "Processor": 1283,
      "De": 1284,
      "son": 1285,
      "Ġattn": 1286,
      "lice": 1287,
      "eam": 1288,
      "Ġcheckpoint": 1289,
      "ampl": 1290,
      "ifier": 1291,
      "\"],": 1292,
      "pache": 1293,
      "Ġwor": 1294,
      "Ġyour": 1295,
      "patch": 1296,
      "Classification": 1297,
      "ean": 1298,
      "vision": 1299,
      "Module": 1300,
      "icens": 1301,
      "Ġê": 1302,
      "Ġhttps": 1303,
      ".\"": 1304,
      "ernel": 1305,
      "iginal": 1306,
      "pla": 1307,
      "},": 1308,
      "Ġcall": 1309,
      "Ġmodels": 1310,
      "ĠRes": 1311,
      "ens": 1312,
      "adapter": 1313,
      "Ġpast": 1314,
      "PreT": 1315,
      "iss": 1316,
      "\"),": 1317,
      "mb": 1318,
      "ìĹ": 1319,
      "ences": 1320,
      "Ġmodule": 1321,
      "step": 1322,
      "oad": 1323,
      "hub": 1324,
      "prefix": 1325,
      "Norm": 1326,
      "coding": 1327,
      "keys": 1328,
      "The": 1329,
      "row": 1330,
      "estion": 1331,
      "append": 1332,
      "ĠCon": 1333,
      "transformers": 1334,
      "ãĥ³": 1335,
      "Ġonly": 1336,
      "Ġpa": 1337,
      "Ġí": 1338,
      "datasets": 1339,
      "Ġone": 1340,
      "Ġca": 1341,
      "ie": 1342,
      "cken": 1343,
      "ark": 1344,
      "tr": 1345,
      "peech": 1346,
      "ET": 1347,
      "scheduler": 1348,
      "ultip": 1349,
      "ãĤĭ": 1350,
      "save": 1351,
      "CH": 1352,
      "valid": 1353,
      "over": 1354,
      "check": 1355,
      "Ġstate": 1356,
      "ãģ¯": 1357,
      "the": 1358,
      "Ġconst": 1359,
      "fault": 1360,
      "Ġwhich": 1361,
      "ally": 1362,
      "swer": 1363,
      "olut": 1364,
      "Ġu": 1365,
      "item": 1366,
      "En": 1367,
      "SE": 1368,
      "ĠImage": 1369,
      "special": 1370,
      "time": 1371,
      "ines": 1372,
      "Ġneed": 1373,
      "cy": 1374,
      "emory": 1375,
      "uidance": 1376,
      "><": 1377,
      "fg": 1378,
      "ĠPy": 1379,
      "og": 1380,
      "pytorch": 1381,
      "und": 1382,
      "ãģ§": 1383,
      "Ġper": 1384,
      "split": 1385,
      "requ": 1386,
      "ĠArg": 1387,
      "ae": 1388,
      "Ġ(\"": 1389,
      "ll": 1390,
      "TION": 1391,
      "cat": 1392,
      "ED": 1393,
      "ëĭ¤": 1394,
      "ace": 1395,
      "ĠSee": 1396,
      "(&": 1397,
      "read": 1398,
      "rel": 1399,
      "return": 1400,
      "Ġembeddings": 1401,
      "ãĥĪ": 1402,
      "pad": 1403,
      "ä¸": 1404,
      "Ġ!": 1405,
      "predict": 1406,
      "ĠDe": 1407,
      "iate": 1408,
      "Ġinitial": 1409,
      "forward": 1410,
      "usal": 1411,
      "kip": 1412,
      "book": 1413,
      "pth": 1414,
      "Ġfloat": 1415,
      "[-": 1416,
      "Ã©": 1417,
      "ax": 1418,
      "ho": 1419,
      "Ġcomput": 1420,
      "Ġlanguage": 1421,
      "Ġpredict": 1422,
      "off": 1423,
      "ull": 1424,
      "\"])": 1425,
      "Ġrun": 1426,
      "Ġbut": 1427,
      "sequence": 1428,
      "place": 1429,
      "Ġos": 1430,
      "ĠWh": 1431,
      "Ġcol": 1432,
      "Ġfil": 1433,
      "ï¼": 1434,
      "íķĺ": 1435,
      "uct": 1436,
      "reg": 1437,
      "ved": 1438,
      "PreTrained": 1439,
      "backen": 1440,
      "Ġparser": 1441,
      "iel": 1442,
      "ari": 1443,
      "call": 1444,
      "ODE": 1445,
      "ĊĠĠĠĠĠĠĠĠĠĠĠĠĠĠĠĠĠĠĠĠĠĠĠĠ": 1446,
      "esteps": 1447,
      "python": 1448,
      "Ġnorm": 1449,
      "params": 1450,
      "`:": 1451,
      "ak": 1452,
      "Ġmore": 1453,
      "FI": 1454,
      "Ġ{\"": 1455,
      "ĠArgs": 1456,
      "ome": 1457,
      "ðŁ": 1458,
      "ĊĊĠĠĠĠĠĠĠĠĠĠĠĠĠĠĠ": 1459,
      "lobal": 1460,
      "ccelerator": 1461,
      "ëĭĪ": 1462,
      "prepare": 1463,
      "ether": 1464,
      "mon": 1465,
      "Ġimages": 1466,
      "Ġ):": 1467,
      "buil": 1468,
      "().__": 1469,
      "Ġstart": 1470,
      "slice": 1471,
      "ename": 1472,
      "Ġmethod": 1473,
      "())": 1474,
      "Bert": 1475,
      "right": 1476,
      "Ġseq": 1477,
      "Ġpipeline": 1478,
      "unk": 1479,
      "yp": 1480,
      "Ġlayers": 1481,
      "LIP": 1482,
      "info": 1483,
      "</": 1484,
      "ote": 1485,
      "iter": 1486,
      "Ġid": 1487,
      "Ġvocab": 1488,
      "âĸ": 1489,
      "ëĬ": 1490,
      "poch": 1491,
      "ag": 1492,
      "ëĭĪëĭ¤": 1493,
      "='": 1494,
      "etad": 1495,
      "blocks": 1496,
      "Ġdown": 1497,
      "vec": 1498,
      "Ġexcept": 1499,
      "umpy": 1500,
      "Ġfn": 1501,
      "etadata": 1502,
      "ng": 1503,
      "Ġag": 1504,
      "ack": 1505,
      "Ġhelp": 1506,
      "lm": 1507,
      "PR": 1508,
      "imp": 1509,
      "url": 1510,
      "modeling": 1511,
      "Ġnumber": 1512,
      "Ġbu": 1513,
      "Ġ},": 1514,
      "diffusion": 1515,
      "TH": 1516,
      "ultiple": 1517,
      "group": 1518,
      "####": 1519,
      "Ġrequired": 1520,
      "ãģ¾ãģĻ": 1521,
      "Ġdict": 1522,
      "ze": 1523,
      "ipe": 1524,
      "comp": 1525,
      "Ġlogits": 1526,
      "ĠList": 1527,
      "inference": 1528,
      "Ġ!=": 1529,
      "backends": 1530,
      "stable": 1531,
      "Ġfunction": 1532,
      "ĠYou": 1533,
      "ttention": 1534,
      "less": 1535,
      "Ġ]": 1536,
      "Ġwidth": 1537,
      "op": 1538,
      "jo": 1539,
      "feature": 1540,
      "çĶ": 1541,
      "ìĦ": 1542,
      "aut": 1543,
      "Ġlength": 1544,
      "Ġconfiguration": 1545,
      "Ġrange": 1546,
      "Gener": 1547,
      "(**": 1548,
      "do": 1549,
      "Ġcreate": 1550,
      "DOC": 1551,
      "vel": 1552,
      "names": 1553,
      "ĠHugging": 1554,
      "fn": 1555,
      "ë¥": 1556,
      "default": 1557,
      "scores": 1558,
      "izers": 1559,
      "\"{": 1560,
      "ctory": 1561,
      "ëĬĶ": 1562,
      "Ġcheck": 1563,
      "abs": 1564,
      "Ġcopy": 1565,
      "={": 1566,
      "Ġcor": 1567,
      "Ġprocess": 1568,
      "Ġrel": 1569,
      "ress": 1570,
      "column": 1571,
      "cross": 1572,
      "ither": 1573,
      "unet": 1574,
      "ĠTensor": 1575,
      ",)": 1576,
      "runc": 1577,
      "json": 1578,
      "Ġcross": 1579,
      "ãĤ¹": 1580,
      "Ġpad": 1581,
      "=(": 1582,
      "ield": 1583,
      "Ġtarget": 1584,
      "Ġexample": 1585,
      "Ġq": 1586,
      "uda": 1587,
      "Ġvalues": 1588,
      "Ġend": 1589,
      "Ġwrit": 1590,
      "AM": 1591,
      "UT": 1592,
      "oth": 1593,
      "à¤": 1594,
      "tensors": 1595,
      "ìĿ´": 1596,
      "pon": 1597,
      "Ġpipe": 1598,
      "normal": 1599,
      "Ġsrc": 1600,
      "pan": 1601,
      "examples": 1602,
      "[:,": 1603,
      "Ġ+=": 1604,
      "Ġspecific": 1605,
      "cls": 1606,
      "âĸĪ": 1607,
      "Ġnegative": 1608,
      "Un": 1609,
      "Ġlast": 1610,
      "[[": 1611,
      "ãģ¦": 1612,
      "trans": 1613,
      "Ġfirst": 1614,
      "'t": 1615,
      "view": 1616,
      "ãĥ«": 1617,
      "Ġeither": 1618,
      "ules": 1619,
      "Ġfol": 1620,
      "Mix": 1621,
      "urr": 1622,
      "lip": 1623,
      "pipeline": 1624,
      "cpu": 1625,
      "Ġinter": 1626,
      "range": 1627,
      "seed": 1628,
      ".__": 1629,
      "ptimizer": 1630,
      "Ġsample": 1631,
      "ODEL": 1632,
      "box": 1633,
      "join": 1634,
      "âĸĪâĸĪ": 1635,
      "mod": 1636,
      ")?;": 1637,
      "ìĹĲ": 1638,
      "xt": 1639,
      "ĠFlax": 1640,
      "ìļ": 1641,
      "ify": 1642,
      "Ġdoc": 1643,
      "Diffusion": 1644,
      "\");": 1645,
      "lora": 1646,
      "arge": 1647,
      "TF": 1648,
      "Ġpo": 1649,
      "Ġrequires": 1650,
      "Ġscheduler": 1651,
      "Ġsoft": 1652,
      "img": 1653,
      "ä½": 1654,
      ".{": 1655,
      "Ġform": 1656,
      "ediate": 1657,
      "Ġdiff": 1658,
      "man": 1659,
      "Ġtr": 1660,
      "Ġinstall": 1661,
      "Torch": 1662,
      "Ġdatasets": 1663,
      "ĠTuple": 1664,
      "files": 1665,
      "initial": 1666,
      "Ġlatents": 1667,
      "lied": 1668,
      "Type": 1669,
      "olution": 1670,
      "docstring": 1671,
      "Ġpretrained": 1672,
      "result": 1673,
      "IS": 1674,
      "PreTrainedModel": 1675,
      "Ġquery": 1676,
      "]:": 1677,
      "mpty": 1678,
      "indices": 1679,
      "ndarray": 1680,
      "sum": 1681,
      "Ġfeature": 1682,
      "ìĬ": 1683,
      "Qu": 1684,
      "format": 1685,
      "Ġnoise": 1686,
      "Ġtask": 1687,
      "imit": 1688,
      "Ġlocal": 1689,
      "date": 1690,
      "pping": 1691,
      "uments": 1692,
      "Ġobtain": 1693,
      "Ġsame": 1694,
      "Ġover": 1695,
      "www": 1696,
      "we": 1697,
      "pool": 1698,
      "zero": 1699,
      "cfg": 1700,
      "Ġlogger": 1701,
      "RAN": 1702,
      "ased": 1703,
      "etrics": 1704,
      "factor": 1705,
      "ug": 1706,
      "elect": 1707,
      "PE": 1708,
      "Ġprocessor": 1709,
      "ffic": 1710,
      "OUT": 1711,
      "ĠModel": 1712,
      "http": 1713,
      "ãĤĮ": 1714,
      "ë¡": 1715,
      "indow": 1716,
      "urrent": 1717,
      "Block": 1718,
      "ãģ¨": 1719,
      "ë¥¼": 1720,
      "ìĿĦ": 1721,
      "Ġindex": 1722,
      "error": 1723,
      "ĠðŁ": 1724,
      "unt": 1725,
      "ware": 1726,
      "FOR": 1727,
      "Ġdiffusers": 1728,
      "cont": 1729,
      "Ġoriginal": 1730,
      "fore": 1731,
      "Ġ[]": 1732,
      "word": 1733,
      "Ġkwargs": 1734,
      "tal": 1735,
      "oader": 1736,
      "last": 1737,
      "ph": 1738,
      "Ġour": 1739,
      "Sequence": 1740,
      "Ġsupport": 1741,
      "cript": 1742,
      "pred": 1743,
      "Ġmake": 1744,
      "ther": 1745,
      "mean": 1746,
      "ãģĮ": 1747,
      "min": 1748,
      "ãģĦ": 1749,
      "ĠUnion": 1750,
      "ush": 1751,
      "ccelerate": 1752,
      "afet": 1753,
      "âĶ": 1754,
      "docstrings": 1755,
      "query": 1756,
      "iT": 1757,
      "vit": 1758,
      "Ġheight": 1759,
      "ension": 1760,
      "Ġpath": 1761,
      "Ġnext": 1762,
      "Ġprov": 1763,
      "ampling": 1764,
      "probs": 1765,
      "Face": 1766,
      "Ġprint": 1767,
      "Ġpassed": 1768,
      "Ġperm": 1769,
      "former": 1770,
      "eter": 1771,
      "irectory": 1772,
      "Ġsub": 1773,
      "latents": 1774,
      "generate": 1775,
      "tmp": 1776,
      "entence": 1777,
      "idual": 1778,
      "struct": 1779,
      "Ġtime": 1780,
      "ĊĠĠĠĠĠĠĠĠĠĠĠĠĠĠĠĠĠĠĠĠĠĠĠĠĠĠĠ": 1781,
      "(-": 1782,
      "St": 1783,
      "tuple": 1784,
      "Mixin": 1785,
      "ModelFor": 1786,
      "Scheduler": 1787,
      "resnet": 1788,
      "squ": 1789,
      "peed": 1790,
      ")]": 1791,
      "ìł": 1792,
      "press": 1793,
      "Ġany": 1794,
      "bs": 1795,
      "Ġgenerator": 1796,
      "Ġpy": 1797,
      "ãģŁ": 1798,
      "fficient": 1799,
      "Vec": 1800,
      "flow": 1801,
      "Ġìŀ": 1802,
      "jection": 1803,
      "ĠAN": 1804,
      "})": 1805,
      "ingle": 1806,
      "Ġact": 1807,
      "coded": 1808,
      "cuda": 1809,
      "ãĥĩ": 1810,
      "();": 1811,
      "linear": 1812,
      "Ġ%": 1813,
      "quences": 1814,
      "Conv": 1815,
      "target": 1816,
      "Ġav": 1817,
      "pace": 1818,
      "pipe": 1819,
      "fl": 1820,
      "gn": 1821,
      "andle": 1822,
      "yn": 1823,
      "ĠWhether": 1824,
      "Ġ`\"": 1825,
      "assertTrue": 1826,
      "Ġgeneration": 1827,
      "reed": 1828,
      "pose": 1829,
      "('": 1830,
      "mentation": 1831,
      "docs": 1832,
      "ĠCON": 1833,
      "Ġtuple": 1834,
      "¤Ĺ": 1835,
      "Ġtop": 1836,
      "Ġarg": 1837,
      "Text": 1838,
      "hf": 1839,
      "prec": 1840,
      "MODEL": 1841,
      "MAP": 1842,
      "Ġdiffer": 1843,
      "ĠANY": 1844,
      "Linear": 1845,
      "validation": 1846,
      "====": 1847,
      "ãģĵ": 1848,
      "Ġcont": 1849,
      "Ġfeatures": 1850,
      ".\")": 1851,
      "Ġrandom": 1852,
      "ModelOutput": 1853,
      "diffusers": 1854,
      "ĠPyTorch": 1855,
      "Ġpixel": 1856,
      "ream": 1857,
      "CT": 1858,
      "ia": 1859,
      "ne": 1860,
      "ĠReturn": 1861,
      "ĠGPU": 1862,
      "}\")": 1863,
      "of": 1864,
      "ĠHuggingFace": 1865,
      "Ġ```": 1866,
      "Ġapplic": 1867,
      "sub": 1868,
      "swering": 1869,
      "pyright": 1870,
      "extractor": 1871,
      "With": 1872,
      "Ġmod": 1873,
      "ãĤ¯": 1874,
      "An": 1875,
      "Attention": 1876,
      "IL": 1877,
      "empty": 1878,
      "transformer": 1879,
      "mall": 1880,
      "drop": 1881,
      "width": 1882,
      "ĠWe": 1883,
      "eeze": 1884,
      "itle": 1885,
      "Ġconvert": 1886,
      "by": 1887,
      "LIC": 1888,
      "Ġright": 1889,
      "create": 1890,
      "Long": 1891,
      "atic": 1892,
      "older": 1893,
      "\"].": 1894,
      "çĶ¨": 1895,
      "Ġ[`~": 1896,
      "ITH": 1897,
      "classifier": 1898,
      "clip": 1899,
      "Ġro": 1900,
      "replace": 1901,
      "LayerNorm": 1902,
      "Ġlimit": 1903,
      "Ġlogging": 1904,
      "Ġfollow": 1905,
      "Ġkernel": 1906,
      "ormer": 1907,
      "ĠOR": 1908,
      "Ġcontain": 1909,
      "ausal": 1910,
      "dummy": 1911,
      "ell": 1912,
      "Ġinto": 1913,
      "timesteps": 1914,
      "offset": 1915,
      "epoch": 1916,
      "Ġbias": 1917,
      "ĠOF": 1918,
      "Ġpool": 1919,
      "ãģĻãĤĭ": 1920,
      "RAIN": 1921,
      "pied": 1922,
      "Ġexpress": 1923,
      "Tuple": 1924,
      "ustom": 1925,
      "ĠIS": 1926,
      "Ġ{}": 1927,
      "VE": 1928,
      "ittest": 1929,
      "Ġ\"--": 1930,
      "ĠVersion": 1931,
      "Ġbet": 1932,
      "ible": 1933,
      "generation": 1934,
      "Ġinstead": 1935,
      "tableDiffusion": 1936,
      "eras": 1937,
      "version": 1938,
      "Ġbuil": 1939,
      "Ġmatch": 1940,
      "Ġstep": 1941,
      "ä»": 1942,
      "Ġgrad": 1943,
      "Ġversion": 1944,
      "Tester": 1945,
      "DITION": 1946,
      "Ġapplicable": 1947,
      "çļ": 1948,
      "ĠWAR": 1949,
      "parameters": 1950,
      "ks": 1951,
      "olve": 1952,
      "çļĦ": 1953,
      "kv": 1954,
      "Ġwriting": 1955,
      "Ġsoftware": 1956,
      "STR": 1957,
      "ãģª": 1958,
      "keep": 1959,
      "cast": 1960,
      "ĠApache": 1961,
      "download": 1962,
      "pixel": 1963,
      "Ġalso": 1964,
      "ENSE": 1965,
      "vae": 1966,
      "Ġcode": 1967,
      "abil": 1968,
      "Ġz": 1969,
      "issions": 1970,
      "be": 1971,
      "ous": 1972,
      "Ġpatch": 1973,
      "Ġsave": 1974,
      "ĠAd": 1975,
      "apache": 1976,
      "wo": 1977,
      "Ġ],": 1978,
      "icensed": 1979,
      "IND": 1980,
      "åĲ": 1981,
      "Encoder": 1982,
      "LICENSE": 1983,
      "pha": 1984,
      "ãĥ¼ãĥ": 1985,
      "Ġlaw": 1986,
      "ulti": 1987,
      "icenses": 1988,
      "License": 1989,
      "Dict": 1990,
      "ĠPre": 1991,
      "ĠBAS": 1992,
      "Ġoff": 1993,
      "TIES": 1994,
      "ĠWARRAN": 1995,
      "ITHOUT": 1996,
      "Ġids": 1997,
      "licenses": 1998,
      "Ġpermissions": 1999,
      "ĠCONDITION": 2000,
      "masked": 2001,
      "ãģķ": 2002,
      "Ġimplied": 2003,
      "ĠKIND": 2004,
      "ĠWARRANTIES": 2005,
      "Ġreturned": 2006,
      "Ġcompli": 2007,
      "Ġtemp": 2008,
      "Ġdoes": 2009,
      "Ġagreed": 2010,
      "ĠCONDITIONS": 2011,
      "Ġcompliance": 2012,
      "__()": 2013,
      "ĠBASIS": 2014,
      "edu": 2015,
      "unc": 2016,
      "Auto": 2017,
      "writ": 2018,
      "ĠTo": 2019,
      "pop": 2020,
      "generator": 2021,
      "Ġgover": 2022,
      "numpy": 2023,
      "padding": 2024,
      "ERT": 2025,
      "Ġscript": 2026,
      "ausalLM": 2027,
      "CON": 2028,
      "move": 2029,
      "arn": 2030,
      "ë¡ľ": 2031,
      "Ġgoverning": 2032,
      "samples": 2033,
      "ETRAIN": 2034,
      "ĠResult": 2035,
      "Res": 2036,
      "Ġsu": 2037,
      "Ġbase": 2038,
      "guidance": 2039,
      "Ġjnp": 2040,
      "ĠWITHOUT": 2041,
      "exp": 2042,
      "parse": 2043,
      "Ġsure": 2044,
      "Ġgenerated": 2045,
      "ided": 2046,
      "ĠCopied": 2047,
      "Ġdis": 2048,
      "gy": 2049,
      "Ġaccelerator": 2050,
      "}\"": 2051,
      "Ġexamples": 2052,
      "Ġgetattr": 2053,
      "mut": 2054,
      "Ġlimitations": 2055,
      "Ġdes": 2056,
      "bin": 2057,
      "memory": 2058,
      "atio": 2059,
      "une": 2060,
      "Self": 2061,
      "ike": 2062,
      "ETRAINED": 2063,
      "Cond": 2064,
      "Ċĉĉ": 2065,
      "Ġembed": 2066,
      "ĠConv": 2067,
      "ld": 2068,
      "ĠX": 2069,
      "ption": 2070,
      "ivation": 2071,
      "odoc": 2072,
      "autodoc": 2073,
      "ource": 2074,
      "Ġother": 2075,
      "te": 2076,
      "FIG": 2077,
      "late": 2078,
      "STRING": 2079,
      "°Ģ": 2080,
      "ĠìĿ": 2081,
      "Ġformat": 2082,
      "led": 2083,
      "Ġmetadata": 2084,
      "atent": 2085,
      "estep": 2086,
      "vir": 2087,
      "Ġcache": 2088,
      "gradient": 2089,
      "large": 2090,
      "negative": 2091,
      "modules": 2092,
      "oog": 2093,
      "Ġattentions": 2094,
      "###": 2095,
      "bject": 2096,
      "decode": 2097,
      "Ġscale": 2098,
      "Ġ),": 2099,
      "initializer": 2100,
      "----------------": 2101,
      "Ġembedding": 2102,
      "ĠAll": 2103,
      "âĶģ": 2104,
      "rid": 2105,
      "Ġstride": 2106,
      "old": 2107,
      "Ġdifferent": 2108,
      "sd": 2109,
      "squeeze": 2110,
      "logger": 2111,
      "CausalLM": 2112,
      "score": 2113,
      "atten": 2114,
      "Ġsplit": 2115,
      "entity": 2116,
      "common": 2117,
      "extract": 2118,
      "ĠReturns": 2119,
      "ake": 2120,
      "atal": 2121,
      "oogle": 2122,
      "ified": 2123,
      "ĠEx": 2124,
      "folder": 2125,
      "Ġcl": 2126,
      "Ġtensors": 2127,
      "Ġstring": 2128,
      "audio": 2129,
      "lease": 2130,
      "Ġtrunc": 2131,
      "positions": 2132,
      "items": 2133,
      "SequenceClassification": 2134,
      "LongTensor": 2135,
      "ì§": 2136,
      "dis": 2137,
      "Ġindices": 2138,
      "task": 2139,
      "Ġwas": 2140,
      "require": 2141,
      ".,": 2142,
      "âĶģâĶģ": 2143,
      "Ġ///": 2144,
      "mbed": 2145,
      "AT": 2146,
      "\"))": 2147,
      "dist": 2148,
      "rect": 2149,
      "xiv": 2150,
      "pres": 2151,
      "reshape": 2152,
      "vector": 2153,
      "Ġcomm": 2154,
      "Ġnormal": 2155,
      "ages": 2156,
      "NAM": 2157,
      "Ġprepare": 2158,
      "Tip": 2159,
      "etri": 2160,
      "gress": 2161,
      "bone": 2162,
      "bit": 2163,
      "Ġparameters": 2164,
      "PRETRAINED": 2165,
      "Ġfield": 2166,
      "resolve": 2167,
      "long": 2168,
      "Ġthan": 2169,
      "zeros": 2170,
      "next": 2171,
      "Ġmin": 2172,
      "DOCSTRING": 2173,
      "arxiv": 2174,
      "stride": 2175,
      "lib": 2176,
      "viron": 2177,
      "ãĤ¤": 2178,
      "classification": 2179,
      "transpose": 2180,
      "Ġheads": 2181,
      "Wh": 2182,
      "blob": 2183,
      ":]": 2184,
      "ese": 2185,
      "dense": 2186,
      "Ġfiles": 2187,
      "Ġhow": 2188,
      "Ġcontrol": 2189,
      "_(": 2190,
      "case": 2191,
      "acc": 2192,
      "skip": 2193,
      "cor": 2194,
      "kernel": 2195,
      "TS": 2196,
      "ain": 2197,
      "ick": 2198,
      "izes": 2199,
      "ĠRe": 2200,
      "Not": 2201,
      "Ġunet": 2202,
      "../": 2203,
      "¨ë": 2204,
      "ating": 2205,
      "ish": 2206,
      ")`,": 2207,
      "=-": 2208,
      "Question": 2209,
      "auto": 2210,
      "ĠðŁ¤Ĺ": 2211,
      "Ġobject": 2212,
      "ataloader": 2213,
      "flax": 2214,
      "tes": 2215,
      "Ġwant": 2216,
      "=[": 2217,
      "ecut": 2218,
      "ypes": 2219,
      "Ġmo": 2220,
      "convert": 2221,
      "\"):": 2222,
      "Object": 2223,
      "rary": 2224,
      "ãĥ¢": 2225,
      "umentation": 2226,
      "å®": 2227,
      "obj": 2228,
      "respon": 2229,
      "Ġhf": 2230,
      "Ġpub": 2231,
      "not": 2232,
      "Ġbo": 2233,
      ".\",": 2234,
      "dims": 2235,
      "unct": 2236,
      "Ġlib": 2237,
      "Ġdropout": 2238,
      "Ġcurrent": 2239,
      "Ġargument": 2240,
      "Ġusize": 2241,
      "mg": 2242,
      "ARCH": 2243,
      "Ġcompute": 2244,
      "Ġsteps": 2245,
      "scal": 2246,
      "ĠCopyright": 2247,
      "CONFIG": 2248,
      "example": 2249,
      "da": 2250,
      "Ġback": 2251,
      "post": 2252,
      "\"`": 2253,
      "random": 2254,
      "Ġlabel": 2255,
      "ura": 2256,
      "ãĥĥ": 2257,
      "ĠFor": 2258,
      "meta": 2259,
      "bash": 2260,
      "div": 2261,
      "cope": 2262,
      "open": 2263,
      "Ġfa": 2264,
      "ister": 2265,
      "local": 2266,
      "Ġpart": 2267,
      "Ġdownload": 2268,
      "checkpointing": 2269,
      "ĠDataset": 2270,
      "encode": 2271,
      "onents": 2272,
      "ìĿĺ": 2273,
      "ê³": 2274,
      "cay": 2275,
      "Ġhttp": 2276,
      "Ġmasked": 2277,
      "ced": 2278,
      "Ġdel": 2279,
      "print": 2280,
      "Decoder": 2281,
      "CLIP": 2282,
      "Ġvari": 2283,
      "mbedding": 2284,
      "åĪ": 2285,
      "essage": 2286,
      "rainer": 2287,
      "eft": 2288,
      "Ġtitle": 2289,
      "ä½¿": 2290,
      "IVE": 2291,
      "Ġgenerate": 2292,
      "Generation": 2293,
      "top": 2294,
      "ĠOk": 2295,
      "Ġfollowing": 2296,
      "ĠAn": 2297,
      "gt": 2298,
      "LE": 2299,
      "Ġaudio": 2300,
      "fter": 2301,
      "her": 2302,
      "Ġprev": 2303,
      "Ġclassification": 2304,
      "Ġresults": 2305,
      "ARCHIVE": 2306,
      "lation": 2307,
      "rand": 2308,
      "berta": 2309,
      "quant": 2310,
      "Ġcolumn": 2311,
      "gpt": 2312,
      "ins": 2313,
      "arm": 2314,
      "testing": 2315,
      "Ġëª": 2316,
      "bar": 2317,
      "utf": 2318,
      "src": 2319,
      "åı": 2320,
      "parent": 2321,
      "Dataset": 2322,
      "tokenizers": 2323,
      "Ġstd": 2324,
      "ä½¿çĶ¨": 2325,
      "(*": 2326,
      "Lo": 2327,
      "oid": 2328,
      "æľ": 2329,
      "eterm": 2330,
      "ift": 2331,
      "Ġoptimizer": 2332,
      "erved": 2333,
      "Īĺ": 2334,
      "ined": 2335,
      "std": 2336,
      "Ġtry": 2337,
      "wra": 2338,
      "ature": 2339,
      "processing": 2340,
      "Ġcontext": 2341,
      "ely": 2342,
      "ĠJ": 2343,
      "ideo": 2344,
      "Former": 2345,
      "timm": 2346,
      "repo": 2347,
      "Ġlike": 2348,
      "`].": 2349,
      "pert": 2350,
      "ound": 2351,
      "gen": 2352,
      "ĠData": 2353,
      "Ġdeta": 2354,
      "]],": 2355,
      "ffer": 2356,
      "mt": 2357,
      "isual": 2358,
      "ãĤĬ": 2359,
      "Vision": 2360,
      "safet": 2361,
      "ĠTransformers": 2362,
      "write": 2363,
      "Ġjust": 2364,
      "à±": 2365,
      "Ġglobal": 2366,
      "channel": 2367,
      "annot": 2368,
      "global": 2369,
      "fp": 2370,
      "Ġaut": 2371,
      "ting": 2372,
      "ìĬµ": 2373,
      "Ġrights": 2374,
      "ì§Ģ": 2375,
      "Ġmust": 2376,
      "PO": 2377,
      "allel": 2378,
      "free": 2379,
      "alf": 2380,
      "Ġprob": 2381,
      "work": 2382,
      "SI": 2383,
      "oice": 2384,
      "orage": 2385,
      "Ġreserved": 2386,
      "Ġperform": 2387,
      "ĠLicensed": 2388,
      "soft": 2389,
      "count": 2390,
      "umul": 2391,
      "ĠUnless": 2392,
      "eries": 2393,
      "umer": 2394,
      "Seq": 2395,
      "Ġapply": 2396,
      "ipelines": 2397,
      "Pr": 2398,
      "itect": 2399,
      "Ġguidance": 2400,
      "enter": 2401,
      "ViT": 2402,
      "peft": 2403,
      "Mask": 2404,
      "ween": 2405,
      "pute": 2406,
      "Ġac": 2407,
      "Ġspecial": 2408,
      "This": 2409,
      "umerate": 2410,
      "Ġeval": 2411,
      "Answering": 2412,
      "Ġabo": 2413,
      "\">": 2414,
      "method": 2415,
      "!(": 2416,
      "Ġtra": 2417,
      "QuestionAnswering": 2418,
      "help": 2419,
      "PING": 2420,
      ":`": 2421,
      "({": 2422,
      "Ġgroup": 2423,
      "control": 2424,
      "ixed": 2425,
      "lang": 2426,
      "chunk": 2427,
      "Ġstates": 2428,
      "ose": 2429,
      "ãĥ¢ãĥĩ": 2430,
      "Ġscores": 2431,
      "uning": 2432,
      "ap": 2433,
      "Ġinference": 2434,
      "mark": 2435,
      "ĠMask": 2436,
      "Ġwhere": 2437,
      "fram": 2438,
      "ments": 2439,
      "Ġsome": 2440,
      "Ġopen": 2441,
      "Ġax": 2442,
      "update": 2443,
      "beam": 2444,
      "interm": 2445,
      "ï¼Į": 2446,
      "->": 2447,
      "ImageProcessor": 2448,
      "MAPPING": 2449,
      "Ġsingle": 2450,
      "Ġerror": 2451,
      "const": 2452,
      "intermediate": 2453,
      "impl": 2454,
      "ctions": 2455,
      "clu": 2456,
      "Ġreg": 2457,
      "Ġ[[": 2458,
      "Ġimple": 2459,
      "Ġatt": 2460,
      "Ġfalse": 2461,
      "\").": 2462,
      "ense": 2463,
      "ìĦľ": 2464,
      "Ĥ¬": 2465,
      "Co": 2466,
      "Ġmemory": 2467,
      "Ġevalu": 2468,
      "Ġtwo": 2469,
      "Ġprovided": 2470,
      "Arg": 2471,
      "temp": 2472,
      "Embedding": 2473,
      "google": 2474,
      "Ġtmp": 2475,
      "Ġafter": 2476,
      "¸°": 2477,
      "comm": 2478,
      "ìŀ": 2479,
      "extend": 2480,
      "Ġfinal": 2481,
      "Ġass": 2482,
      "lama": 2483,
      "ĠIt": 2484,
      "ĠAutoTokenizer": 2485,
      "Ġgiv": 2486,
      "Ġselect": 2487,
      "content": 2488,
      "etrie": 2489,
      "ĠEn": 2490,
      "Ġacc": 2491,
      "obile": 2492,
      "build": 2493,
      "way": 2494,
      "mode": 2495,
      "first": 2496,
      "LA": 2497,
      "[`": 2498,
      "Ġkeep": 2499,
      "ãĥ¢ãĥĩãĥ«": 2500,
      "ratio": 2501,
      "izing": 2502,
      "Ġskip": 2503,
      "logprob": 2504,
      "')": 2505,
      "ĠCLIP": 2506,
      "Dummy": 2507,
      "Ġcase": 2508,
      ".\"\"\"": 2509,
      "wh": 2510,
      "ete": 2511,
      "ms": 2512,
      "ability": 2513,
      "ref": 2514,
      "dataloader": 2515,
      "ãģĹãģ¦": 2516,
      "Feat": 2517,
      "heck": 2518,
      "Ġpair": 2519,
      "ForSequenceClassification": 2520,
      "©ëĭĪëĭ¤": 2521,
      "Ġrepo": 2522,
      "original": 2523,
      "?;": 2524,
      "Ġhere": 2525,
      "push": 2526,
      "Ġparams": 2527,
      "ĠTraining": 2528,
      "present": 2529,
      "Ġrequire": 2530,
      "Ġmain": 2531,
      "Ġcallback": 2532,
      "ite": 2533,
      "inter": 2534,
      "function": 2535,
      "Ġìł": 2536,
      "Ġmultiple": 2537,
      "\".": 2538,
      "´ë": 2539,
      "è¦": 2540,
      "Ġadapter": 2541,
      "ĠDiffusion": 2542,
      "Py": 2543,
      "metrics": 2544,
      "ìļ©": 2545,
      "BERT": 2546,
      "iny": 2547,
      "ART": 2548,
      "seg": 2549,
      "ĠAutoModelFor": 2550,
      ")[": 2551,
      "cket": 2552,
      "ious": 2553,
      "Ġmean": 2554,
      "etect": 2555,
      "dirname": 2556,
      "armup": 2557,
      "GPT": 2558,
      "Ġlibrary": 2559,
      "eed": 2560,
      "formation": 2561,
      "Ġëª¨ë": 2562,
      "expected": 2563,
      "âĸĪâĸĪâĸĪâĸĪ": 2564,
      "Ġarch": 2565,
      "chs": 2566,
      "ĠID": 2567,
      "istic": 2568,
      "clo": 2569,
      "Ġdon": 2570,
      "projection": 2571,
      "ĠìŀĪ": 2572,
      "Ġbetween": 2573,
      "ãģķãĤĮ": 2574,
      "uned": 2575,
      "Ġthen": 2576,
      "ian": 2577,
      "object": 2578,
      "AL": 2579,
      "Ġtrue": 2580,
      "Ġencoding": 2581,
      "speech": 2582,
      "generated": 2583,
      "tra": 2584,
      "Ġenumerate": 2585,
      "Ġtotal": 2586,
      "added": 2587,
      "predictions": 2588,
      "ĠSelf": 2589,
      "Ġwork": 2590,
      "etermin": 2591,
      "AD": 2592,
      "lr": 2593,
      "íķľ": 2594,
      "å¤": 2595,
      "ĠHub": 2596,
      "ãĥ¼ãĤ": 2597,
      "copy": 2598,
      "fc": 2599,
      "ork": 2600,
      "itial": 2601,
      "raw": 2602,
      "ical": 2603,
      "metaclass": 2604,
      "xl": 2605,
      "imum": 2606,
      "ys": 2607,
      "html": 2608,
      "DummyObject": 2609,
      "Fast": 2610,
      "register": 2611,
      "Ad": 2612,
      "########": 2613,
      "wrap": 2614,
      ")),": 2615,
      "ãĥĹ": 2616,
      "Ġnam": 2617,
      "level": 2618,
      "Ġword": 2619,
      "attern": 2620,
      "Ġcorrespon": 2621,
      "scope": 2622,
      "opt": 2623,
      "sentence": 2624,
      "only": 2625,
      "line": 2626,
      "Ġhasattr": 2627,
      "](../": 2628,
      "mediate": 2629,
      "groups": 2630,
      "Ġ`[": 2631,
      "facebook": 2632,
      "order": 2633,
      "Ġdrop": 2634,
      "types": 2635,
      "window": 2636,
      "elu": 2637,
      "Ġquant": 2638,
      "æĸ": 2639,
      "Ġign": 2640,
      "Ġaxis": 2641,
      "Ġscal": 2642,
      "Ġbefore": 2643,
      "lect": 2644,
      "wise": 2645,
      "Ġencoded": 2646,
      "irect": 2647,
      "uff": 2648,
      "cr": 2649,
      "eos": 2650,
      "Head": 2651,
      "itecture": 2652,
      "Ċĉ": 2653,
      "Ġeps": 2654,
      "CE": 2655,
      "Ġspecified": 2656,
      "CL": 2657,
      "Ġpred": 2658,
      "Ġdepth": 2659,
      "Re": 2660,
      "['": 2661,
      "very": 2662,
      "context": 2663,
      "txt": 2664,
      "~~": 2665,
      "Ġcorrect": 2666,
      "ìĬµëĭĪëĭ¤": 2667,
      "CK": 2668,
      "åĬ": 2669,
      "ones": 2670,
      "Ġresidual": 2671,
      "Ġthem": 2672,
      "ored": 2673,
      "Ġinformation": 2674,
      "flatten": 2675,
      "Ġrefer": 2676,
      "ĠìĤ¬": 2677,
      "Ġcod": 2678,
      "íĬ": 2679,
      "imple": 2680,
      "inet": 2681,
      "small": 2682,
      "Ġtyp": 2683,
      "ared": 2684,
      "ĠDict": 2685,
      "Ġgiven": 2686,
      "ĠSe": 2687,
      "loc": 2688,
      "ĠLo": 2689,
      "']": 2690,
      "Ġtimesteps": 2691,
      "sv": 2692,
      "Ġarguments": 2693,
      "Ġits": 2694,
      "ement": 2695,
      "ord": 2696,
      "ãĥª": 2697,
      "ensors": 2698,
      "ulary": 2699,
      "ĠìĪĺ": 2700,
      "lator": 2701,
      "ĠGPT": 2702,
      "unctional": 2703,
      "lower": 2704,
      "Ġ:,": 2705,
      "lean": 2706,
      "]`,": 2707,
      "relative": 2708,
      "Ġurl": 2709,
      "ĠĠĠĠĠ": 2710,
      "util": 2711,
      "ner": 2712,
      "Masked": 2713,
      "transform": 2714,
      "metric": 2715,
      "ron": 2716,
      "fill": 2717,
      "Ġgo": 2718,
      "äº": 2719,
      "Ġmut": 2720,
      "wav": 2721,
      "Ġthere": 2722,
      "rw": 2723,
      "pair": 2724,
      "mat": 2725,
      "env": 2726,
      "lex": 2727,
      "Path": 2728,
      "Ġfine": 2729,
      "Ġfram": 2730,
      "boxes": 2731,
      "noise": 2732,
      "close": 2733,
      "AN": 2734,
      "gpu": 2735,
      "Ġsav": 2736,
      "xtra": 2737,
      "Conditional": 2738,
      "ential": 2739,
      "gram": 2740,
      "ĠScript": 2741,
      "uracy": 2742,
      "EX": 2743,
      "ĠPIL": 2744,
      "Ġadded": 2745,
      "erta": 2746,
      "Ġtrainer": 2747,
      "callback": 2748,
      "accelerate": 2749,
      "ful": 2750,
      "ãģĹãģ¾ãģĻ": 2751,
      "Ġcls": 2752,
      "ĠTransformer": 2753,
      "vironment": 2754,
      "ĠStableDiffusion": 2755,
      "lp": 2756,
      "rt": 2757,
      "ãĥĨ": 2758,
      "ĠClass": 2759,
      "Ġread": 2760,
      "efficient": 2761,
      "used": 2762,
      "propert": 2763,
      "abled": 2764,
      "íĬ¸": 2765,
      "Ġden": 2766,
      "mlp": 2767,
      "Ġwarning": 2768,
      "={\"": 2769,
      "Ġwindow": 2770,
      "ĠĠĠĠĠĠĠĠĠĠĠĠĠĠĠĠĠĠĠĠĠĠĠĠĠĠĠĠĠĠĠĠ": 2771,
      "peat": 2772,
      "ĠSome": 2773,
      "sp": 2774,
      "compute": 2775,
      "åħ": 2776,
      "imil": 2777,
      "char": 2778,
      "sequences": 2779,
      "Ġent": 2780,
      "į¸": 2781,
      "Ġexist": 2782,
      "ìĿĢ": 2783,
      "imilar": 2784,
      "Ġtrans": 2785,
      "ëł": 2786,
      "////": 2787,
      "rank": 2788,
      "ĠBert": 2789,
      "expand": 2790,
      "LO": 2791,
      "verage": 2792,
      "Ġíķ": 2793,
      "mapping": 2794,
      "Ġ#[": 2795,
      "sizes": 2796,
      "depth": 2797,
      "Ġpl": 2798,
      "ãĥ©": 2799,
      "clude": 2800,
      "uous": 2801,
      "Generator": 2802,
      "Ġ$": 2803,
      "bytes": 2804,
      "unittest": 2805,
      "ategy": 2806,
      "nx": 2807,
      "Ġet": 2808,
      "ases": 2809,
      "ĠTeam": 2810,
      "ëĲ": 2811,
      "resh": 2812,
      "span": 2813,
      ")):": 2814,
      "ê°Ģ": 2815,
      "alpha": 2816,
      "ilon": 2817,
      "Ġrelative": 2818,
      "Flax": 2819,
      "activation": 2820,
      "ench": 2821,
      "UN": 2822,
      "uring": 2823,
      "Ġblocks": 2824,
      "GE": 2825,
      "ernal": 2826,
      "è¿": 2827,
      "ĭ¤": 2828,
      "oberta": 2829,
      "Ġnon": 2830,
      "lengths": 2831,
      "epspeed": 2832,
      "Ġbuild": 2833,
      "Ġchannels": 2834,
      "match": 2835,
      "sig": 2836,
      "TO": 2837,
      "sampling": 2838,
      "TokenizerFast": 2839,
      "ities": 2840,
      "png": 2841,
      "ĠBatch": 2842,
      "ĠSt": 2843,
      "ĠCheck": 2844,
      "diff": 2845,
      "aseModelOutput": 2846,
      "Feature": 2847,
      "umulation": 2848,
      "(__": 2849,
      "./": 2850,
      "cing": 2851,
      "df": 2852,
      "æķ": 2853,
      "rem": 2854,
      "trainer": 2855,
      "Ġarray": 2856,
      "Up": 2857,
      "side": 2858,
      "Ġmode": 2859,
      "Ġsupported": 2860,
      "question": 2861,
      "ConditionalGeneration": 2862,
      "stem": 2863,
      "sq": 2864,
      "posit": 2865,
      "ãĥ³ãĤ": 2866,
      "Ġtransform": 2867,
      "****": 2868,
      "filename": 2869,
      "ĠInitial": 2870,
      "Input": 2871,
      "pipelines": 2872,
      "}}": 2873,
      "=_": 2874,
      "Ġprefix": 2875,
      "Trainer": 2876,
      "Ġtimestep": 2877,
      "ĠInd": 2878,
      "PI": 2879,
      "aster": 2880,
      "Ġsequences": 2881,
      "Ex": 2882,
      "tiny": 2883,
      "Ġtgt": 2884,
      "resize": 2885,
      "ework": 2886,
      "optim": 2887,
      "ìĬ¤": 2888,
      "![": 2889,
      "Ġsin": 2890,
      "tring": 2891,
      "];": 2892,
      "enable": 2893,
      "mul": 2894,
      "Ġremove": 2895,
      "LU": 2896,
      "Ġëª¨ëį¸": 2897,
      ")`": 2898,
      "true": 2899,
      "ble": 2900,
      "dump": 2901,
      "property": 2902,
      "Ġ()": 2903,
      "æĪ": 2904,
      "#[": 2905,
      "hs": 2906,
      "ĠLay": 2907,
      "hap": 2908,
      "Ġnumpy": 2909,
      "Ġ..": 2910,
      "Ġdeprec": 2911,
      "Ġtests": 2912,
      "ME": 2913,
      "total": 2914,
      "nect": 2915,
      "ForConditionalGeneration": 2916,
      "encoding": 2917,
      "Ġgu": 2918,
      "Ġpredictions": 2919,
      "stage": 2920,
      "Ġboth": 2921,
      "ather": 2922,
      "full": 2923,
      "Ġsd": 2924,
      "qa": 2925,
      "ãĤĪ": 2926,
      "TesterMixin": 2927,
      "ãģį": 2928,
      "ded": 2929,
      "ãģĤ": 2930,
      "XL": 2931,
      "Ġallow": 2932,
      "Extra": 2933,
      "Ġdefined": 2934,
      "Ġsecond": 2935,
      "Ġintermediate": 2936,
      "educe": 2937,
      "summ": 2938,
      "Down": 2939,
      "swith": 2940,
      "mbda": 2941,
      "Ġpooled": 2942,
      "Ġchar": 2943,
      "Ġcoding": 2944,
      "Par": 2945,
      "pub": 2946,
      "tests": 2947,
      "][": 2948,
      "\"][": 2949,
      "into": 2950,
      "CHE": 2951,
      "MScheduler": 2952,
      "unsqueeze": 2953,
      "configuration": 2954,
      "ests": 2955,
      "ev": 2956,
      "\"}": 2957,
      "Ġsee": 2958,
      "Ġeos": 2959,
      "Ġ>=": 2960,
      "eterministic": 2961,
      "iguous": 2962,
      "Ġquestion": 2963,
      "NAME": 2964,
      "Ġfl": 2965,
      "Ġê²": 2966,
      "ĠToken": 2967,
      "UL": 2968,
      "ĠCan": 2969,
      "Ġresnet": 2970,
      "manual": 2971,
      "ForQuestionAnswering": 2972,
      "script": 2973,
      "DP": 2974,
      "Ġprediction": 2975,
      "ĠNote": 2976,
      "Ġloading": 2977,
      "ĠInc": 2978,
      "bos": 2979,
      "RE": 2980,
      "ynam": 2981,
      "sampl": 2982,
      "builder": 2983,
      "ik": 2984,
      "ular": 2985,
      "internal": 2986,
      "igh": 2987,
      "ĠTh": 2988,
      "Ġvae": 2989,
      "warning": 2990,
      "Ġtyping": 2991,
      "slow": 2992,
      "enden": 2993,
      "Ġlong": 2994,
      "ready": 2995,
      "Ġman": 2996,
      "Ġparameter": 2997,
      "Ġdimension": 2998,
      "Ġuint": 2999,
      "Ġtransformer": 3000,
      "ĠCh": 3001,
      ">,": 3002,
      "ume": 3003,
      "ìľ": 3004,
      "earch": 3005,
      "uil": 3006,
      "allclose": 3007,
      "prediction": 3008,
      "ables": 3009,
      "ĠìĤ¬ìļ©": 3010,
      "Union": 3011,
      "pip": 3012,
      "cause": 3013,
      "Data": 3014,
      "Ġver": 3015,
      "raph": 3016,
      "Ġjson": 3017,
      "ê¸°": 3018,
      "Ġcustom": 3019,
      "offload": 3020,
      "ĠPlease": 3021,
      "Ġlora": 3022,
      "results": 3023,
      "Av": 3024,
      "ëĵ": 3025,
      "Ġtruncation": 3026,
      "ule": 3027,
      "_{": 3028,
      "ĠFace": 3029,
      "LIST": 3030,
      "epochs": 3031,
      "sup": 3032,
      "Ġcre": 3033,
      "INPU": 3034,
      "Ġpt": 3035,
      "round": 3036,
      "logging": 3037,
      "Ġxs": 3038,
      "Ġpres": 3039,
      "///": 3040,
      "(\"--": 3041,
      "umber": 3042,
      "components": 3043,
      "Dep": 3044,
      "ĠÃ": 3045,
      "warmup": 3046,
      "ink": 3047,
      "Ġthey": 3048,
      "RL": 3049,
      "Case": 3050,
      "Ġmat": 3051,
      "ptr": 3052,
      "Ġlatent": 3053,
      "controlnet": 3054,
      "Ġvision": 3055,
      "Ġteam": 3056,
      "mer": 3057,
      "MS": 3058,
      "has": 3059,
      "Ġser": 3060,
      "Ġconstant": 3061,
      "columns": 3062,
      "ync": 3063,
      "Ġinstance": 3064,
      "Ġraw": 3065,
      "functional": 3066,
      "AI": 3067,
      "ightman": 3068,
      "Ġinitializer": 3069,
      "Is": 3070,
      "__)": 3071,
      "Ġnote": 3072,
      "MaskedLM": 3073,
      "TokenClassification": 3074,
      "Ġpaper": 3075,
      "ForCausalLM": 3076,
      "Ġseg": 3077,
      "Ġ:]": 3078,
      "Ġlow": 3079,
      "ilation": 3080,
      "========": 3081,
      "metadata": 3082,
      "ux": 3083,
      "cre": 3084,
      "ìĿ¸": 3085,
      "ually": 3086,
      "Ġorder": 3087,
      "ois": 3088,
      "optimizer": 3089,
      "Ġzip": 3090,
      "ignature": 3091,
      "unch": 3092,
      "ìĹĲìĦľ": 3093,
      "Temp": 3094,
      "Ġunittest": 3095,
      "ren": 3096,
      "Ġalready": 3097,
      "itioning": 3098,
      "Ġlook": 3099,
      "final": 3100,
      "Speech": 3101,
      "ĠQ": 3102,
      "Ġimg": 3103,
      "Ġtempfile": 3104,
      "è¦ģ": 3105,
      "left": 3106,
      "Le": 3107,
      "tree": 3108,
      "Ġwhile": 3109,
      "ttn": 3110,
      "Flow": 3111,
      "Ġavoid": 3112,
      "structure": 3113,
      "Ġselected": 3114,
      "beta": 3115,
      "vari": 3116,
      "Ġjax": 3117,
      "like": 3118,
      "Ġrename": 3119,
      "buffer": 3120,
      "resolution": 3121,
      "multiple": 3122,
      "Ġevery": 3123,
      "ason": 3124,
      "yle": 3125,
      "Ġcontin": 3126,
      ")`.": 3127,
      "Cross": 3128,
      "Id": 3129,
      "ãĤī": 3130,
      "TestCase": 3131,
      "Ġduring": 3132,
      "eq": 3133,
      "Ġkeys": 3134,
      "Ġcandle": 3135,
      "rior": 3136,
      "Ġloaded": 3137,
      "Ġline": 3138,
      "è¡": 3139,
      "ank": 3140,
      "Ġcond": 3141,
      "Ġmethods": 3142,
      "safetensors": 3143,
      "ãģĭ": 3144,
      "prev": 3145,
      "Ġrow": 3146,
      "bsz": 3147,
      "antic": 3148,
      "Ġrepresent": 3149,
      "md": 3150,
      "íķł": 3151,
      "Ġgradient": 3152,
      "íķ´": 3153,
      "Ġ((": 3154,
      "Ġbox": 3155,
      "Ġavailable": 3156,
      "ãģĵãģ¨": 3157,
      "::<": 3158,
      "pie": 3159,
      "normalize": 3160,
      "backbone": 3161,
      "Ġpeft": 3162,
      "filter": 3163,
      "bucket": 3164,
      "StableDiffusion": 3165,
      "nb": 3166,
      "ested": 3167,
      "ĠMark": 3168,
      "If": 3169,
      "Ġaction": 3170,
      "assertList": 3171,
      "ior": 3172,
      "ty": 3173,
      "Ġlinear": 3174,
      "Ġë°": 3175,
      "INPUTS": 3176,
      "ãģı": 3177,
      "omatic": 3178,
      "caten": 3179,
      "ë¦": 3180,
      "language": 3181,
      "Ġdset": 3182,
      "ĠSize": 3183,
      "Loss": 3184,
      "\"][\"": 3185,
      "unwrap": 3186,
      "Ġabout": 3187,
      "Ġkeras": 3188,
      "ier": 3189,
      "bot": 3190,
      "Ġseed": 3191,
      "Ġ};": 3192,
      ")`):": 3193,
      "issing": 3194,
      "åĲĪ": 3195,
      "èª": 3196,
      "AB": 3197,
      "arrow": 3198,
      "assertListEqual": 3199,
      "hor": 3200,
      "Ġfound": 3201,
      "rix": 3202,
      "Ġdocumentation": 3203,
      "ĠUNet": 3204,
      "checker": 3205,
      "Ġmetrics": 3206,
      "Ġsuch": 3207,
      "Dependen": 3208,
      "dm": 3209,
      "Ġsampling": 3210,
      "ird": 3211,
      "ĠWav": 3212,
      "Ġatol": 3213,
      "Ġold": 3214,
      "ime": 3215,
      "PA": 3216,
      "Ġds": 3217,
      "directory": 3218,
      "Ġuncond": 3219,
      "Ġbecause": 3220,
      "START": 3221,
      ":,": 3222,
      "Transformer": 3223,
      "ooling": 3224,
      "WithP": 3225,
      "Available": 3226,
      "ency": 3227,
      "hisper": 3228,
      "Dependency": 3229,
      "cut": 3230,
      "pository": 3231,
      "Ġvocabulary": 3232,
      "cription": 3233,
      "Ne": 3234,
      "Param": 3235,
      "deta": 3236,
      "íķĺëĬĶ": 3237,
      "âĶģâĶģâĶģâĶģ": 3238,
      "ĠAl": 3239,
      "Ġindic": 3240,
      "Arguments": 3241,
      "mid": 3242,
      "ìĸ": 3243,
      "Ġtasks": 3244,
      "Extractor": 3245,
      "TE": 3246,
      "icro": 3247,
      "force": 3248,
      "Ġfilename": 3249,
      "Ġlearning": 3250,
      "Ġiter": 3251,
      "Ġad": 3252,
      "Ġbeta": 3253,
      "NotAvailable": 3254,
      "DependencyNotAvailable": 3255,
      "pytest": 3256,
      "Dropout": 3257,
      "ĠOptionalDependencyNotAvailable": 3258,
      "ionary": 3259,
      "precision": 3260,
      "bf": 3261,
      "uture": 3262,
      "Log": 3263,
      "repeat": 3264,
      "LP": 3265,
      "Ġtable": 3266,
      "rwightman": 3267,
      "gelu": 3268,
      "ynamic": 3269,
      "DO": 3270,
      "paint": 3271,
      "message": 3272,
      "Dense": 3273,
      "ãĤģ": 3274,
      "Ġspecify": 3275,
      "Roberta": 3276,
      "export": 3277,
      "Ġprevious": 3278,
      "=[\"": 3279,
      "mak": 3280,
      "Ġes": 3281,
      "hash": 3282,
      "Ġmetric": 3283,
      "FT": 3284,
      "mem": 3285,
      "Ġà¤": 3286,
      "Ġoffset": 3287,
      "Ġextra": 3288,
      "fast": 3289,
      "built": 3290,
      "âĢ": 3291,
      "shard": 3292,
      "CHECK": 3293,
      "ĠAttention": 3294,
      "ormal": 3295,
      ")).": 3296,
      "AutoModelFor": 3297,
      "Ġfind": 3298,
      "lap": 3299,
      "strategy": 3300,
      "assertIs": 3301,
      "ä¸Ģ": 3302,
      "jax": 3303,
      "Ġlr": 3304,
      "Ġtrained": 3305,
      "strip": 3306,
      "etrainedConfig": 3307,
      "ĠIndices": 3308,
      "layernorm": 3309,
      "jnp": 3310,
      "è¨": 3311,
      "chedule": 3312,
      "Ġfree": 3313,
      "clone": 3314,
      "Ġnames": 3315,
      "keras": 3316,
      "mm": 3317,
      "learning": 3318,
      "Ġalpha": 3319,
      "Ġdiffusion": 3320,
      "Ġê°": 3321,
      "source": 3322,
      "íķ©ëĭĪëĭ¤": 3323,
      "contiguous": 3324,
      "ĠAny": 3325,
      "decay": 3326,
      "ĠGener": 3327,
      "progress": 3328,
      "ãĥ¬": 3329,
      "Ġque": 3330,
      "Ġposs": 3331,
      "ues": 3332,
      "Ġsum": 3333,
      "ily": 3334,
      "orary": 3335,
      "Ġmath": 3336,
      "ĠLoRA": 3337,
      "rng": 3338,
      "Ġext": 3339,
      "Ġdi": 3340,
      "urse": 3341,
      "Ġremo": 3342,
      "ä»¥": 3343,
      "Ġsp": 3344,
      "Ch": 3345,
      "Ġdirect": 3346,
      "Ġcons": 3347,
      "Ġvec": 3348,
      "Ġenvironment": 3349,
      "Ġmodeling": 3350,
      "Ġthese": 3351,
      "ForTokenClassification": 3352,
      "vectors": 3353,
      "ky": 3354,
      "Ġadditional": 3355,
      "wn": 3356,
      "ãĥŃ": 3357,
      "Ġtheir": 3358,
      "PText": 3359,
      "({\"": 3360,
      "Seg": 3361,
      "tmpdirname": 3362,
      "Ġdummy": 3363,
      "center": 3364,
      "What": 3365,
      "][\"": 3366,
      "bug": 3367,
      "ugh": 3368,
      "RO": 3369,
      "LIPText": 3370,
      "Com": 3371,
      "Ġbeen": 3372,
      "Ġoptim": 3373,
      "iled": 3374,
      "ait": 3375,
      "Ġdst": 3376,
      "patches": 3377,
      "Ġaccelerate": 3378,
      "**.": 3379,
      "cho": 3380,
      "Ġwithout": 3381,
      "me": 3382,
      "chedulers": 3383,
      "ĠTO": 3384,
      "ĠPr": 3385,
      "pped": 3386,
      ")}": 3387,
      "ĠConfig": 3388,
      "`)": 3389,
      "Ġchunk": 3390,
      "éĢ": 3391,
      "tokenization": 3392,
      "dset": 3393,
      "oki": 3394,
      "Ġsig": 3395,
      "Ġattribut": 3396,
      "ForMaskedLM": 3397,
      "onnx": 3398,
      "ager": 3399,
      "ĠParam": 3400,
      "Ġmaximum": 3401,
      "ĠImageNet": 3402,
      "dev": 3403,
      "ãĥ³ãĤ°": 3404,
      "Cho": 3405,
      "GB": 3406,
      "permut": 3407,
      "ecutter": 3408,
      "okiecutter": 3409,
      "fct": 3410,
      "Ġspan": 3411,
      "piece": 3412,
      "Ġdirectory": 3413,
      "ãĤ¹ãĥĪ": 3414,
      "ĠClassification": 3415,
      "Ġoptional": 3416,
      "trolNet": 3417,
      "offsets": 3418,
      "remote": 3419,
      "enc": 3420,
      "Ġ([`": 3421,
      "accumulation": 3422,
      "Ġepoch": 3423,
      "accelerator": 3424,
      "ìĭ": 3425,
      "mented": 3426,
      "ateg": 3427,
      "uch": 3428,
      "cos": 3429,
      "masks": 3430,
      "deep": 3431,
      "pack": 3432,
      "ĠSet": 3433,
      "ĠìŀĪìĬµëĭĪëĭ¤": 3434,
      "Al": 3435,
      "Ġhuggingface": 3436,
      "Ġvb": 3437,
      "Ġidx": 3438,
      "ception": 3439,
      "Attn": 3440,
      "apply": 3441,
      "arange": 3442,
      "Ġbeam": 3443,
      "ãģ§ãģĻ": 3444,
      "ĠìĦ": 3445,
      "Ġupdate": 3446,
      "String": 3447,
      "åŃ": 3448,
      "ë©": 3449,
      "Ġfp": 3450,
      "project": 3451,
      "ĠWeight": 3452,
      "afe": 3453,
      "Ġdetails": 3454,
      "ans": 3455,
      "road": 3456,
      "Ġmasks": 3457,
      "CA": 3458,
      "ts": 3459,
      "multi": 3460,
      "ForImage": 3461,
      "latent": 3462,
      "layout": 3463,
      "ä¾": 3464,
      "Ġcheckpoints": 3465,
      "research": 3466,
      "enchmark": 3467,
      "ĊĠĠ": 3468,
      "atial": 3469,
      "Ġ).": 3470,
      "iqu": 3471,
      "Ġspeech": 3472,
      "queries": 3473,
      "aw": 3474,
      "Ġev": 3475,
      "ìľ¼": 3476,
      "ĠPath": 3477,
      "distributed": 3478,
      "rough": 3479,
      "quential": 3480,
      "causal": 3481,
      "sz": 3482,
      "ìĦ±": 3483,
      "documentation": 3484,
      "IT": 3485,
      "Loader": 3486,
      "egat": 3487,
      "ï¼ļ": 3488,
      "softmax": 3489,
      "Ġap": 3490,
      "epsilon": 3491,
      "ãģ§ãģį": 3492,
      "single": 3493,
      "Ġà°": 3494,
      "Ġsafet": 3495,
      "INT": 3496,
      "ìļĶ": 3497,
      "Ġevaluation": 3498,
      ".<": 3499,
      "Ġpla": 3500,
      "ĠUse": 3501,
      "ater": 3502,
      "Ġadapt": 3503,
      ".*": 3504,
      "ĠIDs": 3505,
      "ponse": 3506,
      "Ġbest": 3507,
      "ry": 3508,
      "'re": 3509,
      "trunc": 3510,
      "ignore": 3511,
      "andard": 3512,
      "Ġstage": 3513,
      "Ġproper": 3514,
      "dered": 3515,
      "Ġenable": 3516,
      "!(\"": 3517,
      "ĠPro": 3518,
      "Logits": 3519,
      "equal": 3520,
      "gs": 3521,
      "win": 3522,
      "Ġdecoding": 3523,
      "prior": 3524,
      "Ġmodules": 3525,
      "ıĦ": 3526,
      "reak": 3527,
      "Ġbeha": 3528,
      "roadcast": 3529,
      "We": 3530,
      "Ġcached": 3531,
      "Ġarchitecture": 3532,
      "ĠMarkdown": 3533,
      "ways": 3534,
      "nly": 3535,
      "ĠZ": 3536,
      "egr": 3537,
      "iated": 3538,
      "disable": 3539,
      "let": 3540,
      "å¿": 3541,
      "ëĵľ": 3542,
      "crop": 3543,
      "now": 3544,
      "Ġuses": 3545,
      "asic": 3546,
      "ĠCPU": 3547,
      "Multiple": 3548,
      "istil": 3549,
      "ìĦ¸": 3550,
      "Ġmer": 3551,
      "Ġhalf": 3552,
      "pper": 3553,
      "git": 3554,
      "remove": 3555,
      "Choice": 3556,
      "(|": 3557,
      "..=": 3558,
      "Ġ<=": 3559,
      "Ġ`--": 3560,
      "ĠNormal": 3561,
      "see": 3562,
      "Ġsmall": 3563,
      "ĠNumber": 3564,
      "sqrt": 3565,
      "Ġguide": 3566,
      "qdm": 3567,
      "Ġchoice": 3568,
      "Buil": 3569,
      "cul": 3570,
      "node": 3571,
      "ãģĨ": 3572,
      "ãĤĴä½¿çĶ¨": 3573,
      "func": 3574,
      "static": 3575,
      "ols": 3576,
      "requir": 3577,
      "jit": 3578,
      "polation": 3579,
      "deepspeed": 3580,
      "pg": 3581,
      "Ġclip": 3582,
      "Ġreplace": 3583,
      "Ġcontinue": 3584,
      "\"`):": 3585,
      "Ġcrop": 3586,
      "scaling": 3587,
      "Ġfull": 3588,
      "my": 3589,
      "Ġstruct": 3590,
      "ê³ł": 3591,
      "æķ°": 3592,
      "ê²": 3593,
      "Ġclassifier": 3594,
      "Ġsentence": 3595,
      "IMA": 3596,
      "stru": 3597,
      "cur": 3598,
      "err": 3599,
      "cookiecutter": 3600,
      "Ġchannel": 3601,
      "ãĥķ": 3602,
      "Ġdeterministic": 3603,
      "ĠLe": 3604,
      "ĠUs": 3605,
      "Value": 3606,
      "pattern": 3607,
      "]`:": 3608,
      "ac": 3609,
      "à¥": 3610,
      "Ġ[-": 3611,
      "words": 3612,
      "permute": 3613,
      "Batch": 3614,
      "Ġstream": 3615,
      "terable": 3616,
      "ength": 3617,
      "Ġ\".": 3618,
      "Ġscore": 3619,
      "Ġpoint": 3620,
      "FeatureExtractor": 3621,
      "Ġval": 3622,
      "Ġê°Ģ": 3623,
      "reshold": 3624,
      "è¡Į": 3625,
      "ĠText": 3626,
      "Ġcalled": 3627,
      "Ġmulti": 3628,
      "Ġrevision": 3629,
      "iment": 3630,
      "oising": 3631,
      "Ġ</": 3632,
      "Ġlearn": 3633,
      "oment": 3634,
      "å¾": 3635,
      "Ġextract": 3636,
      "atter": 3637,
      "Ġrunning": 3638,
      "Ġpost": 3639,
      "å°": 3640,
      "Ġar": 3641,
      "plits": 3642,
      "ĠĊ": 3643,
      "ism": 3644,
      "`]):": 3645,
      "Ġnotebook": 3646,
      "half": 3647,
      "ãģ®ãĤ": 3648,
      "startswith": 3649,
      "åł": 3650,
      "answer": 3651,
      "Ġnow": 3652,
      "Ġcommand": 3653,
      "};": 3654,
      "åľ": 3655,
      "Ġpresent": 3656,
      "rele": 3657,
      "¯¸": 3658,
      "Ġëĭ¤": 3659,
      "NAMES": 3660,
      "åĩ": 3661,
      "è¯": 3662,
      "etection": 3663,
      "Ġcfg": 3664,
      "Ġcontaining": 3665,
      "pdf": 3666,
      "Ġmap": 3667,
      "ĠTensorFlow": 3668,
      "specific": 3669,
      "Ġpush": 3670,
      "Ġpython": 3671,
      "stream": 3672,
      "ĠTask": 3673,
      "Ġanswer": 3674,
      "riter": 3675,
      "uncased": 3676,
      "Directory": 3677,
      "var": 3678,
      "note": 3679,
      "ression": 3680,
      "Dim": 3681,
      "gl": 3682,
      "xs": 3683,
      "cision": 3684,
      "ĠCom": 3685,
      "Ġshift": 3686,
      "Ġcorresponding": 3687,
      "finet": 3688,
      "Ġcontrolnet": 3689,
      "lin": 3690,
      "oraryDirectory": 3691,
      "MultipleChoice": 3692,
      ">\",": 3693,
      "ĠTest": 3694,
      "pil": 3695,
      "ĠAcc": 3696,
      "Ġtokenizers": 3697,
      "ten": 3698,
      "storage": 3699,
      "Bart": 3700,
      "hook": 3701,
      "custom": 3702,
      "Layout": 3703,
      "ĠInst": 3704,
      "ov": 3705,
      "ĠPipeline": 3706,
      "Ġauto": 3707,
      "()?;": 3708,
      "Ġshard": 3709,
      "Ġprompts": 3710,
      "ìĸ´": 3711,
      "íģ": 3712,
      "other": 3713,
      "OP": 3714,
      "modelname": 3715,
      "space": 3716,
      "PECT": 3717,
      "ĊĠĠĠĠĠĠĠĠĠĠĠĠĠĠĠĠĠĠĠĠĠĠĠĠĠĠĠĠĠĠĠ": 3718,
      "Col": 3719,
      "!--": 3720,
      "(_": 3721,
      "`).": 3722,
      "signature": 3723,
      "--------------------------------": 3724,
      "]]]": 3725,
      "'ll": 3726,
      "vior": 3727,
      "lv": 3728,
      "Ġprior": 3729,
      "ĊĠĠĠĠĠĠĠĠĠĠĠĠĠĠĠĠĠĠĠĠĠĠĠĠĠĠĠĠĠĠĠĠ": 3730,
      "paces": 3731,
      "Ã¼": 3732,
      "íĻ": 3733,
      "Ġtake": 3734,
      "timestep": 3735,
      "before": 3736,
      "Ġexp": 3737,
      "\")]": 3738,
      "Ġbreak": 3739,
      "Ġway": 3740,
      "Ġproperly": 3741,
      "ral": 3742,
      "Ã¡": 3743,
      "Ġsamples": 3744,
      "[:-": 3745,
      "ystem": 3746,
      "pers": 3747,
      "paths": 3748,
      "loaded": 3749,
      "å®ļ": 3750,
      "Wav": 3751,
      "Ġ\"\"": 3752,
      "points": 3753,
      "Builder": 3754,
      "master": 3755,
      "Ġbos": 3756,
      "Ġretrie": 3757,
      "ĠVec": 3758,
      "Ġdirectly": 3759,
      "ey": 3760,
      "beams": 3761,
      "Ġsince": 3762,
      "icrosoft": 3763,
      "Ġslice": 3764,
      "Ġbased": 3765,
      "Ġdictionary": 3766,
      "zip": 3767,
      "Condition": 3768,
      "ĠParameters": 3769,
      "tokenize": 3770,
      "Ġwarnings": 3771,
      "user": 3772,
      "Ġ...,": 3773,
      "Ġautomatic": 3774,
      "des": 3775,
      "TemporaryDirectory": 3776,
      "ë¦¬": 3777,
      "EXT": 3778,
      "Ġbatched": 3779,
      "Ġbel": 3780,
      "Ġmost": 3781,
      "inf": 3782,
      "search": 3783,
      "ãģ¤": 3784,
      "istant": 3785,
      "PECTED": 3786,
      "Ġdiv": 3787,
      "lossary": 3788,
      "jpg": 3789,
      "ics": 3790,
      "ě[": 3791,
      "åı¯": 3792,
      "revision": 3793,
      "pooled": 3794,
      "ĠSie": 3795,
      "<!--": 3796,
      "]`": 3797,
      "grid": 3798,
      "Ġthrough": 3799,
      ")))": 3800,
      "api": 3801,
      "ln": 3802,
      "Ġpredicted": 3803,
      "ĠY": 3804,
      "ĶĦ": 3805,
      "æ¨": 3806,
      "Ġvalidation": 3807,
      "Ġeas": 3808,
      "current": 3809,
      "ĠGPUs": 3810,
      "ĠAdd": 3811,
      "mix": 3812,
      "req": 3813,
      "Ġitem": 3814,
      "insky": 3815,
      "Ġprocessing": 3816,
      "roberta": 3817,
      "Ġ})": 3818,
      "Ġ_,": 3819,
      "Th": 3820,
      "lem": 3821,
      "Ġcomputing": 3822,
      "glossary": 3823,
      "Classifier": 3824,
      "`](": 3825,
      "cam": 3826,
      "andinsky": 3827,
      "ied": 3828,
      "llama": 3829,
      "crete": 3830,
      "Ġsource": 3831,
      "course": 3832,
      "iece": 3833,
      "Ġìķ": 3834,
      "Ġpossible": 3835,
      "æĪĲ": 3836,
      "Ġrate": 3837,
      "Ġuser": 3838,
      "Ġfactor": 3839,
      "tuning": 3840,
      "æ³": 3841,
      "Ġcapt": 3842,
      "rot": 3843,
      "]`):": 3844,
      "Ġident": 3845,
      "uffle": 3846,
      "åł´": 3847,
      "¡å": 3848,
      "Ġhy": 3849,
      "allable": 3850,
      "ãģ¿": 3851,
      "egatron": 3852,
      "Ġvalid": 3853,
      "Ġsort": 3854,
      "ĠĠĠĠĠĠĠĠĠĠĠĠ": 3855,
      "{{": 3856,
      "/>": 3857,
      "Ġpositions": 3858,
      "bart": 3859,
      "Ŀ¼": 3860,
      "IG": 3861,
      "Ċĉĉĉĉ": 3862,
      "choices": 3863,
      "ffect": 3864,
      "åī": 3865,
      "Ġhub": 3866,
      "apter": 3867,
      "ings": 3868,
      "Ġopt": 3869,
      "ources": 3870,
      "quality": 3871,
      "collator": 3872,
      "ear": 3873,
      "Ġzero": 3874,
      "Ġdist": 3875,
      "Ġcomponents": 3876,
      "PreTrainedTokenizer": 3877,
      "Ġvisual": 3878,
      "ensions": 3879,
      "Ġimplementation": 3880,
      "ìľ¼ë¡ľ": 3881,
      "ãĥ¼ãĥī": 3882,
      "oduct": 3883,
      "maker": 3884,
      "non": 3885,
      "Ġwhat": 3886,
      "Ġprovide": 3887,
      "NN": 3888,
      "sure": 3889,
      "ĠìĿ´ë": 3890,
      "big": 3891,
      "ĠAr": 3892,
      "tensorflow": 3893,
      "DIR": 3894,
      "åľ¨": 3895,
      "Ġsaved": 3896,
      "ãĥģ": 3897,
      "agemaker": 3898,
      "ffn": 3899,
      "]),": 3900,
      "Ġrepository": 3901,
      "Ġcausal": 3902,
      "va": 3903,
      "uf": 3904,
      "Ã¨": 3905,
      "Ġloc": 3906,
      "Ġshow": 3907,
      "Ġest": 3908,
      "math": 3909,
      "ises": 3910,
      "Parameter": 3911,
      "Ġnull": 3912,
      "ides": 3913,
      "ĊĠĠĠĠĠĠĠĠĠĠĠĠĠ": 3914,
      "Ġsoftmax": 3915,
      "Ġsetup": 3916,
      "Ġinstant": 3917,
      "ID": 3918,
      "Ġpreprocess": 3919,
      "Ġignored": 3920,
      "Ġmid": 3921,
      "åł´åĲĪ": 3922,
      "shift": 3923,
      "ĠTODO": 3924,
      "lambda": 3925,
      "ĠAccuracy": 3926,
      "ãĤĤ": 3927,
      "à±į": 3928,
      "ler": 3929,
      "Ġsimple": 3930,
      "rescale": 3931,
      "ĠStable": 3932,
      "FA": 3933,
      "Ġcontains": 3934,
      "-->": 3935,
      "ĠOption": 3936,
      "âĸĪâĸĪâĸĪâĸĪâĸĪâĸĪâĸĪâĸĪ": 3937,
      "notebook": 3938,
      "andb": 3939,
      "ãģĤãĤĬ": 3940,
      "DCondition": 3941,
      "ĠTop": 3942,
      "store": 3943,
      "warn": 3944,
      "Ġparent": 3945,
      "bn": 3946,
      "ello": 3947,
      "Ġworks": 3948,
      "video": 3949,
      "Ġë³": 3950,
      "Ġtimm": 3951,
      "~~~~": 3952,
      "alcul": 3953,
      "Ġown": 3954,
      "lat": 3955,
      "edge": 3956,
      "ĠLoad": 3957,
      "Ġ\"\\": 3958,
      "SIZ": 3959,
      "ForImageClassification": 3960,
      "}/": 3961,
      "Ġnet": 3962,
      "visual": 3963,
      "ats": 3964,
      "Ġvariant": 3965,
      "And": 3966,
      "åĮ": 3967,
      "Ġorig": 3968,
      "Ġneeds": 3969,
      "Ġdetail": 3970,
      "Ġsyn": 3971,
      "hy": 3972,
      "select": 3973,
      "ĠTPU": 3974,
      "ĠRun": 3975,
      "ĠSequence": 3976,
      "ĠConvolution": 3977,
      "conditioning": 3978,
      "iling": 3979,
      "ãĥ¡": 3980,
      "Ġstem": 3981,
      "ĠìĿ´": 3982,
      "ĥ½": 3983,
      "Ġdone": 3984,
      "ìłķ": 3985,
      "Ġargparse": 3986,
      "ving": 3987,
      "Ġinv": 3988,
      "Ġìľ": 3989,
      "constant": 3990,
      "Ġstandard": 3991,
      "ĠDeep": 3992,
      "caption": 3993,
      "ê³¼": 3994,
      "collect": 3995,
      "Ġleft": 3996,
      "spect": 3997,
      "short": 3998,
      "Ġì¶": 3999,
      "ë§": 4000,
      "ĠDefault": 4001,
      "summary": 4002,
      "Unless": 4003,
      "/',": 4004,
      "Training": 4005,
      "Ġsumm": 4006,
      "requires": 4007,
      "part": 4008,
      "()`": 4009,
      "ists": 4010,
      "Ġprojection": 4011,
      "ĠGet": 4012,
      "Ġcompat": 4013,
      "after": 4014,
      "Ġassoc": 4015,
      "Img": 4016,
      "ãģĹãģŁ": 4017,
      "Ã³": 4018,
      "safety": 4019,
      "ĠMobile": 4020,
      "Ġbehavior": 4021,
      "loading": 4022,
      "Ġenv": 4023,
      "aseModelOutputWithP": 4024,
      "card": 4025,
      "POINT": 4026,
      "omentum": 4027,
      "DA": 4028,
      "éĩ": 4029,
      "Ġspeed": 4030,
      "emantic": 4031,
      "ower": 4032,
      "Ġactivation": 4033,
      "Ġalways": 4034,
      "IMAGE": 4035,
      "Next": 4036,
      "ĠBlock": 4037,
      "ĠPython": 4038,
      "Ġvery": 4039,
      "Ġpret": 4040,
      "ggreg": 4041,
      "ë©´": 4042,
      "rl": 4043,
      "ãģł": 4044,
      "matmul": 4045,
      "Ġdeprecated": 4046,
      "Ġremoved": 4047,
      "csv": 4048,
      "Ġ);": 4049,
      "Ġmapping": 4050,
      "Ġlarge": 4051,
      "Ġyield": 4052,
      "alty": 4053,
      "Ġhigh": 4054,
      ")<": 4055,
      "GPU": 4056,
      "Ġhandle": 4057,
      "Ġìĥ": 4058,
      "ĮĢ": 4059,
      "ĠSo": 4060,
      "ost": 4061,
      "Ġëį": 4062,
      "íĦ": 4063,
      "Ġchange": 4064,
      "Ar": 4065,
      "Speed": 4066,
      "ë²": 4067,
      "Ġclean": 4068,
      "Ġoper": 4069,
      "PretrainedConfig": 4070,
      "rogram": 4071,
      "olic": 4072,
      "---": 4073,
      "ĠEr": 4074,
      "ĊĊĠĠĠĠĠĠĠĠĠĠĠĠĠĠĠĠĠĠĠ": 4075,
      "Ġsimilar": 4076,
      "Ġgroups": 4077,
      "MER": 4078,
      "lines": 4079,
      "æĺ": 4080,
      "Ġmight": 4081,
      "ãĥī": 4082,
      "ãĤ¢": 4083,
      "ranch": 4084,
      "Ġìĺ": 4085,
      "FIL": 4086,
      "ãģŁãĤģ": 4087,
      "lamp": 4088,
      "::{": 4089,
      "Ġaccept": 4090,
      "Ġappro": 4091,
      "ìķ": 4092,
      "ively": 4093,
      "uss": 4094,
      "Ġref": 4095,
      "ĠWhen": 4096,
      "fw": 4097,
      "mas": 4098,
      "aving": 4099,
      "ĠExample": 4100,
      "]])": 4101,
      "Ġslow": 4102,
      "ung": 4103,
      "ild": 4104,
      "parallel": 4105,
      "best": 4106,
      "dp": 4107,
      "mixed": 4108,
      "adam": 4109,
      "Ġstyle": 4110,
      "PreTraining": 4111,
      "ada": 4112,
      "Ġ({": 4113,
      "Ġcontent": 4114,
      "framework": 4115,
      "sent": 4116,
      "tolist": 4117,
      "Ġaverage": 4118,
      "()}": 4119,
      "Ġpara": 4120,
      "Ġinstalled": 4121,
      "åĪĨ": 4122,
      "microsoft": 4123,
      "stack": 4124,
      "rapper": 4125,
      "));": 4126,
      "ording": 4127,
      "Ġsent": 4128,
      "ìĹ¬": 4129,
      "MP": 4130,
      "ãĥĳ": 4131,
      "ĠDType": 4132,
      "formers": 4133,
      "inese": 4134,
      "Ġbackbone": 4135,
      "Ġdenoising": 4136,
      "rategy": 4137,
      "Ġeta": 4138,
      "iterable": 4139,
      "'),": 4140,
      "sha": 4141,
      "Ġobjects": 4142,
      "Ġabove": 4143,
      "ĠInitialize": 4144,
      "Ġelement": 4145,
      "ClassifierOutput": 4146,
      "Ġassociated": 4147,
      "Ġcrate": 4148,
      "dataclass": 4149,
      "LIPTextModel": 4150,
      ">(": 4151,
      "del": 4152,
      "ility": 4153,
      "ãĥķãĤ": 4154,
      "play": 4155,
      "Ġcannot": 4156,
      "()?": 4157,
      "Ġreference": 4158,
      "plic": 4159,
      "frames": 4160,
      "aker": 4161,
      "Ġdisable": 4162,
      "Ġproject": 4163,
      "ForMultipleChoice": 4164,
      "extended": 4165,
      "cle": 4166,
      "Ġiss": 4167,
      "classmethod": 4168,
      "////////": 4169,
      "Hub": 4170,
      "VI": 4171,
      "gin": 4172,
      "Ġë§": 4173,
      "ns": 4174,
      "emo": 4175,
      "Ġdoesn": 4176,
      "Ġautomatically": 4177,
      "DConditionModel": 4178,
      "arization": 4179,
      "\"/>": 4180,
      "?](../": 4181,
      "Ġinher": 4182,
      "æľĢ": 4183,
      "iew": 4184,
      "qkv": 4185,
      "Ġtqdm": 4186,
      "Ġwere": 4187,
      "Ġreferences": 4188,
      "sm": 4189,
      "Ġwould": 4190,
      "CLAS": 4191,
      "ULT": 4192,
      "reduce": 4193,
      "Ġprecision": 4194,
      "ðŁ¤Ĺ": 4195,
      "phas": 4196,
      "Strategy": 4197,
      "ŀĭ": 4198,
      "ëŁ": 4199,
      "ract": 4200,
      "Ġfilter": 4201,
      "resnets": 4202,
      "Dis": 4203,
      "ĠAutoModelForCausalLM": 4204,
      "axis": 4205,
      "compile": 4206,
      "az": 4207,
      "Ġcur": 4208,
      "unn": 4209,
      "Ġsetting": 4210,
      "Ġignore": 4211,
      "camel": 4212,
      "annel": 4213,
      "abilities": 4214,
      "]))": 4215,
      "ons": 4216,
      "Ġprogress": 4217,
      "Ġalong": 4218,
      "ãĤĴæ": 4219,
      "Ġwell": 4220,
      "Normal": 4221,
      "ëıĦ": 4222,
      "Ġclasses": 4223,
      "ediction": 4224,
      "efficientnet": 4225,
      "configs": 4226,
      "Ġvideo": 4227,
      "ì¹": 4228,
      "finetuned": 4229,
      "uncond": 4230,
      "è®": 4231,
      "ãĤ¤ãĥ³": 4232,
      "detach": 4233,
      "èĥ½": 4234,
      "Ġentity": 4235,
      "lections": 4236,
      "make": 4237,
      "ĠíĮ": 4238,
      "BertModel": 4239,
      "ìłģ": 4240,
      "zen": 4241,
      "proc": 4242,
      "pend": 4243,
      "red": 4244,
      "Ġmessage": 4245,
      "Instance": 4246,
      "template": 4247,
      "åº": 4248,
      "Ġpadded": 4249,
      "MT": 4250,
      "åĥ": 4251,
      "odes": 4252,
      "Ġcast": 4253,
      "ĠLab": 4254,
      "Ġresponse": 4255,
      "Ġlevel": 4256,
      "\";": 4257,
      "`],": 4258,
      "Ġstore": 4259,
      "veral": 4260,
      "Piece": 4261,
      "Ġfolder": 4262,
      "åĥı": 4263,
      "ements": 4264,
      "ĠCode": 4265,
      "Audio": 4266,
      "erature": 4267,
      "Ġupd": 4268,
      "Level": 4269,
      "Ġfast": 4270,
      "ĠìĹ": 4271,
      "Ġinitialized": 4272,
      "openai": 4273,
      "PIL": 4274,
      "ients": 4275,
      "ĠHow": 4276,
      "sampler": 4277,
      "Ġmlp": 4278,
      "thread": 4279,
      "workers": 4280,
      "releases": 4281,
      "thing": 4282,
      "parameter": 4283,
      "vers": 4284,
      "íĸ": 4285,
      "Ġ``": 4286,
      "Ġneeded": 4287,
      "inish": 4288,
      "US": 4289,
      "distil": 4290,
      "board": 4291,
      "mple": 4292,
      "Ġdev": 4293,
      "/)": 4294,
      "Ġutil": 4295,
      "Ġequal": 4296,
      "Ġbuilder": 4297,
      "Ġinfo": 4298,
      "ĠTrainer": 4299,
      "ãĤ»": 4300,
      "Copyright": 4301,
      "Ġaccording": 4302,
      "buckets": 4303,
      "Ġbelow": 4304,
      "lessM": 4305,
      "Trained": 4306,
      "erial": 4307,
      "Ġdie": 4308,
      "**,": 4309,
      "Ġ\"<": 4310,
      "Ġreturns": 4311,
      "ãĥ¼ãĤ¿": 4312,
      "Parser": 4313,
      "camelcase": 4314,
      "Ġ(:": 4315,
      "Ġ[],": 4316,
      "pret": 4317,
      "concat": 4318,
      "verse": 4319,
      "Ġ&[": 4320,
      "Ġplease": 4321,
      "andid": 4322,
      "cent": 4323,
      "ĠBy": 4324,
      "inv": 4325,
      "egration": 4326,
      "æ¨¡å": 4327,
      "Ġconverted": 4328,
      "eduction": 4329,
      "Ġevaluate": 4330,
      "sin": 4331,
      "ĠEfficient": 4332,
      "Ġinclude": 4333,
      "prod": 4334,
      "ĊĊĠ": 4335,
      "GEN": 4336,
      "Table": 4337,
      "ĠSpeech": 4338,
      "\"]:": 4339,
      "ĠExamples": 4340,
      "Comp": 4341,
      "ords": 4342,
      "Ġder": 4343,
      "ĠPreTrained": 4344,
      "pct": 4345,
      "Ġunk": 4346,
      "ĠRo": 4347,
      "Ġpassing": 4348,
      "CHECKPOINT": 4349,
      "each": 4350,
      "ru": 4351,
      "íĦ°": 4352,
      "FF": 4353,
      "Ġquality": 4354,
      "Licensed": 4355,
      "Device": 4356,
      "################": 4357,
      "Ġtokenized": 4358,
      "StableDiffusionPipeline": 4359,
      "Size": 4360,
      "chema": 4361,
      "INE": 4362,
      "}.\"": 4363,
      "itch": 4364,
      "Ġreward": 4365,
      "ëĿ¼": 4366,
      "Ġtak": 4367,
      "ForPreTraining": 4368,
      "ĠNot": 4369,
      "ãĥĨãĤ": 4370,
      "By": 4371,
      "ĠMODEL": 4372,
      "AE": 4373,
      "{\"": 4374,
      "Ġ\"__": 4375,
      "FORMER": 4376,
      "Ġalt": 4377,
      "Ġagent": 4378,
      "ody": 4379,
      "Ġmatrix": 4380,
      "Ġboxes": 4381,
      "lag": 4382,
      "Ġ['": 4383,
      "ĠBERT": 4384,
      "ãĥ¼ãĤ¯": 4385,
      "try": 4386,
      "catenate": 4387,
      "ãĥ¬ãĥ¼ãĥ": 4388,
      "trained": 4389,
      "orig": 4390,
      "Ġdecode": 4391,
      "ãĤ¿": 4392,
      "istribution": 4393,
      "ĠResNet": 4394,
      "Ġcomputed": 4395,
      "enet": 4396,
      "ĠFeat": 4397,
      "eck": 4398,
      "¤ĳ": 4399,
      "usic": 4400,
      "haped": 4401,
      "ì¹ĺ": 4402,
      "ider": 4403,
      "Ġab": 4404,
      "allback": 4405,
      "ĠSh": 4406,
      "cogn": 4407,
      "ãģĵãĤĮ": 4408,
      "ãĥĸ": 4409,
      "flash": 4410,
      "æĸ¹": 4411,
      "UDA": 4412,
      "Ġwhether": 4413,
      "ocal": 4414,
      "Ġbegin": 4415,
      "Ġuseful": 4416,
      "Ġusage": 4417,
      "Ġthose": 4418,
      "åĮĸ": 4419,
      "Ġsafety": 4420,
      "å¿ħ": 4421,
      "Ġseveral": 4422,
      "Ġetc": 4423,
      "similar": 4424,
      "ĠCross": 4425,
      "Ġbetter": 4426,
      "core": 4427,
      "tlen": 4428,
      "CTC": 4429,
      "pus": 4430,
      "arr": 4431,
      "ãĥ§": 4432,
      "Ġview": 4433,
      "Ġcould": 4434,
      "ASK": 4435,
      "tleneck": 4436,
      "sl": 4437,
      "¸ı": 4438,
      "åĨ": 4439,
      "ï¸ı": 4440,
      "edit": 4441,
      "ili": 4442,
      "backward": 4443,
      "ãĥĥãĥĪ": 4444,
      "Ĥĺ": 4445,
      "Ġsys": 4446,
      "ĠBe": 4447,
      "Ġobj": 4448,
      "Ġtrack": 4449,
      "Ġbsz": 4450,
      "Ġbeing": 4451,
      "ĭãĥ³ãĤ°": 4452,
      "igher": 4453,
      "derive": 4454,
      "cessing": 4455,
      "tasks": 4456,
      "\"},": 4457,
      "estamp": 4458,
      "dst": 4459,
      "ade": 4460,
      "isy": 4461,
      "cli": 4462,
      "root": 4463,
      "Ġrank": 4464,
      "sort": 4465,
      "ModelTester": 4466,
      "Result": 4467,
      "sg": 4468,
      "ĠAPI": 4469,
      "colab": 4470,
      "ĠInter": 4471,
      "where": 4472,
      "sem": 4473,
      "éģ": 4474,
      "ural": 4475,
      "onformer": 4476,
      "igned": 4477,
      "Encoding": 4478,
      "ï¼ī": 4479,
      "íģ¬": 4480,
      "schedule": 4481,
      "lava": 4482,
      "Ġexpect": 4483,
      "ä¸ª": 4484,
      "æĸĩ": 4485,
      "seqlen": 4486,
      "Ġpytorch": 4487,
      "æ¨¡åŀĭ": 4488,
      "}\",": 4489,
      "Ġflax": 4490,
      "Ġmixed": 4491,
      "Ġil": 4492,
      "ĠPR": 4493,
      "ĠMake": 4494,
      "cached": 4495,
      "Ġshort": 4496,
      "shared": 4497,
      "Ġpytest": 4498,
      "Ġcharact": 4499,
      "super": 4500,
      "db": 4501,
      "choice": 4502,
      "Ġcommon": 4503,
      "ë³": 4504,
      "else": 4505,
      "à°¿": 4506,
      "aa": 4507,
      "éĸ": 4508,
      "ìĻ": 4509,
      "Ġsep": 4510,
      "Ġlower": 4511,
      "Ġein": 4512,
      "Ġmany": 4513,
      "bet": 4514,
      "Ġlm": 4515,
      "Whether": 4516,
      "Ġdesc": 4517,
      "ĠCreate": 4518,
      "evalu": 4519,
      "uint": 4520,
      "Ġles": 4521,
      "ĠLayer": 4522,
      "Ġwords": 4523,
      "Ġperformance": 4524,
      "Embeddings": 4525,
      "ĠDiffusionPipeline": 4526,
      "ç»": 4527,
      "orial": 4528,
      "ìĿ¼": 4529,
      "Dimension": 4530,
      "åīį": 4531,
      "igB": 4532,
      "magen": 4533,
      "additional": 4534,
      "periment": 4535,
      "mult": 4536,
      "ï¼Ī": 4537,
      "Ġprobability": 4538,
      "igBird": 4539,
      "include": 4540,
      "Ġclo": 4541,
      "Ġsigma": 4542,
      "FAULT": 4543,
      "unnel": 4544,
      "uplic": 4545,
      "ãģ§ãģįãģ¾ãģĻ": 4546,
      "å¸": 4547,
      "answering": 4548,
      "Ġ\",": 4549,
      "preprocess": 4550,
      "Ġframework": 4551,
      "gather": 4552,
      "Ġcell": 4553,
      "unit": 4554,
      "aveform": 4555,
      "ãĥĪãĥ¬ãĥ¼ãĥ": 4556,
      "ves": 4557,
      "Ġcalcul": 4558,
      "Ġmeans": 4559,
      "Ro": 4560,
      "ĠName": 4561,
      "SIZE": 4562,
      "ibility": 4563,
      "ported": 4564,
      "Ġcorrectly": 4565,
      "********": 4566,
      "DType": 4567,
      "Ġhand": 4568,
      "prune": 4569,
      "Ġpour": 4570,
      "loom": 4571,
      "ìĿĮ": 4572,
      "CODE": 4573,
      "Ġrequests": 4574,
      "ModuleList": 4575,
      "DAT": 4576,
      "downsample": 4577,
      "æ¬": 4578,
      "utorial": 4579,
      "Ġfeed": 4580,
      "Ġapplied": 4581,
      "hoto": 4582,
      "ãģ¦ãģĦ": 4583,
      "Load": 4584,
      "{'": 4585,
      "åĽ": 4586,
      "uke": 4587,
      "ĠViT": 4588,
      "State": 4589,
      "Ġê²ĥ": 4590,
      "ience": 4591,
      "inner": 4592,
      "ãĤ³": 4593,
      "LMHead": 4594,
      "command": 4595,
      "Ġemb": 4596,
      "eng": 4597,
      "broadcast": 4598,
      "ãģĬ": 4599,
      "ĊĠĠĠĠĠĠĠĠĠĠĠĠĠĠĠĠĠĠĠĠĠ": 4600,
      "Ġcho": 4601,
      "processes": 4602,
      "Ġobtained": 4603,
      "preds": 4604,
      "etal": 4605,
      "Ġlaunch": 4606,
      "sigma": 4607,
      "Be": 4608,
      "title": 4609,
      "Ġdilation": 4610,
      "Ġencode": 4611,
      "nection": 4612,
      "FILES": 4613,
      "annelDimension": 4614,
      "rows": 4615,
      "gray": 4616,
      "LogitsProcessor": 4617,
      "ãĥĪãĥ¬ãĥ¼ãĥĭãĥ³ãĤ°": 4618,
      "lection": 4619,
      "ĠBlip": 4620,
      "umentParser": 4621,
      "tropy": 4622,
      "ëĲĺ": 4623,
      "iver": 4624,
      "wait": 4625,
      "ĠFile": 4626,
      "avg": 4627,
      "OCAB": 4628,
      "CLS": 4629,
      "æŀ": 4630,
      "unity": 4631,
      "ĠOr": 4632,
      "olute": 4633,
      "Ġoverr": 4634,
      "rozen": 4635,
      "Ġ('": 4636,
      "unding": 4637,
      "ernels": 4638,
      "([[": 4639,
      "ä¸ĭ": 4640,
      "Iterable": 4641,
      "Entropy": 4642,
      "OM": 4643,
      "field": 4644,
      "Ġthread": 4645,
      "Ġtokenize": 4646,
      "ãĤ¹ãĤ¯": 4647,
      "olicy": 4648,
      "ìĻĢ": 4649,
      "fs": 4650,
      "Ġta": 4651,
      "Ġabs": 4652,
      "ĠEX": 4653,
      "Ġpack": 4654,
      "Blip": 4655,
      "ãĤ·": 4656,
      "Ġresolution": 4657,
      "Ġcommit": 4658,
      "Ġaccess": 4659,
      "KEN": 4660,
      "ef": 4661,
      "xformers": 4662,
      "sdp": 4663,
      "]):": 4664,
      "Int": 4665,
      "relu": 4666,
      "olver": 4667,
      "Ġvers": 4668,
      "...,": 4669,
      ")],": 4670,
      "nown": 4671,
      "Ġloop": 4672,
      "Ġindicates": 4673,
      "ëŁ¬": 4674,
      "ema": 4675,
      "Ġinfer": 4676,
      "Ġgit": 4677,
      "ĠResidual": 4678,
      "weak": 4679,
      "å¿ħè¦ģ": 4680,
      "none": 4681,
      "environ": 4682,
      "Ġ\"`": 4683,
      "Ġdoing": 4684,
      "DIMScheduler": 4685,
      "graph": 4686,
      "æı": 4687,
      "itsand": 4688,
      "å®Ł": 4689,
      "assertIsInstance": 4690,
      "Common": 4691,
      ":<": 4692,
      "FN": 4693,
      "cell": 4694,
      "itive": 4695,
      "ĠPooling": 4696,
      "ĠLayout": 4697,
      "Base": 4698,
      "XLM": 4699,
      "mel": 4700,
      "except": 4701,
      "ĠëĮĢ": 4702,
      "inst": 4703,
      "ĠPeft": 4704,
      "Ċĉĉĉ": 4705,
      "ìĦ¸ìļĶ": 4706,
      "pix": 4707,
      "Ġspace": 4708,
      "sep": 4709,
      "Ġ{'": 4710,
      "amma": 4711,
      "Ġsaving": 4712,
      "uter": 4713,
      "Ġren": 4714,
      "translation": 4715,
      "Ġcolumns": 4716,
      "ĠInitializing": 4717,
      "itsandbytes": 4718,
      "No": 4719,
      "concept": 4720,
      "freq": 4721,
      "cd": 4722,
      "å¯": 4723,
      "mooth": 4724,
      "ħëĭĪëĭ¤": 4725,
      "ãĤĴç": 4726,
      "Ġcomputation": 4727,
      "ling": 4728,
      "unter": 4729,
      ")?.": 4730,
      "ĠÃł": 4731,
      "åĬł": 4732,
      "rag": 4733,
      "segmentation": 4734,
      "dedToken": 4735,
      "Ġì¶Ķ": 4736,
      "detr": 4737,
      "Ġinteg": 4738,
      "Ġ\\\\": 4739,
      "swers": 4740,
      "ìĭľ": 4741,
      "æľī": 4742,
      "ĠTokenizer": 4743,
      "Ġsorted": 4744,
      "ĠíĮĮ": 4745,
      "KL": 4746,
      "hi": 4747,
      "å¼": 4748,
      "__.__": 4749,
      "Ġsepar": 4750,
      "feed": 4751,
      "reason": 4752,
      "¯¸ì§Ģ": 4753,
      "ħį": 4754,
      "istilBert": 4755,
      "ND": 4756,
      "regression": 4757,
      "Ġtransforms": 4758,
      "YPE": 4759,
      "]\",": 4760,
      "aug": 4761,
      "missing": 4762,
      "this": 4763,
      "Ġfloats": 4764,
      "hapes": 4765,
      "bbox": 4766,
      "hot": 4767,
      "plo": 4768,
      "Ġrng": 4769,
      "residual": 4770,
      "resume": 4771,
      "ê°": 4772,
      "Ġcos": 4773,
      "ãģĿ": 4774,
      "Ġpositional": 4775,
      "uge": 4776,
      "vis": 4777,
      "serial": 4778,
      "light": 4779,
      "Ġparallel": 4780,
      "pass": 4781,
      "licing": 4782,
      "OS": 4783,
      "pull": 4784,
      "auth": 4785,
      "ĠĠĠĠĠĠ": 4786,
      "Ġnormalize": 4787,
      "sentencepiece": 4788,
      "ired": 4789,
      "UM": 4790,
      "Ġmodelo": 4791,
      "Ġvar": 4792,
      "osition": 4793,
      "Ġenabled": 4794,
      "freeze": 4795,
      "æ¬¡": 4796,
      "ios": 4797,
      "mk": 4798,
      "istent": 4799,
      "ä¾ĭ": 4800,
      "Ġpattern": 4801,
      "batches": 4802,
      "Ġensure": 4803,
      "ìļ°": 4804,
      "flowing": 4805,
      "Ġround": 4806,
      "lender": 4807,
      "ĠOnly": 4808,
      "Ġqkv": 4809,
      "VisionModel": 4810,
      "Ġgot": 4811,
      "Ġauthor": 4812,
      "ãģĤãĤĬãģ¾ãģĻ": 4813,
      "Ġvectors": 4814,
      "uble": 4815,
      "lier": 4816,
      "Ġflatten": 4817,
      "Ġnetwork": 4818,
      "ci": 4819,
      "safe": 4820,
      "Ġlarg": 4821,
      "Ġsubfolder": 4822,
      "Ġotherwise": 4823,
      "tune": 4824,
      "ĲĨ": 4825,
      "ites": 4826,
      "ugin": 4827,
      "EncoderDecoder": 4828,
      "Ġnormalized": 4829,
      "ì²": 4830,
      "Ġlambda": 4831,
      "Ġeven": 4832,
      "Discrete": 4833,
      "fig": 4834,
      "lectra": 4835,
      "åĩº": 4836,
      "echn": 4837,
      "Deep": 4838,
      "Ġcollections": 4839,
      "ãĥ§ãĥ³": 4840,
      "Ġdecoded": 4841,
      "__(**": 4842,
      "Ġnecess": 4843,
      "cognition": 4844,
      "ories": 4845,
      "ĠLora": 4846,
      "bose": 4847,
      "objects": 4848,
      "DiscreteScheduler": 4849,
      "here": 4850,
      "Ġmult": 4851,
      "quet": 4852,
      "Ġinitialization": 4853,
      "Ġplus": 4854,
      "stages": 4855,
      "Ġknow": 4856,
      "any": 4857,
      "Prediction": 4858,
      "lenderbot": 4859,
      "\"`,": 4860,
      "pooler": 4861,
      "ãģĵãģ®": 4862,
      "ãĥĥãĤ¯": 4863,
      "retrie": 4864,
      "Ġdepen": 4865,
      "qui": 4866,
      "()[": 4867,
      "SeqLM": 4868,
      "Ġratio": 4869,
      "Ġexecut": 4870,
      "Ġquantization": 4871,
      "ļł": 4872,
      "Ġsupports": 4873,
      "Ġtruncated": 4874,
      "Ġpairs": 4875,
      "Ġscaling": 4876,
      "cased": 4877,
      "Ġnb": 4878,
      "Ġhref": 4879,
      "tax": 4880,
      "ArgumentParser": 4881,
      "ggregation": 4882,
      "Ġme": 4883,
      "PATH": 4884,
      "ĠBase": 4885,
      "named": 4886,
      "ĠíĻ": 4887,
      "aml": 4888,
      "istral": 4889,
      "ĠAccelerator": 4890,
      "ĠPadding": 4891,
      "clud": 4892,
      "VisionConfig": 4893,
      "çī": 4894,
      "Ġ&&": 4895,
      "PUT": 4896,
      "Ġinitialize": 4897,
      "Ġcreated": 4898,
      "distilbert": 4899,
      "elem": 4900,
      "ĠCol": 4901,
      "penalty": 4902,
      "íķĺìĹ¬": 4903,
      "Ġdocstring": 4904,
      "Ġhe": 4905,
      "ãĥŀ": 4906,
      "Ġsegmentation": 4907,
      "æ³ķ": 4908,
      "èĩ": 4909,
      "astype": 4910,
      "Ġforce": 4911,
      "nnx": 4912,
      "Ġtargets": 4913,
      "ìĬ¤íĬ¸": 4914,
      "Ġdynamic": 4915,
      "threshold": 4916,
      "Ġtrust": 4917,
      "bfloat": 4918,
      "fe": 4919,
      "íĶĦ": 4920,
      "Ĥ¨": 4921,
      "schedulers": 4922,
      "aries": 4923,
      "oug": 4924,
      "ĠìľĦ": 4925,
      "Imple": 4926,
      "cit": 4927,
      "med": 4928,
      "isible": 4929,
      "egin": 4930,
      "DEFAULT": 4931,
      "ĠEXPECTED": 4932,
      "fine": 4933,
      "ged": 4934,
      "correct": 4935,
      "]}": 4936,
      "ĠQu": 4937,
      "ames": 4938,
      "Ġattribute": 4939,
      "(\\": 4940,
      "just": 4941,
      "erts": 4942,
      "Ġproj": 4943,
      "Form": 4944,
      "acken": 4945,
      "vels": 4946,
      "ãĤµ": 4947,
      "Ġquick": 4948,
      "Ġpooler": 4949,
      "ãĤĪãģĨ": 4950,
      "Ġphoto": 4951,
      "using": 4952,
      "íķĺê¸°": 4953,
      "Ġagain": 4954,
      "randn": 4955,
      "riteria": 4956,
      "Ġexpand": 4957,
      "ever": 4958,
      "ets": 4959,
      "ĠModule": 4960,
      "Ġcombin": 4961,
      "host": 4962,
      "Ġspatial": 4963,
      "tle": 4964,
      "vt": 4965,
      "Ġrand": 4966,
      "encoderKL": 4967,
      "parser": 4968,
      "Ġcorresponds": 4969,
      "Ġcaption": 4970,
      "]).": 4971,
      "Ġlead": 4972,
      "íĸī": 4973,
      "Hello": 4974,
      "UNet": 4975,
      "ially": 4976,
      "Ġfuture": 4977,
      "Ġvia": 4978,
      "bosity": 4979,
      "PyTorch": 4980,
      "ëĲľ": 4981,
      "IGH": 4982,
      "µ¬": 4983,
      "checkpoints": 4984,
      "ìŀħëĭĪëĭ¤": 4985,
      "Act": 4986,
      "Mobile": 4987,
      "RI": 4988,
      "ended": 4989,
      "problem": 4990,
      "LMv": 4991,
      "bugging": 4992,
      "stract": 4993,
      "Ġnode": 4994,
      "ĠìĿ´ë¯¸ì§Ģ": 4995,
      "spaces": 4996,
      "tpu": 4997,
      "çĲĨ": 4998,
      "Ġho": 4999,
      "]]:": 5000,
      "Ġtypes": 5001,
      "Ġstorage": 5002,
      "Ġ```\"\"\"": 5003,
      "Ġinspect": 5004,
      "Ġì§": 5005,
      "convnext": 5006,
      "ĠControlNet": 5007,
      "clamp": 5008,
      "als": 5009,
      "());": 5010,
      "Ġdefine": 5011,
      "ãģ«ãģ¯": 5012,
      "âĶģâĶģâĶģâĶģâĶģâĶģâĶģâĶģ": 5013,
      "Ġsign": 5014,
      "Ġdu": 5015,
      "Ġkv": 5016,
      "ferences": 5017,
      "ampler": 5018,
      "ä¸Ń": 5019,
      "ĠLearning": 5020,
      "Ġsa": 5021,
      "pectrogram": 5022,
      "></": 5023,
      "ãģ§ãģ¯": 5024,
      "ĠDecay": 5025,
      "Ġbuffer": 5026,
      "¦Ĥ": 5027,
      "Ġfinet": 5028,
      "Ġpip": 5029,
      "ãĥĿ": 5030,
      "Ġhash": 5031,
      "ãģĻãĤĭãģĵãģ¨": 5032,
      "asus": 5033,
      "Ġinside": 5034,
      "tokenized": 5035,
      "ãĥ¥": 5036,
      "usize": 5037,
      "Ġmissing": 5038,
      "ceiver": 5039,
      "Ġelements": 5040,
      "ĠDDP": 5041,
      "Ġcount": 5042,
      "ä¸Ĭ": 5043,
      "Adapter": 5044,
      "DiffusionPipeline": 5045,
      "latest": 5046,
      "Ġ\"_": 5047,
      "Ġreason": 5048,
      "Ġeffect": 5049,
      "track": 5050,
      "Ġsyntax": 5051,
      "ped": 5052,
      "exists": 5053,
      "trast": 5054,
      "Detr": 5055,
      "xlm": 5056,
      "ëĤĺ": 5057,
      "Ġcard": 5058,
      "([\"": 5059,
      "Ġsearch": 5060,
      "ControlNet": 5061,
      "chine": 5062,
      "options": 5063,
      "_,": 5064,
      "Ġbert": 5065,
      "CrossAttention": 5066,
      "Ġincre": 5067,
      "Ġplain": 5068,
      "å½": 5069,
      "Ġvector": 5070,
      "wayml": 5071,
      "Ã³n": 5072,
      "Hugging": 5073,
      "mn": 5074,
      "tgt": 5075,
      "Ġ,": 5076,
      "ilt": 5077,
      "Ġhigher": 5078,
      "Ġgeneral": 5079,
      "AX": 5080,
      "ckpt": 5081,
      "ĠMax": 5082,
      "Projection": 5083,
      "Ġtensorflow": 5084,
      "¬¸": 5085,
      "ä¿": 5086,
      "Ġop": 5087,
      "Ġefficient": 5088,
      "Ġê¸°": 5089,
      "Ġeasily": 5090,
      ")},": 5091,
      "Âł": 5092,
      "ĠVision": 5093,
      "ìłĦ": 5094,
      "Ġ?": 5095,
      "Ġsto": 5096,
      "iform": 5097,
      "æĤ¨": 5098,
      "Ġfmt": 5099,
      "reference": 5100,
      "execut": 5101,
      "Ġwrite": 5102,
      "extraction": 5103,
      "ãĥĪãĥ¼ãĤ¯": 5104,
      "çĶ»": 5105,
      "ĠDatasets": 5106,
      "ique": 5107,
      "ute": 5108,
      "Ġrest": 5109,
      "papers": 5110,
      "hr": 5111,
      "âļł": 5112,
      "Ġrhs": 5113,
      "Ġpers": 5114,
      "overwrite": 5115,
      "çĶŁ": 5116,
      "Ġgoing": 5117,
      "ĠStableDiffusionPipeline": 5118,
      "Neo": 5119,
      "Wrapper": 5120,
      "flex": 5121,
      "lash": 5122,
      "æĢ": 5123,
      "amW": 5124,
      "ãĤ§": 5125,
      "ĠImport": 5126,
      "batched": 5127,
      "issues": 5128,
      "olutional": 5129,
      "Ġoffload": 5130,
      "Run": 5131,
      "ìĺ": 5132,
      "transforms": 5133,
      "DownBlock": 5134,
      "`\"": 5135,
      "apan": 5136,
      "Ġtemb": 5137,
      "tok": 5138,
      "ĠLanguage": 5139,
      "SEP": 5140,
      "Ġverify": 5141,
      "Ġtakes": 5142,
      "ãĤª": 5143,
      "ĠLinear": 5144,
      "ĠReg": 5145,
      "splits": 5146,
      "etch": 5147,
      "SelfAttention": 5148,
      "Ġtracing": 5149,
      "âļłï¸ı": 5150,
      "DX": 5151,
      "candle": 5152,
      "(\".\")": 5153,
      "Ġnoisy": 5154,
      "body": 5155,
      "ubic": 5156,
      "çĶ»åĥı": 5157,
      "Llama": 5158,
      "æī": 5159,
      "dec": 5160,
      "Ġempty": 5161,
      "forma": 5162,
      "ãģķãģĦ": 5163,
      "æİ": 5164,
      "encoded": 5165,
      "ĠsetUp": 5166,
      "Ġdims": 5167,
      "íĻĶ": 5168,
      "slicing": 5169,
      "wandb": 5170,
      "æŃ": 5171,
      "Ġart": 5172,
      "ont": 5173,
      "requests": 5174,
      "OT": 5175,
      "Ġdocument": 5176,
      "ga": 5177,
      "rod": 5178,
      "xx": 5179,
      "åį": 5180,
      "enabled": 5181,
      "å¤§": 5182,
      "ĠLabels": 5183,
      "Implemented": 5184,
      "RANS": 5185,
      "Segmentation": 5186,
      "Ġinstantiate": 5187,
      "ìłľ": 5188,
      "Ġfew": 5189,
      "TOKEN": 5190,
      "Cpu": 5191,
      "oral": 5192,
      "Ġdistribution": 5193,
      "reater": 5194,
      "ĠAs": 5195,
      "ImplementedError": 5196,
      "lt": 5197,
      "Ġable": 5198,
      "ĠDown": 5199,
      "Ġprune": 5200,
      "Ġquantized": 5201,
      "Ġê²½": 5202,
      "umprod": 5203,
      "ordin": 5204,
      "\\\\": 5205,
      "two": 5206,
      "Ġgrid": 5207,
      "Ġrescale": 5208,
      "ìŀ¥": 5209,
      "_()": 5210,
      "ĠPrepare": 5211,
      "Ġdownloading": 5212,
      "Identity": 5213,
      "aseModelOutputWithPooling": 5214,
      "Pool": 5215,
      "nv": 5216,
      "sto": 5217,
      "Ġ`'": 5218,
      "posed": 5219,
      "ackend": 5220,
      "Ġpick": 5221,
      "ãģ£": 5222,
      "ĠìłĦ": 5223,
      "ãģıãģł": 5224,
      "ãģıãģłãģķãģĦ": 5225,
      "Reg": 5226,
      "chat": 5227,
      "GENET": 5228,
      "lone": 5229,
      "ismatch": 5230,
      "ields": 5231,
      "ĠXLM": 5232,
      "quival": 5233,
      "cumprod": 5234,
      "Ġsom": 5235,
      "Ġbbox": 5236,
      "()))": 5237,
      "Ġdimensions": 5238,
      "works": 5239,
      "Ġprobabilities": 5240,
      ":`~": 5241,
      "icubic": 5242,
      "Ġë¶": 5243,
      "ĠìĦ¤": 5244,
      "ĠFeatures": 5245,
      "que": 5246,
      "ĠíĨ": 5247,
      "ĠArch": 5248,
      "Ġviewer": 5249,
      "ı¬": 5250,
      "RGB": 5251,
      "aux": 5252,
      "gor": 5253,
      ">=": 5254,
      "ters": 5255,
      "essages": 5256,
      "Warning": 5257,
      "tom": 5258,
      "ĊĠĠĠĠĠĠĠĠĠĠĠĠĠĠĠĠĠ": 5259,
      "factory": 5260,
      "SEQ": 5261,
      "rust": 5262,
      "Ã§": 5263,
      "report": 5264,
      "__}": 5265,
      "ession": 5266,
      "ä½ľ": 5267,
      "ãģķãĤĮãģŁ": 5268,
      "ĠNotImplementedError": 5269,
      "tools": 5270,
      "Ġsection": 5271,
      "Ġlengths": 5272,
      "quantization": 5273,
      "chars": 5274,
      "Ra": 5275,
      "Ġless": 5276,
      "Ġhard": 5277,
      "ĠPar": 5278,
      "runwayml": 5279,
      "limit": 5280,
      "ĠMDX": 5281,
      "Ġintern": 5282,
      "rendered": 5283,
      "patterns": 5284,
      "Array": 5285,
      "'],": 5286,
      "ium": 5287,
      "ëª": 5288,
      "Ġmy": 5289,
      "upsample": 5290,
      "Ġusually": 5291,
      "ĠSoft": 5292,
      "+)": 5293,
      "New": 5294,
      "[...,": 5295,
      "¤º": 5296,
      "·¸": 5297,
      "ĠPE": 5298,
      "Ġperforming": 5299,
      "Ġhyper": 5300,
      "ĠPatch": 5301,
      "AMP": 5302,
      "READ": 5303,
      "ĠGeneration": 5304,
      "deredDict": 5305,
      "Ġannot": 5306,
      "Tests": 5307,
      "ãĥ³ãĤ¹": 5308,
      "ĠInstant": 5309,
      "Ġnecessary": 5310,
      "Bo": 5311,
      "dl": 5312,
      "Ġim": 5313,
      "Ġìŀĳ": 5314,
      "Ġextension": 5315,
      "ãĤ¸": 5316,
      "fixt": 5317,
      "foo": 5318,
      "Ġnamed": 5319,
      "ĠWeights": 5320,
      "dynamic": 5321,
      "å¦Ĥ": 5322,
      "Ġregular": 5323,
      "File": 5324,
      "stand": 5325,
      "reward": 5326,
      "Ġimpro": 5327,
      "Ġëį°": 5328,
      "basic": 5329,
      "begin": 5330,
      "Ġfix": 5331,
      "Ġacross": 5332,
      "Ġlines": 5333,
      "Ġnormalization": 5334,
      "åĬĽ": 5335,
      "Parallel": 5336,
      "CrossAttn": 5337,
      "br": 5338,
      "Ġlang": 5339,
      "Ġqueries": 5340,
      "Read": 5341,
      "ıĻ": 5342,
      "ato": 5343,
      "ĠAccelerate": 5344,
      "ĠONN": 5345,
      "verbosity": 5346,
      "Ġwho": 5347,
      "ĠONNX": 5348,
      "ç´": 5349,
      "Ġreduce": 5350,
      "ĠOpen": 5351,
      "ega": 5352,
      "Ġattributes": 5353,
      "istory": 5354,
      "ĠPer": 5355,
      "Ġìĸ": 5356,
      "ãĥĲ": 5357,
      "Ġìĭ": 5358,
      "ĠTFAutoModelFor": 5359,
      "Ġprocessed": 5360,
      "argmax": 5361,
      "ĠAudio": 5362,
      "ffers": 5363,
      "CrossAttentions": 5364,
      "andidate": 5365,
      "iliary": 5366,
      "apanese": 5367,
      "atus": 5368,
      "ros": 5369,
      "Ġdir": 5370,
      "Ġmuch": 5371,
      "ãģĽ": 5372,
      "ãģĮãģĤãĤĬãģ¾ãģĻ": 5373,
      "icial": 5374,
      "Ġseem": 5375,
      "Ġìĭ¤": 5376,
      "truncation": 5377,
      "padded": 5378,
      "ìĪĺ": 5379,
      "staticmethod": 5380,
      "WAR": 5381,
      "Ġcat": 5382,
      "Ġalign": 5383,
      "active": 5384,
      "Ġëª¨ëį¸ìĿĦ": 5385,
      "Callback": 5386,
      "ger": 5387,
      "Ġbig": 5388,
      "launch": 5389,
      "ĠACT": 5390,
      "ĠCLIPTextModel": 5391,
      "END": 5392,
      "åĲĮ": 5393,
      "Ġscripts": 5394,
      "Collator": 5395,
      "Sh": 5396,
      "Ġtweak": 5397,
      "coords": 5398,
      "Ġpreds": 5399,
      "ĠPipelineTesterMixin": 5400,
      "èĩª": 5401,
      "gorith": 5402,
      "cs": 5403,
      "è¾": 5404,
      "ottleneck": 5405,
      "ãĤĵ": 5406,
      "Ġstatic": 5407,
      "Ġdownloaded": 5408,
      "MB": 5409,
      "__,": 5410,
      "ãĥ¼ãĥĪ": 5411,
      "normalized": 5412,
      "æĺ¯": 5413,
      "Code": 5414,
      "find": 5415,
      "Ġshuffle": 5416,
      "Ġbenchmark": 5417,
      "ãĤ¨": 5418,
      "à°¨": 5419,
      "Ġcontribut": 5420,
      "gu": 5421,
      "lish": 5422,
      "UpBlock": 5423,
      "merges": 5424,
      "Ġcondition": 5425,
      "categ": 5426,
      "æĿ": 5427,
      "arBuilder": 5428,
      "coders": 5429,
      "Ġuna": 5430,
      "ĠAutoConfig": 5431,
      "bl": 5432,
      "Ġscope": 5433,
      "Ġrecomm": 5434,
      "Ġrequest": 5435,
      "swin": 5436,
      "Max": 5437,
      "æĽ": 5438,
      "Ġoption": 5439,
      "Ġgen": 5440,
      "product": 5441,
      "ĠSD": 5442,
      "whisper": 5443,
      "Ġpipelines": 5444,
      "Ġshared": 5445,
      "summarization": 5446,
      "Ġâ": 5447,
      "Ġsystem": 5448,
      "ãģĤãĤĭ": 5449,
      "EIGH": 5450,
      "sagemaker": 5451,
      "}'": 5452,
      "references": 5453,
      "ãģ©": 5454,
      "__`]": 5455,
      "Ġcalling": 5456,
      "]`.": 5457,
      "Ġbin": 5458,
      "__\":": 5459,
      "compat": 5460,
      "æĸ¹æ³ķ": 5461,
      ")])": 5462,
      "Ġ\"[": 5463,
      "ĠDim": 5464,
      "CLASS": 5465,
      "ãģĭãĤī": 5466,
      "Ġdataclasses": 5467,
      "ãĥĩãĥ¼ãĤ¿": 5468,
      "ĠNormalization": 5469,
      "can": 5470,
      "ĠÃ©": 5471,
      "plus": 5472,
      "anguages": 5473,
      "evant": 5474,
      "frameworkcontent": 5475,
      "TrainingArguments": 5476,
      "ĠErr": 5477,
      "dilation": 5478,
      "ìĥ": 5479,
      "prompts": 5480,
      "Ġrele": 5481,
      "assertIsNot": 5482,
      "EntropyLoss": 5483,
      "allow": 5484,
      "scaled": 5485,
      "èªŀ": 5486,
      "LOC": 5487,
      "blip": 5488,
      "sn": 5489,
      "Ġum": 5490,
      "Ġcpu": 5491,
      "requency": 5492,
      "ãĤ¤ãĤ": 5493,
      "PARA": 5494,
      "æŀľ": 5495,
      "ĠOne": 5496,
      "Ġversions": 5497,
      "dle": 5498,
      "schema": 5499,
      "iding": 5500,
      "urs": 5501,
      "irseq": 5502,
      "Ġstarting": 5503,
      "curs": 5504,
      "Storage": 5505,
      "cord": 5506,
      "åħ¥": 5507,
      "variant": 5508,
      "BatchNorm": 5509,
      "description": 5510,
      "backend": 5511,
      "ãĥĹãĥŃ": 5512,
      "Ġgood": 5513,
      "Ġframe": 5514,
      "assertIsNotNone": 5515,
      "MASK": 5516,
      "ĠAut": 5517,
      "Conformer": 5518,
      "estions": 5519,
      "Transformers": 5520,
      "Ġallows": 5521,
      "ValueError": 5522,
      ".)": 5523,
      "ãģĪ": 5524,
      "ORT": 5525,
      "Group": 5526,
      "multip": 5527,
      "Ġtoo": 5528,
      "ĠInput": 5529,
      "arian": 5530,
      "Ġbackward": 5531,
      "Ġissue": 5532,
      "ì¤ĳ": 5533,
      "__.": 5534,
      "irection": 5535,
      "Info": 5536,
      "predictor": 5537,
      "ĠCLIPTokenizer": 5538,
      "ĠPEFT": 5539,
      "rest": 5540,
      "ë°": 5541,
      "Ġdataloader": 5542,
      "ĠUp": 5543,
      "server": 5544,
      "Ġëĭ¤ìĿĮ": 5545,
      "queeze": 5546,
      "endswith": 5547,
      "ives": 5548,
      "Ġinitializing": 5549,
      "clean": 5550,
      "Ġpolicy": 5551,
      "trastive": 5552,
      "Mult": 5553,
      "Split": 5554,
      "crate": 5555,
      "ric": 5556,
      "Ġweighted": 5557,
      "íķĺê³ł": 5558,
      "ãĤĴä½¿çĶ¨ãģĹãģ¦": 5559,
      "ĠArchitecture": 5560,
      "SON": 5561,
      "ymb": 5562,
      "Ġspectrogram": 5563,
      "usion": 5564,
      "ãĥ¼ãĥ«": 5565,
      "Ġstrings": 5566,
      "erialize": 5567,
      "Raises": 5568,
      "ccess": 5569,
      "Ġresize": 5570,
      "Ġdownsample": 5571,
      "OUTPUT": 5572,
      "eRO": 5573,
      "painting": 5574,
      "ä¼": 5575,
      "æ¸": 5576,
      "Ġdeepspeed": 5577,
      "assertRaises": 5578,
      "NE": 5579,
      "mobile": 5580,
      "nÃ©": 5581,
      "Ġaux": 5582,
      "ĠAverage": 5583,
      "ĠLet": 5584,
      "à±ģ": 5585,
      "ê²Į": 5586,
      "city": 5587,
      "ident": 5588,
      "rep": 5589,
      "Ġmachine": 5590,
      "ĠNe": 5591,
      "LoaderMixin": 5592,
      "hand": 5593,
      "nan": 5594,
      "ĠMomentum": 5595,
      "itespace": 5596,
      "çĽ": 5597,
      "Ġduplic": 5598,
      "Ġpe": 5599,
      "Ġschedule": 5600,
      "Ġdecay": 5601,
      "mlm": 5602,
      "Ġerrors": 5603,
      "commit": 5604,
      "formable": 5605,
      "](./": 5606,
      "ĠDeepSpeed": 5607,
      "BA": 5608,
      "wik": 5609,
      "é¡": 5610,
      "íķĺìĦ¸ìļĶ": 5611,
      "Ġimplemented": 5612,
      "åŃĺ": 5613,
      "ĠImportError": 5614,
      "Op": 5615,
      "learn": 5616,
      "most": 5617,
      "Ġupload": 5618,
      "struction": 5619,
      "wi": 5620,
      "Ġextractor": 5621,
      "onent": 5622,
      "Ġbatches": 5623,
      "It": 5624,
      "rodu": 5625,
      "åĭ": 5626,
      "Ġ\"$": 5627,
      "\"))?;": 5628,
      "Ġtokenization": 5629,
      "Ġonce": 5630,
      "MAE": 5631,
      "Ġscalar": 5632,
      "Ġupdated": 5633,
      "amed": 5634,
      "Ġrelated": 5635,
      "ĠResults": 5636,
      "å°Ĩ": 5637,
      "wer": 5638,
      "xla": 5639,
      "Ġadding": 5640,
      "alphas": 5641,
      "Ġinclud": 5642,
      "()),": 5643,
      "booth": 5644,
      "reambooth": 5645,
      "ĠTrainingArguments": 5646,
      "depths": 5647,
      "================": 5648,
      "Ġadapters": 5649,
      "olo": 5650,
      "Ġtag": 5651,
      "arse": 5652,
      "ado": 5653,
      "Ġpositive": 5654,
      "Ġleast": 5655,
      "Ġdescription": 5656,
      "location": 5657,
      "Only": 5658,
      "Swin": 5659,
      "otion": 5660,
      "Ġexact": 5661,
      "Inter": 5662,
      "Ġinherits": 5663,
      "based": 5664,
      "Ã¶": 5665,
      "number": 5666,
      "`.\"": 5667,
      "DIA": 5668,
      "å¸¸": 5669,
      "Ġlink": 5670,
      "accuracy": 5671,
      "spatial": 5672,
      "åı¯ä»¥": 5673,
      "Ġfill": 5674,
      "levels": 5675,
      "ĠApp": 5676,
      "Ġdog": 5677,
      "ĠmodÃ¨": 5678,
      "ĠìĥĿ": 5679,
      "Deberta": 5680,
      "ĠTasks": 5681,
      "ìķ¼": 5682,
      "Ġanother": 5683,
      "het": 5684,
      "ĠConfigTester": 5685,
      "EIGHTS": 5686,
      "<'": 5687,
      "ĠĠĠĠĠĠĠĠĠ": 5688,
      "Ġresample": 5689,
      "Ġparse": 5690,
      "SION": 5691,
      "Ġlarger": 5692,
      "ough": 5693,
      "Ġê²½ìļ°": 5694,
      "tuned": 5695,
      "fsdp": 5696,
      "yaml": 5697,
      "istep": 5698,
      "Ġreal": 5699,
      "etry": 5700,
      "VIDIA": 5701,
      "ĠEfficientNet": 5702,
      "magenet": 5703,
      "NG": 5704,
      "ĠSE": 5705,
      "](#": 5706,
      "apping": 5707,
      "ndim": 5708,
      "Ġlayout": 5709,
      "anges": 5710,
      "ëł¥": 5711,
      "Ġoptions": 5712,
      "ĠìĺĪ": 5713,
      "Ps": 5714,
      "(\".": 5715,
      "tags": 5716,
      "ãĢģ`": 5717,
      "âĶĢ": 5718,
      "ãģªãģĦ": 5719,
      "ĠCrossEntropyLoss": 5720,
      "LMHeadModel": 5721,
      "stability": 5722,
      "],)": 5723,
      "ĠNo": 5724,
      "ĠĠĠĠĠĠĠĠĠĠĠĠĠĠĠĠĠĠĠĠĠĠĠĠĠĠĠĠĠĠĠĠĠĠĠĠĠĠĠĠĠĠĠĠĠĠĠĠĠĠĠĠĠĠĠĠĠĠĠĠĠĠĠĠ": 5725,
      "Ġë°©": 5726,
      "Pix": 5727,
      "ances": 5728,
      "ĠLong": 5729,
      "Ġresume": 5730,
      ")?,": 5731,
      "pooling": 5732,
      "distance": 5733,
      "iques": 5734,
      "Ġ\"\"\",": 5735,
      "=$": 5736,
      "Debug": 5737,
      "ĠAddedToken": 5738,
      "SC": 5739,
      "vq": 5740,
      "Ã¤": 5741,
      "ìĽ": 5742,
      "Ġsimp": 5743,
      "Ġinner": 5744,
      "ĠType": 5745,
      "ensional": 5746,
      ",)`,": 5747,
      "Or": 5748,
      "Ġrot": 5749,
      "quantize": 5750,
      "shortcut": 5751,
      "æĢ§": 5752,
      "Per": 5753,
      "Ġmsg": 5754,
      "Ġimportant": 5755,
      "ĠMetadata": 5756,
      "running": 5757,
      "à°°": 5758,
      "manager": 5759,
      "ë§Į": 5760,
      "moothing": 5761,
      "Ġrem": 5762,
      "ĠIMA": 5763,
      "Ġunit": 5764,
      "ĠMetrics": 5765,
      "izedString": 5766,
      "Ġactual": 5767,
      "è¿Ļ": 5768,
      "ining": 5769,
      "ipyn": 5770,
      "udent": 5771,
      "Ġvariable": 5772,
      "ipynb": 5773,
      "ķĮ": 5774,
      "Ġbit": 5775,
      "semantic": 5776,
      "ops": 5777,
      "wl": 5778,
      "ç½": 5779,
      "igram": 5780,
      "regnet": 5781,
      "merge": 5782,
      "fb": 5783,
      "lete": 5784,
      "tol": 5785,
      "comput": 5786,
      "schedul": 5787,
      "Ġwarmup": 5788,
      "ully": 5789,
      "Ġtexts": 5790,
      "msg": 5791,
      "ocs": 5792,
      "ermark": 5793,
      "ìĿ´íĦ°": 5794,
      "ĠThese": 5795,
      "ordinates": 5796,
      "ĠìĥĿìĦ±": 5797,
      "hu": 5798,
      "Ġpix": 5799,
      "Ġnous": 5800,
      "ĠUni": 5801,
      "ĠíĽ": 5802,
      "beit": 5803,
      "åº¦": 5804,
      "Note": 5805,
      "style": 5806,
      "Ġwaveform": 5807,
      "uman": 5808,
      "assistant": 5809,
      "istency": 5810,
      "ĠOver": 5811,
      "ĠHere": 5812,
      "ĠXL": 5813,
      "xm": 5814,
      "atermark": 5815,
      "andas": 5816,
      "ĠCallable": 5817,
      "Ġexperiment": 5818,
      "writer": 5819,
      ")\",": 5820,
      "sys": 5821,
      "Ġdetect": 5822,
      "ĠFLO": 5823,
      "ething": 5824,
      "Ġepsilon": 5825,
      "ImgPipeline": 5826,
      "ãĤĪãģĨãģ«": 5827,
      "(\"/": 5828,
      "ĠPa": 5829,
      "Ġund": 5830,
      "ŃãĤ¹ãĥĪ": 5831,
      "real": 5832,
      "urther": 5833,
      "texts": 5834,
      "Sequential": 5835,
      "ãĥķãĤ©": 5836,
      "deterministic": 5837,
      "Ġport": 5838,
      "à°¾": 5839,
      "Ġíģ": 5840,
      "reat": 5841,
      "ESS": 5842,
      "install": 5843,
      "Open": 5844,
      "ically": 5845,
      "laub": 5846,
      "ersation": 5847,
      "\"]]": 5848,
      "âĸģ": 5849,
      "Ġwriter": 5850,
      "Ġrows": 5851,
      "NeX": 5852,
      "ĊĠĠĠĠĠĠĠĠĠĠĠĠĠĠĠĠĠĠĠĠĠĠĠĠĠĠĠĠĠĠĠĠĠĠĠ": 5853,
      "Ġaccepts": 5854,
      "ãĥĨãĤŃãĤ¹ãĥĪ": 5855,
      "peaker": 5856,
      "Ġbranch": 5857,
      "ĠCUDA": 5858,
      "ĠSeam": 5859,
      "timestamp": 5860,
      "Ġrepresentation": 5861,
      "ĠInterpolation": 5862,
      "Map": 5863,
      "Ġlonger": 5864,
      "~~~~~~~~": 5865,
      "Sentence": 5866,
      "Ġfx": 5867,
      "Ġhaving": 5868,
      "ĠString": 5869,
      "ridge": 5870,
      "åıĤ": 5871,
      "nsfw": 5872,
      "ĠOrderedDict": 5873,
      "ĠCollection": 5874,
      "ĠSeamlessM": 5875,
      ",),": 5876,
      "Like": 5877,
      "oken": 5878,
      "è§": 5879,
      "parametr": 5880,
      "Ġchang": 5881,
      "à¤¾": 5882,
      "Ġoverwrite": 5883,
      "Ġprocessors": 5884,
      "Ġpartic": 5885,
      "irectional": 5886,
      "URL": 5887,
      "Vis": 5888,
      "Ġmultip": 5889,
      "Ġstill": 5890,
      "ĠĠĠĠĠĠĠĠĠĠĠĠĠĠĠ": 5891,
      "inds": 5892,
      "logit": 5893,
      "gether": 5894,
      "Ġê³": 5895,
      "sigmas": 5896,
      "laubert": 5897,
      "ÃŃ": 5898,
      "codebook": 5899,
      "Ġjob": 5900,
      "Ġoffsets": 5901,
      "Albert": 5902,
      "Lora": 5903,
      "but": 5904,
      "]);": 5905,
      "Ġcolor": 5906,
      "ìŀĲ": 5907,
      "uon": 5908,
      "war": 5909,
      "ars": 5910,
      "Ġwra": 5911,
      "ĠSwin": 5912,
      "ĠWill": 5913,
      "Ġnoqa": 5914,
      "Search": 5915,
      "ackbone": 5916,
      "inished": 5917,
      "ë¶": 5918,
      "Ġpaths": 5919,
      "éĢļ": 5920,
      "stopping": 5921,
      "Callable": 5922,
      "VER": 5923,
      "½Ķ": 5924,
      "imiter": 5925,
      "olved": 5926,
      "deprec": 5927,
      "thed": 5928,
      "ĠGroup": 5929,
      "matrix": 5930,
      "ãģĳ": 5931,
      "conds": 5932,
      "pacity": 5933,
      "request": 5934,
      "Electra": 5935,
      "TRANS": 5936,
      "ä¹": 5937,
      "æĹ": 5938,
      "attribut": 5939,
      "Processing": 5940,
      "ĠAutoProcessor": 5941,
      "readthed": 5942,
      "spans": 5943,
      "readthedocs": 5944,
      "pick": 5945,
      "til": 5946,
      "Ġsizes": 5947,
      "alid": 5948,
      "odal": 5949,
      "Ġonnx": 5950,
      "ĠVAE": 5951,
      "plan": 5952,
      "served": 5953,
      "poth": 5954,
      "ĠAutoencoderKL": 5955,
      "Ġconditioning": 5956,
      "ç½®": 5957,
      "second": 5958,
      "tool": 5959,
      "adapters": 5960,
      "PipelineOutput": 5961,
      "TEST": 5962,
      "Ġpixels": 5963,
      "mos": 5964,
      "ĠCrop": 5965,
      "æľ¬": 5966,
      "ãĥ¢ãĥĩãĥ«ãĤĴ": 5967,
      "differ": 5968,
      "rotary": 5969,
      "stabilityai": 5970,
      "ìħ": 5971,
      "ropy": 5972,
      "Ġcomplet": 5973,
      "Ġexisting": 5974,
      "sync": 5975,
      "ĠLlama": 5976,
      "ĠIN": 5977,
      "reshaped": 5978,
      "Ġtrainable": 5979,
      "without": 5980,
      "?\",": 5981,
      "TEXT": 5982,
      "cu": 5983,
      "ĠBaseModelOutput": 5984,
      "pointer": 5985,
      "lexity": 5986,
      "Normalizer": 5987,
      "ĠFLOPs": 5988,
      "Us": 5989,
      "ratch": 5990,
      "Ġcu": 5991,
      "Ġ\"\",": 5992,
      "Ġmodello": 5993,
      "Ġremain": 5994,
      "Ġreport": 5995,
      "Ġvous": 5996,
      "Ġstrategy": 5997,
      "ĠDataLoader": 5998,
      "Ġtmpdirname": 5999,
      "ordPiece": 6000,
      "MEAN": 6001,
      "Ġsmaller": 6002,
      "echniques": 6003,
      "ein": 6004,
      "Ġsplits": 6005,
      "ione": 6006,
      "Ġct": 6007,
      "ĠHidden": 6008,
      "etrieval": 6009,
      "Ġdepths": 6010,
      "shards": 6011,
      "uler": 6012,
      "Ġmak": 6013,
      "Ġabstract": 6014,
      "VA": 6015,
      "blog": 6016,
      "inally": 6017,
      "Ġthreshold": 6018,
      "ĠGoogle": 6019,
      "segments": 6020,
      "äºĨ": 6021,
      "ail": 6022,
      "false": 6023,
      "§ĭ": 6024,
      "Ġregister": 6025,
      "Ġextended": 6026,
      "ĠOutput": 6027,
      "Ġys": 6028,
      "çī¹": 6029,
      "ris": 6030,
      "Ã£": 6031,
      "ando": 6032,
      "deberta": 6033,
      "ĠPct": 6034,
      "tensorboard": 6035,
      "processors": 6036,
      "trust": 6037,
      "ChannelDimension": 6038,
      "notebooks": 6039,
      "duration": 6040,
      "Ġterm": 6041,
      "polate": 6042,
      "Ġvs": 6043,
      "layerdrop": 6044,
      "activ": 6045,
      "moid": 6046,
      "CO": 6047,
      "vation": 6048,
      "ĺĲ": 6049,
      "Ġmel": 6050,
      "ptions": 6051,
      "ĠMulti": 6052,
      "à°Ĥ": 6053,
      "ĠKandinsky": 6054,
      "Ġbucket": 6055,
      "Ġìĭľ": 6056,
      ">\"": 6057,
      "SH": 6058,
      "fit": 6059,
      "Ġ`.": 6060,
      "ĠHf": 6061,
      "ASET": 6062,
      "Ġcollate": 6063,
      "Ġidentifier": 6064,
      "Ġbeginning": 6065,
      "Prop": 6066,
      "UB": 6067,
      "au": 6068,
      "Ġãģ®": 6069,
      "Ġedit": 6070,
      "inger": 6071,
      "Ġfaster": 6072,
      "Ġnested": 6073,
      "ĠPart": 6074,
      "Ġsuperclass": 6075,
      "vised": 6076,
      "AMPLE": 6077,
      "DModel": 6078,
      "åĳ": 6079,
      "Ġãģ¯": 6080,
      "Ġsafe": 6081,
      "Ġflag": 6082,
      "Ġì²": 6083,
      "buffers": 6084,
      "overflowing": 6085,
      "iteral": 6086,
      "Ġaccount": 6087,
      "Ġflash": 6088,
      "âĢĻ": 6089,
      "Ġconsider": 6090,
      "ĠComp": 6091,
      "Ġtaken": 6092,
      "/.": 6093,
      "guid": 6094,
      "imal": 6095,
      "masking": 6096,
      "rame": 6097,
      "ĠThere": 6098,
      "nnxConfig": 6099,
      "ë¸": 6100,
      "ĠIs": 6101,
      "fail": 6102,
      "Ġpreprocessing": 6103,
      "Ġê°Ļ": 6104,
      "åı¯èĥ½": 6105,
      "gacy": 6106,
      "gorithm": 6107,
      "Please": 6108,
      "gan": 6109,
      "pex": 6110,
      "Ġexport": 6111,
      "ĠWith": 6112,
      "ĠEach": 6113,
      "overlap": 6114,
      "ãģķãĤĮãģ¾ãģĻ": 6115,
      "xmert": 6116,
      "dot": 6117,
      "iÃ³n": 6118,
      "link": 6119,
      "nie": 6120,
      "ĠãĤĴ": 6121,
      "Ġti": 6122,
      "Ġdec": 6123,
      "ĠSw": 6124,
      "plugin": 6125,
      "Ġsummary": 6126,
      "Ã£o": 6127,
      "Ġtri": 6128,
      "Ġsur": 6129,
      "Ġ\"/": 6130,
      "ãģ³": 6131,
      "tag": 6132,
      "ENT": 6133,
      "shot": 6134,
      "condition": 6135,
      "Ġprocesses": 6136,
      "AME": 6137,
      "chunks": 6138,
      "íĺ": 6139,
      "inforce": 6140,
      "Ġpot": 6141,
      "Ġprodu": 6142,
      "PRE": 6143,
      "Ġmerges": 6144,
      "Ġcompatibility": 6145,
      "ocoder": 6146,
      "same": 6147,
      "ìĨ": 6148,
      "Ġschedulers": 6149,
      "ĠClone": 6150,
      "Modeling": 6151,
      "egasus": 6152,
      "lies": 6153,
      "Ġzu": 6154,
      "ĠìĿ¸": 6155,
      "response": 6156,
      "ä¸Ģä¸ª": 6157,
      "Key": 6158,
      "hid": 6159,
      "your": 6160,
      "è©": 6161,
      "mps": 6162,
      "Ġtogether": 6163,
      "agent": 6164,
      "Ġformatt": 6165,
      "Ġfail": 6166,
      "Ġplace": 6167,
      "*.": 6168,
      "<()": 6169,
      "FO": 6170,
      "Ġbackend": 6171,
      "ĠPosition": 6172,
      "Ġdataclass": 6173,
      "Ġvariables": 6174,
      "evaluate": 6175,
      "çµ": 6176,
      "çİ": 6177,
      "ĠSeg": 6178,
      "Ġnumer": 6179,
      "Ġëĭ": 6180,
      "Ġcurrently": 6181,
      "è¨Ģ": 6182,
      "ç¤º": 6183,
      "esh": 6184,
      "Ġconf": 6185,
      "Ġfunc": 6186,
      "Ġdevi": 6187,
      "STD": 6188,
      "ãĥ¼ãĤ¹": 6189,
      "ä¸º": 6190,
      "absolute": 6191,
      "bpe": 6192,
      "exact": 6193,
      "ãĥĻ": 6194,
      "Ġshutil": 6195,
      "Ġfunctions": 6196,
      "Ġpartial": 6197,
      "BERTa": 6198,
      "samplers": 6199,
      "Ġchoose": 6200,
      "çĶŁæĪĲ": 6201,
      "Str": 6202,
      "UR": 6203,
      "gamma": 6204,
      "async": 6205,
      "Ġawait": 6206,
      "ĠRead": 6207,
      "ãģ¾ãģŁ": 6208,
      "randint": 6209,
      "}:": 6210,
      "Ġreduction": 6211,
      "Ġlater": 6212,
      "Ġconfigur": 6213,
      "Ġworld": 6214,
      "normalizer": 6215,
      ":?": 6216,
      "Now": 6217,
      "aps": 6218,
      "you": 6219,
      "Ġpu": 6220,
      "ĠConvert": 6221,
      "Ġinteger": 6222,
      ">)": 6223,
      "cp": 6224,
      "Ġcenter": 6225,
      "ĠDDIMScheduler": 6226,
      "squad": 6227,
      "ĠException": 6228,
      "Ġtruncate": 6229,
      "brid": 6230,
      "åĢ": 6231,
      "Semantic": 6232,
      "ëŀ": 6233,
      "ĻìĬµ": 6234,
      "ĠTYPE": 6235,
      "ĠDistributed": 6236,
      "ĠDiffusers": 6237,
      "ĠBart": 6238,
      "cluding": 6239,
      "Ħı": 6240,
      "ĴĮ": 6241,
      "Ġ{{": 6242,
      "åĨħ": 6243,
      "Ġìĭ¤íĸī": 6244,
      "<()>": 6245,
      "kandinsky": 6246,
      "Ġmon": 6247,
      "reset": 6248,
      "cons": 6249,
      "ĠVarBuilder": 6250,
      "Ġlosses": 6251,
      "ãĤĪãĤĬ": 6252,
      "hors": 6253,
      "Lab": 6254,
      "fr": 6255,
      "oo": 6256,
      "onal": 6257,
      "Ġbroadcast": 6258,
      "Ġrelevant": 6259,
      "å¤ī": 6260,
      "Ġsimply": 6261,
      "Whisper": 6262,
      "aff": 6263,
      "mit": 6264,
      "align": 6265,
      "ĠTrans": 6266,
      "ĠCustom": 6267,
      "ModelTesterMixin": 6268,
      "ãģķãĤĮãģ¦ãģĦ": 6269,
      "Ġretrieve": 6270,
      "åĴĮ": 6271,
      "ince": 6272,
      "Ġlanguages": 6273,
      "pruned": 6274,
      "ĠĠĠĠĠĠĠĠĠĠ": 6275,
      "Ġsl": 6276,
      "ãģ¹": 6277,
      "**:": 6278,
      "Ġgeneric": 6279,
      "optimization": 6280,
      "Ġstructure": 6281,
      "ilingual": 6282,
      "Ġcompatible": 6283,
      "ingerprint": 6284,
      "Ġtool": 6285,
      "ctx": 6286,
      "strided": 6287,
      "concatenate": 6288,
      "ĠDropout": 6289,
      "parquet": 6290,
      "ãĥ³ãĥĹ": 6291,
      "layoutlm": 6292,
      "ë²ķ": 6293,
      "Ġsentences": 6294,
      "VIS": 6295,
      "bad": 6296,
      "rices": 6297,
      "¡°": 6298,
      "Ġoptimization": 6299,
      "{%": 6300,
      "æĮ": 6301,
      "Ġyet": 6302,
      "ĠWhisper": 6303,
      "Ġíħ": 6304,
      "ero": 6305,
      "riend": 6306,
      "ĠEng": 6307,
      "predicted": 6308,
      "quantized": 6309,
      "Ġìłķ": 6310,
      "å¤ļ": 6311,
      "As": 6312,
      "Trans": 6313,
      "\\.": 6314,
      "Ġstop": 6315,
      "ĠInference": 6316,
      "ampled": 6317,
      "Ġgradients": 6318,
      "Ġcommunity": 6319,
      "ãĥ¢ãĥĩãĥ«ãģ®": 6320,
      "()]": 6321,
      "ĊĠĠĠĠĠĠĠĠĠĠĠĠĠĠĠĠĠĠĠĠ": 6322,
      "ĠIterable": 6323,
      "WithProjection": 6324,
      "Ġìłľ": 6325,
      "variance": 6326,
      "ĠPretrainedConfig": 6327,
      "Found": 6328,
      "Ġsignature": 6329,
      "Ġsemantic": 6330,
      "Ġmit": 6331,
      "//!": 6332,
      "Ġear": 6333,
      "Ġë²": 6334,
      "aging": 6335,
      "âĸĪâĸĪâĸĪâĸĪâĸĪâĸĪâĸĪâĸĪâĸĪâĸĪâĸĪâĸĪâĸĪâĸĪâĸĪâĸĪ": 6336,
      "eacher": 6337,
      "Ġsaid": 6338,
      "Ġwhole": 6339,
      "dreambooth": 6340,
      "ping": 6341,
      "oco": 6342,
      "ĠRoberta": 6343,
      "ĠëĶ": 6344,
      "Ġroot": 6345,
      "AutoTokenizer": 6346,
      "ti": 6347,
      "Ġcar": 6348,
      "()).": 6349,
      "ertain": 6350,
      "Ġgive": 6351,
      "Ġimportlib": 6352,
      "BigBird": 6353,
      "high": 6354,
      "rs": 6355,
      "Ġsqu": 6356,
      "Ġdark": 6357,
      "isfile": 6358,
      "ifact": 6359,
      "runcation": 6360,
      "Ġapi": 6361,
      "Ġbounding": 6362,
      "æĽ´": 6363,
      "Cfg": 6364,
      "Pa": 6365,
      "ĠĠĠĠĠĠĠĠĠĠĠ": 6366,
      "ĠìĬ": 6367,
      "ĠKeras": 6368,
      "CHECKING": 6369,
      "ĠCompute": 6370,
      "Ġshifted": 6371,
      "éĩį": 6372,
      ":-": 6373,
      "PTION": 6374,
      "tie": 6375,
      "theta": 6376,
      "Ġmatches": 6377,
      "longest": 6378,
      "nected": 6379,
      "Ġmerge": 6380,
      "azy": 6381,
      "å®Łè¡Į": 6382,
      "\"\\": 6383,
      "dd": 6384,
      "ym": 6385,
      "Ġpur": 6386,
      "ĠCho": 6387,
      "ĠSplit": 6388,
      "DIM": 6389,
      "Ġcap": 6390,
      "Ġtemplate": 6391,
      "Resampling": 6392,
      "EXPECTED": 6393,
      "Ġarrays": 6394,
      "Ġserial": 6395,
      "Ġsafetensors": 6396,
      "////////////////": 6397,
      "arras": 6398,
      "betas": 6399,
      "parametrize": 6400,
      "Ġutils": 6401,
      "atom": 6402,
      "Ġ_:": 6403,
      "pared": 6404,
      "reedy": 6405,
      "ä»¥ä¸ĭ": 6406,
      "Ġëį°ìĿ´íĦ°": 6407,
      "Tower": 6408,
      "ãĥ£": 6409,
      "ĠMB": 6410,
      "Ġjustify": 6411,
      "Ġke": 6412,
      "Ġíķĺ": 6413,
      "Īëł": 6414,
      "astic": 6415,
      "ATCH": 6416,
      "Ġverbose": 6417,
      "ĠPreTrainedModel": 6418,
      "scheduling": 6419,
      "uation": 6420,
      "ending": 6421,
      "chen": 6422,
      "Ġmark": 6423,
      "Ġbl": 6424,
      "maz": 6425,
      "Ġthree": 6426,
      "ĠRep": 6427,
      "ĠGlobal": 6428,
      "PARAMS": 6429,
      "RUN": 6430,
      "åŁ": 6431,
      "counter": 6432,
      "Ġ||": 6433,
      "Ġconvolutional": 6434,
      "Ġvariance": 6435,
      "utureWarning": 6436,
      "Ġinternal": 6437,
      "ĠmodÃ¨le": 6438,
      "Check": 6439,
      "HF": 6440,
      "ox": 6441,
      "icode": 6442,
      "otal": 6443,
      "Ġgraph": 6444,
      "Ġ});": 6445,
      "RoFormer": 6446,
      "leave": 6447,
      "ĠGit": 6448,
      "ERS": 6449,
      "cosine": 6450,
      "vp": 6451,
      "uniform": 6452,
      "Ġgc": 6453,
      "ĠLog": 6454,
      "Ġconcaten": 6455,
      "Ġbetas": 6456,
      "Ġmatrices": 6457,
      "Ġepochs": 6458,
      "pendent": 6459,
      "ridgeTower": 6460,
      "LD": 6461,
      "role": 6462,
      "router": 6463,
      "Ġstrength": 6464,
      "ĠURL": 6465,
      "Ġlogs": 6466,
      "TextConfig": 6467,
      "Name": 6468,
      "Ġ%(": 6469,
      "temperature": 6470,
      "Ġtranslation": 6471,
      "Ġcharacter": 6472,
      "ĠLoraConfig": 6473,
      "Shape": 6474,
      "VOCAB": 6475,
      "bel": 6476,
      "inline": 6477,
      "Ġ'{": 6478,
      "shuffle": 6479,
      "è¨Ń": 6480,
      "Ġë³Ģ": 6481,
      "Ġdeviation": 6482,
      "ceil": 6483,
      "))?;": 6484,
      "ĠAutoImageProcessor": 6485,
      "sdxl": 6486,
      "structions": 6487,
      "<_": 6488,
      "AG": 6489,
      "ML": 6490,
      "how": 6491,
      "alloc": 6492,
      "anh": 6493,
      "Ġlhs": 6494,
      "ĠInt": 6495,
      "show": 6496,
      "AutoModel": 6497,
      "ResNet": 6498,
      "library": 6499,
      "README": 6500,
      "compatible": 6501,
      "trainable": 6502,
      "ãģĻãĤĭãģŁãĤģ": 6503,
      "Ġadjust": 6504,
      "ãĥĪãĥ¼ãĤ¯ãĥ³": 6505,
      "'`:": 6506,
      "Detection": 6507,
      "OTE": 6508,
      "QA": 6509,
      "bitsandbytes": 6510,
      "imagenet": 6511,
      "Ġdue": 6512,
      "Ġ(-": 6513,
      "iffuser": 6514,
      "ĠíĶĦ": 6515,
      "TextModel": 6516,
      "glue": 6517,
      "dpm": 6518,
      "-{": 6519,
      ".**": 6520,
      "shapes": 6521,
      "ente": 6522,
      "Ġêµ¬": 6523,
      "Ġimplement": 6524,
      "NeoX": 6525,
      "null": 6526,
      "çķ": 6527,
      "Ġmem": 6528,
      "ãĤ°": 6529,
      "which": 6530,
      "Ġdivisible": 6531,
      "ĠìķĬ": 6532,
      "DeepSpeed": 6533,
      "ĠíĻķ": 6534,
      "ĠíĨł": 6535,
      "Ġparticular": 6536,
      "ton": 6537,
      "Ġce": 6538,
      "Ġ[{\"": 6539,
      "ĠDis": 6540,
      "ORCH": 6541,
      "ãģĹãģ¦ãģıãģłãģķãģĦ": 6542,
      "Ġíķ©ëĭĪëĭ¤": 6543,
      "Make": 6544,
      "QU": 6545,
      "bloom": 6546,
      "æĦı": 6547,
      "izz": 6548,
      "Ġgather": 6549,
      "Ġyear": 6550,
      "bins": 6551,
      "ãĥ¼ãĤ¸": 6552,
      "anced": 6553,
      "answers": 6554,
      "Ġcsv": 6555,
      "Ġbs": 6556,
      "Ġ([": 6557,
      "()):": 6558,
      "ãĤ£": 6559,
      "ĠSave": 6560,
      "NetV": 6561,
      "ëĬ¥": 6562,
      "Ġofficial": 6563,
      "supported": 6564,
      "DATASET": 6565,
      "DistilBert": 6566,
      "kernels": 6567,
      "sr": 6568,
      "Ġedge": 6569,
      "Ġrepr": 6570,
      "\"]),": 6571,
      "Ġvoid": 6572,
      "Ġbytes": 6573,
      "world": 6574,
      "scales": 6575,
      "(())": 6576,
      "MLP": 6577,
      "}_": 6578,
      "ĠModels": 6579,
      "apas": 6580,
      "ĠìĬ¤": 6581,
      "Random": 6582,
      "vb": 6583,
      "Ġãģ«": 6584,
      "Ġstable": 6585,
      "Ġrepeat": 6586,
      "Ġune": 6587,
      "science": 6588,
      "ä¸į": 6589,
      "ä½ł": 6590,
      "Ġtemperature": 6591,
      "ĠRequ": 6592,
      "Ġremote": 6593,
      "Do": 6594,
      "Min": 6595,
      "fx": 6596,
      "fuse": 6597,
      "megatron": 6598,
      "tual": 6599,
      "Ġredu": 6600,
      "imation": 6601,
      "imodal": 6602,
      "Ġhel": 6603,
      "obil": 6604,
      "tains": 6605,
      "computed": 6606,
      "asse": 6607,
      "Ġcuda": 6608,
      "erted": 6609,
      "lient": 6610,
      "Ġavg": 6611,
      "ĠSeq": 6612,
      "Ġdeprecation": 6613,
      "details": 6614,
      "lvp": 6615,
      "íı¬": 6616,
      "embedder": 6617,
      ").__": 6618,
      "ĠëķĮ": 6619,
      "frame": 6620,
      "Multistep": 6621,
      "obilenet": 6622,
      "Ãª": 6623,
      "Ġsw": 6624,
      "alcon": 6625,
      "Ġfixed": 6626,
      "Ġ\"\")": 6627,
      "Ġproduct": 6628,
      "Ġtimes": 6629,
      "Ġchanges": 6630,
      "Ġunconditional": 6631,
      "Integration": 6632,
      "Maker": 6633,
      "Video": 6634,
      "bas": 6635,
      "albert": 6636,
      "ĠBuil": 6637,
      "ĠNVIDIA": 6638,
      "Ind": 6639,
      "Ġcheckpointing": 6640,
      "åŃ¦": 6641,
      "Ġ\\\\(": 6642,
      "Ġsomething": 6643,
      "ls": 6644,
      "ctc": 6645,
      "Ġstored": 6646,
      "`]:": 6647,
      "MAX": 6648,
      ")}\")": 6649,
      "Efficient": 6650,
      "SR": 6651,
      "branch": 6652,
      "cies": 6653,
      "fmt": 6654,
      "ors": 6655,
      "ãģĦãģ¦": 6656,
      "Ġframes": 6657,
      "ãģ£ãģ¦": 6658,
      "Ġë°©ë²ķ": 6659,
      "such": 6660,
      "å¹": 6661,
      "Ġcr": 6662,
      "embert": 6663,
      "(\"\\": 6664,
      "Ġunderstand": 6665,
      "Ref": 6666,
      "ABLE": 6667,
      "plicit": 6668,
      "Let": 6669,
      "pat": 6670,
      "plexity": 6671,
      "usr": 6672,
      "dependent": 6673,
      "ageMaker": 6674,
      "ĠResources": 6675,
      "emove": 6676,
      "wlViT": 6677,
      "CI": 6678,
      "nodes": 6679,
      "tri": 6680,
      "oring": 6681,
      "stop": 6682,
      "ĊĊĠĠ": 6683,
      "ĠNum": 6684,
      "probability": 6685,
      "ĠAdapt": 6686,
      "CATION": 6687,
      "KE": 6688,
      "inator": 6689,
      "Ġsq": 6690,
      "comb": 6691,
      "Ġpoints": 6692,
      "ĠìľĦíķ´": 6693,
      "go": 6694,
      "æł": 6695,
      "Ġsend": 6696,
      "Ġsampled": 6697,
      "Ġ\"-": 6698,
      "peg": 6699,
      "prefill": 6700,
      "Ġintrodu": 6701,
      "Ġjo": 6702,
      "disk": 6703,
      "Features": 6704,
      "äºĭ": 6705,
      "truncated": 6706,
      "FE": 6707,
      "Lazy": 6708,
      "Vit": 6709,
      "Ġcare": 6710,
      "idia": 6711,
      "Ġdeep": 6712,
      "ember": 6713,
      "convs": 6714,
      "Ġweighting": 6715,
      "Ġ<<": 6716,
      "Ġ./": 6717,
      "Examples": 6718,
      "medium": 6719,
      "multiplier": 6720,
      "NeXt": 6721,
      "Lat": 6722,
      "Number": 6723,
      "cf": 6724,
      "Ĥ´": 6725,
      "ality": 6726,
      "chinese": 6727,
      "lace": 6728,
      "Ġlik": 6729,
      "=\"<": 6730,
      "}.\")": 6731,
      "Ġdifference": 6732,
      "ĠLayerNorm": 6733,
      "Ġstopping": 6734,
      "Cannot": 6735,
      "HE": 6736,
      "PS": 6737,
      "Ġcateg": 6738,
      "ĠDes": 6739,
      "PreTokenizer": 6740,
      "Ġactive": 6741,
      "Ġscaled": 6742,
      "PathLike": 6743,
      "Ġexists": 6744,
      "æıĲ": 6745,
      "Ġhook": 6746,
      ">#": 6747,
      "Time": 6748,
      "action": 6749,
      "imes": 6750,
      "Ġresized": 6751,
      "ĠAutoModel": 6752,
      "ãĤ»ãĥĥãĥĪ": 6753,
      "ĠIMAGENET": 6754,
      "ilinear": 6755,
      "ĠFS": 6756,
      "Ġproblem": 6757,
      "Ġplan": 6758,
      "Ġfreeze": 6759,
      "ussian": 6760,
      "CompVis": 6761,
      "æ¬¡ãģ®": 6762,
      "TPU": 6763,
      "rat": 6764,
      "chans": 6765,
      "Ġexpen": 6766,
      "Ġclone": 6767,
      "segment": 6768,
      "ĠAttentions": 6769,
      "Ġcharacters": 6770,
      "MultistepScheduler": 6771,
      "gp": 6772,
      "nested": 6773,
      "Ġattr": 6774,
      "ãĥ³ãĥĪ": 6775,
      "Stream": 6776,
      "Logger": 6777,
      "AndCrossAttentions": 6778,
      "EncoderDecoderModel": 6779,
      "bnb": 6780,
      "Ġcases": 6781,
      "strength": 6782,
      "Ġalphas": 6783,
      "ĠíķĻìĬµ": 6784,
      "Ġì§Ģ": 6785,
      "Ġsignific": 6786,
      "Ġannotations": 6787,
      "ensionality": 6788,
      "ted": 6789,
      "tar": 6790,
      "ç§": 6791,
      "Ġput": 6792,
      "lear": 6793,
      "amb": 6794,
      "Ġlat": 6795,
      "Ġregress": 6796,
      "ĠSelect": 6797,
      "area": 6798,
      "ĠFutureWarning": 6799,
      "Ġscratch": 6800,
      ":])": 6801,
      "La": 6802,
      "Ġbf": 6803,
      "Ġdefining": 6804,
      "ForCTC": 6805,
      "ëł¤": 6806,
      "cro": 6807,
      "pb": 6808,
      "tied": 6809,
      "éĿ": 6810,
      "assertDict": 6811,
      "runtime": 6812,
      "Ġattend": 6813,
      "trace": 6814,
      "okenized": 6815,
      "PER": 6816,
      "Tv": 6817,
      "Ġbnb": 6818,
      "laion": 6819,
      "Ġresizing": 6820,
      "ĠGuidance": 6821,
      "Ġ`({": 6822,
      "Ġeverything": 6823,
      "íĻĺ": 6824,
      "Ġoperation": 6825,
      "NDMScheduler": 6826,
      "BACK": 6827,
      "assertDictEqual": 6828,
      "nt": 6829,
      "aved": 6830,
      "eterminism": 6831,
      "spa": 6832,
      "Ġer": 6833,
      "Ġnever": 6834,
      "Ġoutside": 6835,
      "Ġíĺ": 6836,
      "ĠRuntime": 6837,
      "detection": 6838,
      "Ġ~": 6839,
      "ĠDummy": 6840,
      "Ġjit": 6841,
      "ĠChinese": 6842,
      "einsum": 6843,
      "mazon": 6844,
      "Cuda": 6845,
      "iou": 6846,
      "suff": 6847,
      "ëĶ": 6848,
      "Ġdat": 6849,
      "ĠAss": 6850,
      "Ġmaps": 6851,
      "Ġkeyword": 6852,
      "ãĤĭãģĵãģ¨": 6853,
      "LAX": 6854,
      "My": 6855,
      "benchmark": 6856,
      "«ĸ": 6857,
      "è«ĸ": 6858,
      "Ġtok": 6859,
      "codes": 6860,
      "embd": 6861,
      "illation": 6862,
      "PreLayerNorm": 6863,
      "Ġ{}\",": 6864,
      "ĠReLU": 6865,
      "ĠChoose": 6866,
      "BaseModelOutput": 6867,
      "Ġbicubic": 6868,
      "amlessM": 6869,
      "uper": 6870,
      "AST": 6871,
      "trl": 6872,
      "iterator": 6873,
      "PEFT": 6874,
      "æĸ°": 6875,
      "Ġoptionally": 6876,
      "SW": 6877,
      "Ġcro": 6878,
      "()[:-": 6879,
      "Ġ[(": 6880,
      "debug": 6881,
      "}.{": 6882,
      "ìĿ´íĶĦ": 6883,
      "figcaption": 6884,
      ":],": 6885,
      "Mode": 6886,
      "èĢ": 6887,
      "Ġfully": 6888,
      "Ġam": 6889,
      "usoid": 6890,
      "Ġpathlib": 6891,
      "éĩı": 6892,
      "sentences": 6893,
      "Ġdescrib": 6894,
      "ĠAuthors": 6895,
      "iating": 6896,
      "loop": 6897,
      "maps": 6898,
      "(\"./": 6899,
      "login": 6900,
      "rgb": 6901,
      "ObjectDetection": 6902,
      "insert": 6903,
      "FORMERS": 6904,
      "Ġdas": 6905,
      "ĠMapping": 6906,
      "Ġmock": 6907,
      "Ġregression": 6908,
      "/{": 6909,
      "cv": 6910,
      "}>": 6911,
      "Ġsagemaker": 6912,
      "Ġcandidate": 6913,
      "Ġrtol": 6914,
      "mock": 6915,
      "archive": 6916,
      "Ġprovides": 6917,
      "ĠìŀĪëĬĶ": 6918,
      "ĠSpeechT": 6919,
      "elemetry": 6920,
      "How": 6921,
      "xies": 6922,
      "æĬ": 6923,
      "Ġě[": 6924,
      "Ġshare": 6925,
      "ãģĻãģ¹": 6926,
      "Ġmodified": 6927,
      "Ġdeprecate": 6928,
      "Ġaround": 6929,
      "VISI": 6930,
      "listdir": 6931,
      "Ġcalls": 6932,
      "Ġpatches": 6933,
      "ãĤ¿ãĤ¹ãĤ¯": 6934,
      "eb": 6935,
      "kl": 6936,
      "ners": 6937,
      "ppo": 6938,
      "}\\": 6939,
      "éĻ": 6940,
      "ĠdÃ©": 6941,
      "Ġwar": 6942,
      "imate": 6943,
      "polic": 6944,
      "ĠDP": 6945,
      "plat": 6946,
      "filters": 6947,
      "SeamlessM": 6948,
      "Ġpointer": 6949,
      "Ġregion": 6950,
      "æİ¨": 6951,
      "ãģ¾ãģŁãģ¯": 6952,
      "usage": 6953,
      "ĠBPE": 6954,
      "ĠDataCollator": 6955,
      "ĠEncode": 6956,
      "ëĿ¼ìĿ¸": 6957,
      "policy": 6958,
      "OnnxConfig": 6959,
      "PY": 6960,
      "Some": 6961,
      "WEIGHTS": 6962,
      "slo": 6963,
      "asing": 6964,
      "Ġconversion": 6965,
      "Mixer": 6966,
      "Ġcodebook": 6967,
      "ainLayer": 6968,
      "Ġflat": 6969,
      "éĸ¢": 6970,
      "Ġoverride": 6971,
      "serialization": 6972,
      "Multi": 6973,
      "|>": 6974,
      "entropy": 6975,
      "velop": 6976,
      "KV": 6977,
      "MO": 6978,
      "bers": 6979,
      "ĠAI": 6980,
      "Ġthings": 6981,
      "ools": 6982,
      "Ġaddition": 6983,
      "Ġinterpolation": 6984,
      "Ġretriever": 6985,
      "Label": 6986,
      "YP": 6987,
      "gml": 6988,
      "reduction": 6989,
      "}`": 6990,
      "é¢": 6991,
      "ĠSample": 6992,
      "ĠFlash": 6993,
      "ĠRE": 6994,
      "ĠHash": 6995,
      "Ã©r": 6996,
      "ãģĹãģ¦ãģĦ": 6997,
      "****************": 6998,
      "execution": 6999,
      ")[\"": 7000,
      "IC": 7001,
      "Vi": 7002,
      "åĻ": 7003,
      "Ġtied": 7004,
      "ands": 7005,
      "ĠNew": 7006,
      "Ġupsample": 7007,
      "ĠDecoder": 7008,
      "ĠìŀĲ": 7009,
      "deepcopy": 7010,
      "ĠZeRO": 7011,
      "Ġissues": 7012,
      "inforcement": 7013,
      "Ġdense": 7014,
      "ãģ°": 7015,
      "Ġwithin": 7016,
      "ĠBigBird": 7017,
      "come": 7018,
      "scripts": 7019,
      "éģ©": 7020,
      "è¨Ńå®ļ": 7021,
      "ses": 7022,
      "yu": 7023,
      "ene": 7024,
      "child": 7025,
      "Ġdebugging": 7026,
      "ries": 7027,
      "ĠFast": 7028,
      "Ġì°": 7029,
      "Ġë©": 7030,
      "Ġactually": 7031,
      "Ġbuilt": 7032,
      "íķ´ìķ¼": 7033,
      "Reader": 7034,
      "suffix": 7035,
      "*)": 7036,
      "loader": 7037,
      "tap": 7038,
      "ìĹħ": 7039,
      "äºİ": 7040,
      "Ġhypoth": 7041,
      "Ġdependen": 7042,
      "Set": 7043,
      "dpr": 7044,
      "gent": 7045,
      "ãĤı": 7046,
      "ĠSince": 7047,
      "Ġconcept": 7048,
      "ĠEmbedding": 7049,
      "aseModelOutputWithPast": 7050,
      "quivalent": 7051,
      "cursive": 7052,
      "Peft": 7053,
      "See": 7054,
      "peak": 7055,
      "ĠDPR": 7056,
      "TImage": 7057,
      "ĠJSON": 7058,
      "bigscience": 7059,
      "()?,": 7060,
      "CODER": 7061,
      "Frame": 7062,
      "gpus": 7063,
      "éħį": 7064,
      "Ġwon": 7065,
      "upper": 7066,
      "riv": 7067,
      "caling": 7068,
      "Ġanswering": 7069,
      "Ġassign": 7070,
      "åĭķ": 7071,
      "è§£": 7072,
      "tables": 7073,
      "Ġtesting": 7074,
      "Ġinterface": 7075,
      "targets": 7076,
      "ĠPaddingStrategy": 7077,
      "Ġrandn": 7078,
      "LOCK": 7079,
      "deprecated": 7080,
      "BE": 7081,
      "unused": 7082,
      "ãĥł": 7083,
      "Ġgpu": 7084,
      "Ġrepla": 7085,
      "Ġenc": 7086,
      "ĠEvalu": 7087,
      "ĠDeberta": 7088,
      "Ġitems": 7089,
      "ìĿ´íĶĦëĿ¼ìĿ¸": 7090,
      "BPE": 7091,
      "history": 7092,
      "Ġslower": 7093,
      "ĠSqueeze": 7094,
      "Ġsections": 7095,
      "osen": 7096,
      "ived": 7097,
      "ĠíĬ": 7098,
      "Ġscales": 7099,
      "sampled": 7100,
      "Ġcreating": 7101,
      "ĠUsed": 7102,
      "ìĺ¤": 7103,
      "ismatched": 7104,
      "ĠíĽĪëł": 7105,
      "\"})": 7106,
      "ĮìĬ¤íĬ¸": 7107,
      "Ġwandb": 7108,
      "Ġunsafe": 7109,
      "Ġcome": 7110,
      "mount": 7111,
      "æķ´": 7112,
      "Ġbinary": 7113,
      "ĠPaper": 7114,
      "DING": 7115,
      "GS": 7116,
      "Man": 7117,
      "flo": 7118,
      "ately": 7119,
      "Ġide": 7120,
      "Ġdid": 7121,
      "Ġmatter": 7122,
      "ĠOff": 7123,
      "(\"_": 7124,
      "Ġones": 7125,
      "LImage": 7126,
      "Ġquestions": 7127,
      "defics": 7128,
      "ĠAutoPipeline": 7129,
      "ĠEnglish": 7130,
      "Drop": 7131,
      "One": 7132,
      "Sampler": 7133,
      "XX": 7134,
      "ground": 7135,
      "hip": 7136,
      "¢º": 7137,
      "orer": 7138,
      "ales": 7139,
      "sequential": 7140,
      "Ġrather": 7141,
      "ĠFrozen": 7142,
      "ĠDE": 7143,
      "poses": 7144,
      "Ġë¬¸": 7145,
      "ãĢģ[": 7146,
      "Ġchild": 7147,
      "relations": 7148,
      "CLASSI": 7149,
      "CLIPTextModel": 7150,
      "ĠTable": 7151,
      "ilu": 7152,
      "Ġtorchvision": 7153,
      "ĠVOCAB": 7154,
      "Ġ'.": 7155,
      "reader": 7156,
      "ë¥¸": 7157,
      "Ġimplements": 7158,
      "LOW": 7159,
      "ĠConfiguration": 7160,
      "Ġappropr": 7161,
      "Loading": 7162,
      "Ġfriend": 7163,
      "Ġmade": 7164,
      "Ġ(*": 7165,
      "tour": 7166,
      "irs": 7167,
      "loads": 7168,
      "Ġalgorithm": 7169,
      "FICATION": 7170,
      "ĠLayoutLMv": 7171,
      "Ġlos": 7172,
      "OCO": 7173,
      "Ġactiv": 7174,
      "ãĥĩãĤ£": 7175,
      "åĪ°": 7176,
      "Python": 7177,
      "Ġinherit": 7178,
      "retriever": 7179,
      "LImageResampling": 7180,
      "IMP": 7181,
      "neg": 7182,
      "sk": 7183,
      "orks": 7184,
      "ĠTechniques": 7185,
      "deit": 7186,
      "ModelTest": 7187,
      "ĠìĨ": 7188,
      "parameterized": 7189,
      "usicgen": 7190,
      "War": 7191,
      "ZER": 7192,
      "ç¿": 7193,
      "ĠDo": 7194,
      "ĠRemove": 7195,
      "capacity": 7196,
      "ĠConnection": 7197,
      "ĠCONFIG": 7198,
      "NotFound": 7199,
      "gptq": 7200,
      "hasattr": 7201,
      "Ġsegment": 7202,
      "Ġpackage": 7203,
      "ìĥģ": 7204,
      "TImageProcessor": 7205,
      "BF": 7206,
      "Backbone": 7207,
      "End": 7208,
      "cuss": 7209,
      "tutorial": 7210,
      "ĪìĿ´": 7211,
      "Ġconfigs": 7212,
      "ĠMix": 7213,
      "ĠEpoch": 7214,
      "Ġtrace": 7215,
      "Ġaccuracy": 7216,
      "Ġëª¨ëĵ": 7217,
      "Ġadv": 7218,
      ">.": 7219,
      "vide": 7220,
      "enames": 7221,
      "Ġist": 7222,
      "Ġdans": 7223,
      "Ġbad": 7224,
      "ĠSageMaker": 7225,
      "Ġunexpected": 7226,
      "Ġmove": 7227,
      "Ġhyperparameters": 7228,
      "iteralinclude": 7229,
      "Ġsignificant": 7230,
      ")|": 7231,
      "MainLayer": 7232,
      "Ġ>>": 7233,
      "iles": 7234,
      "Ġconcatenate": 7235,
      "lying": 7236,
      "convolution": 7237,
      "ibi": 7238,
      "ë¡ł": 7239,
      "Ġsuff": 7240,
      "è¿½": 7241,
      "bleu": 7242,
      "ĠëįĶ": 7243,
      "CLASSIFICATION": 7244,
      "At": 7245,
      "hfo": 7246,
      "wd": 7247,
      "lack": 7248,
      "FS": 7249,
      "Mo": 7250,
      "job": 7251,
      "olean": 7252,
      "Ã®": 7253,
      "è£": 7254,
      "ìłģìľ¼ë¡ľ": 7255,
      "Ġexpense": 7256,
      "ja": 7257,
      "è½": 7258,
      "ëį": 7259,
      "unpack": 7260,
      "Ġpasses": 7261,
      "Ġchat": 7262,
      "processed": 7263,
      "ãģ¾ãģĹãģŁ": 7264,
      "ë¡Ŀ": 7265,
      "event": 7266,
      "ì²´": 7267,
      "Ġavec": 7268,
      "ĠDefine": 7269,
      "Convert": 7270,
      "ĠStableDiffusionXL": 7271,
      "ĠGenerate": 7272,
      "æĿ¥": 7273,
      "Ġrelease": 7274,
      "NotFoundError": 7275,
      "PP": 7276,
      "mobilenet": 7277,
      "td": 7278,
      "was": 7279,
      "å±": 7280,
      "inov": 7281,
      "esis": 7282,
      "ĊĠĠĠĠĠĠĠĠĠĠĠĠĠĠ": 7283,
      "assertFalse": 7284,
      "Ã©s": 7285,
      "double": 7286,
      "Ġsubclass": 7287,
      "Ġquantize": 7288,
      "ãģĬãĤĪ": 7289,
      "ãģĿãĤĮ": 7290,
      "ìĨĮ": 7291,
      "ĠEpochs": 7292,
      "¹Ħ": 7293,
      "stats": 7294,
      "Ġfunctional": 7295,
      "Ġflex": 7296,
      "icle": 7297,
      "ably": 7298,
      "ĠìłĢ": 7299,
      "Ġrepresentations": 7300,
      "paintPipeline": 7301,
      "----------------------------------------------------------------": 7302,
      "Ġpretraining": 7303,
      "citation": 7304,
      "ĠíħĮìĬ¤íĬ¸": 7305,
      "car": 7306,
      "rename": 7307,
      "uo": 7308,
      "ĠĊĠĠĠ": 7309,
      "edia": 7310,
      "chie": 7311,
      "iglip": 7312,
      "Ġmet": 7313,
      "ãģ¡": 7314,
      "ìĹŃ": 7315,
      "à¤°": 7316,
      "Longformer": 7317,
      "FormerConfig": 7318,
      "sigmoid": 7319,
      "Ċĉĉĉĉĉĉ": 7320,
      "å¯¾": 7321,
      "Ġì¶Ķê°Ģ": 7322,
      "fixtures": 7323,
      "Optional": 7324,
      "coco": 7325,
      "chastic": 7326,
      "roll": 7327,
      "isor": 7328,
      "ĠScheduler": 7329,
      "initializers": 7330,
      "è¿½åĬł": 7331,
      "ãģĬãĤĪãģ³": 7332,
      "CUDA": 7333,
      "Pos": 7334,
      "syn": 7335,
      "Ġph": 7336,
      "ĠError": 7337,
      "Ġmasking": 7338,
      "Initial": 7339,
      "ĠArguments": 7340,
      "ĠEncoder": 7341,
      "ãĥķãĤ¡": 7342,
      "cb": 7343,
      "Ġsn": 7344,
      "itu": 7345,
      "may": 7346,
      "ividual": 7347,
      "Ġchunks": 7348,
      "SCRI": 7349,
      "ĠíĻķìĿ¸": 7350,
      "bits": 7351,
      "Ġsol": 7352,
      "Ġfe": 7353,
      "Ġsequential": 7354,
      ".*.": 7355,
      "à¥ĩ": 7356,
      "ĠMobileViT": 7357,
      "Ġcalculate": 7358,
      "ĠDimensionality": 7359,
      ".\\": 7360,
      ":.": 7361,
      ":|": 7362,
      "BaseModelOutputWithPooling": 7363,
      "aud": 7364,
      "handle": 7365,
      "oft": 7366,
      "rab": 7367,
      "Ġexpert": 7368,
      "ĠNet": 7369,
      "Ġ:-": 7370,
      "ĠDepth": 7371,
      "ugment": 7372,
      "phab": 7373,
      "ĠíĮĮìĿ´íĶĦëĿ¼ìĿ¸": 7374,
      "Ġdepending": 7375,
      "alk": 7376,
      "ĠSpec": 7377,
      "Ġvon": 7378,
      "STAN": 7379,
      "ãģ¾ãģĽ": 7380,
      "ĠXLA": 7381,
      "Ġvarious": 7382,
      "ãģ¾ãģĽãĤĵ": 7383,
      "cer": 7384,
      "amo": 7385,
      "ube": 7386,
      "Ġappend": 7387,
      "Any": 7388,
      "ëĲ©ëĭĪëĭ¤": 7389,
      "æ³¨": 7390,
      "ãĥĨãĤ£": 7391,
      "Ġsqrt": 7392,
      "ãģĻãģ¹ãģ¦": 7393,
      "åĻ¨": 7394,
      "AC": 7395,
      "kr": 7396,
      "mae": 7397,
      "Ġ`_": 7398,
      "ĠHF": 7399,
      "ENAME": 7400,
      "Ġimpl": 7401,
      "Ġrandomly": 7402,
      "Ġdesired": 7403,
      "Ġkeepdim": 7404,
      "MSolver": 7405,
      "plot": 7406,
      "Ġduplicate": 7407,
      "uth": 7408,
      "Ġbot": 7409,
      "Ġwer": 7410,
      "Ġamount": 7411,
      "Ġreset": 7412,
      "Ġrespon": 7413,
      "ĠCopy": 7414,
      "ĠDevice": 7415,
      "EncoderModel": 7416,
      "ĠìŀĳìĹħ": 7417,
      "hn": 7418,
      "olding": 7419,
      "dings": 7420,
      "ublic": 7421,
      "à°²": 7422,
      "ãģĻãĤĭå¿ħè¦ģ": 7423,
      "POSI": 7424,
      "Ġevent": 7425,
      "Latn": 7426,
      "GLM": 7427,
      "SD": 7428,
      "Ġdest": 7429,
      "ĠDistilBert": 7430,
      "presents": 7431,
      "ä¿Ŀ": 7432,
      "Index": 7433,
      "cm": 7434,
      "ceed": 7435,
      "ĠPixel": 7436,
      "Ġanswers": 7437,
      "bail": 7438,
      "iano": 7439,
      "fully": 7440,
      "package": 7441,
      "Ġëĭ¨": 7442,
      ",\"": 7443,
      "Patch": 7444,
      "brand": 7445,
      "cum": 7446,
      "detect": 7447,
      "Ġsymb": 7448,
      "etime": 7449,
      "rope": 7450,
      "Ġmix": 7451,
      "ãģĺ": 7452,
      "ĠAc": 7453,
      "gged": 7454,
      "ĠGrad": 7455,
      "Ġmodify": 7456,
      "ĠAdam": 7457,
      "pairs": 7458,
      "Idx": 7459,
      "Ġremoving": 7460,
      "Ġë¶Ħ": 7461,
      "GD": 7462,
      "RES": 7463,
      "ê·¸": 7464,
      "Ġ`__": 7465,
      "ĠOther": 7466,
      "Ġlists": 7467,
      "BATCH": 7468,
      "NET": 7469,
      "NUM": 7470,
      "æĥ": 7471,
      "Ġtutorial": 7472,
      "arding": 7473,
      "logs": 7474,
      "DER": 7475,
      "Ġ...]]": 7476,
      "lowercase": 7477,
      "LUE": 7478,
      "sharded": 7479,
      "ĠDefaults": 7480,
      "Ġreprodu": 7481,
      "Ġë©Ķ": 7482,
      "alesforce": 7483,
      "fused": 7484,
      "Ġinp": 7485,
      "Ġsets": 7486,
      "losses": 7487,
      "lightly": 7488,
      "è¨Ģèªŀ": 7489,
      "CPU": 7490,
      "zh": 7491,
      "Ġbitsandbytes": 7492,
      "Ġachie": 7493,
      "vez": 7494,
      "omial": 7495,
      "ĠLR": 7496,
      "assertIn": 7497,
      "ĠMLP": 7498,
      "Ġindent": 7499,
      "withcode": 7500,
      "Ġsuccess": 7501,
      "ãĥĥãĥĹ": 7502,
      "Ġindicate": 7503,
      "mkdir": 7504,
      "aggregation": 7505,
      "iation": 7506,
      "}]": 7507,
      "ãĤ½": 7508,
      "ĠAtt": 7509,
      "Ġresolve": 7510,
      "anny": 7511,
      "cfgs": 7512,
      "accents": 7513,
      "svg": 7514,
      "Ã¼r": 7515,
      "paperswithcode": 7516,
      "SemanticSegmentation": 7517,
      ">\"`):": 7518,
      "Iter": 7519,
      "TR": 7520,
      "uer": 7521,
      "«ĺ": 7522,
      "é«ĺ": 7523,
      "Ġdeterm": 7524,
      "(\"`": 7525,
      "Ġreshaped": 7526,
      "Ġseqlen": 7527,
      "itectures": 7528,
      "Add": 7529,
      "AdamW": 7530,
      "ëĵ¤": 7531,
      "LayoutLMv": 7532,
      "Ġfinetune": 7533,
      "Struct": 7534,
      "phabet": 7535,
      "Metric": 7536,
      "ç®": 7537,
      "ãĤŃ": 7538,
      "Ġmaint": 7539,
      "ĠCond": 7540,
      "flat": 7541,
      "ĠAutoModelForSequenceClassification": 7542,
      "Ġespec": 7543,
      "Ġà¤ķ": 7544,
      "Ġapproach": 7545,
      "Japanese": 7546,
      "asr": 7547,
      "arize": 7548,
      "ĠMore": 7549,
      "Ġgenerating": 7550,
      "Ġconvolution": 7551,
      "../../": 7552,
      "ĠìĤ¬ìļ©íķĺìĹ¬": 7553,
      "Ġë°ı": 7554,
      "éĢŁ": 7555,
      "Ġlocation": 7556,
      "ê°ľ": 7557,
      "mnli": 7558,
      "äºĭåīį": 7559,
      ")](": 7560,
      "ROR": 7561,
      "criteria": 7562,
      "dog": 7563,
      "dimension": 7564,
      "Ġlogin": 7565,
      "(&[": 7566,
      "byte": 7567,
      "ĠìĿ¼": 7568,
      "Ġaccumulation": 7569,
      "Formers": 7570,
      "ĠSoftmax": 7571,
      "Ġchanged": 7572,
      ":\"": 7573,
      "Bu": 7574,
      "vent": 7575,
      "enn": 7576,
      "Ġbasic": 7577,
      "Ġprintln": 7578,
      "tracing": 7579,
      "ãĥĨãĤ¹ãĥĪ": 7580,
      "hetNet": 7581,
      "TT": 7582,
      "asarray": 7583,
      "Ġdot": 7584,
      "ĠTrain": 7585,
      "))?": 7586,
      "ĠMegatron": 7587,
      "uster": 7588,
      "erman": 7589,
      "ĠColab": 7590,
      "Ġrouter": 7591,
      "Ġpublic": 7592,
      "ãĥ¢ãĥĩãĥ«ãģ¯": 7593,
      "Ġplt": 7594,
      "ĠUsing": 7595,
      "infos": 7596,
      "ĠUpdate": 7597,
      "'ve": 7598,
      "frequency": 7599,
      "ness": 7600,
      "silu": 7601,
      "inversion": 7602,
      "Ġfont": 7603,
      "ational": 7604,
      "cker": 7605,
      "ĠIgn": 7606,
      "à°ķ": 7607,
      "near": 7608,
      "ä»¬": 7609,
      "åĲ«": 7610,
      "Ġlocally": 7611,
      "clear": 7612,
      "pear": 7613,
      "Ġgr": 7614,
      "ordered": 7615,
      "Download": 7616,
      "xy": 7617,
      "å·": 7618,
      "orical": 7619,
      "Ġfreq": 7620,
      "ĠTEXT": 7621,
      "preprocessing": 7622,
      "ĠNow": 7623,
      "etain": 7624,
      "Prompt": 7625,
      "crim": 7626,
      "Example": 7627,
      "ãĥŃãĥ¼ãĥī": 7628,
      "ĠĠĠĠĠĠĠĠĠĠĠĠĠĠ": 7629,
      "Ġcombination": 7630,
      "ATION": 7631,
      "bon": 7632,
      "tile": 7633,
      "chain": 7634,
      "ĠFrom": 7635,
      "ĠDec": 7636,
      "Ġatom": 7637,
      "ARY": 7638,
      "çļĦãģª": 7639,
      "Ġlibr": 7640,
      "interleave": 7641,
      "ĠBatchEncoding": 7642,
      "ĠHowever": 7643,
      "\"`.": 7644,
      "Ĥ¹": 7645,
      "invalid": 7646,
      "Ġbr": 7647,
      "codataset": 7648,
      "pruning": 7649,
      "Ġprobs": 7650,
      "Ġproposed": 7651,
      "fairseq": 7652,
      "cocodataset": 7653,
      "ĠprÃ©": 7654,
      "Ġ:],": 7655,
      "ä¾Ľ": 7656,
      "ë¸Į": 7657,
      "Ass": 7658,
      "Accelerator": 7659,
      "On": 7660,
      "Small": 7661,
      "sparse": 7662,
      "zha": 7663,
      "()}\"": 7664,
      "ĠTime": 7665,
      "ĠLLM": 7666,
      "normalization": 7667,
      "ĠAdamW": 7668,
      "ãĥ¼ãĥĢ": 7669,
      "ĠJAX": 7670,
      "Ġlearned": 7671,
      "ratios": 7672,
      "rivate": 7673,
      "?:": 7674,
      "oss": 7675,
      "Ġseries": 7676,
      "Ġincluding": 7677,
      "uming": 7678,
      "ctest": 7679,
      "quick": 7680,
      "upcast": 7681,
      "Ġë¡": 7682,
      "umulative": 7683,
      "Ġapplying": 7684,
      "USAL": 7685,
      "mobilevit": 7686,
      "Ġctx": 7687,
      "usoidal": 7688,
      "éĽ": 7689,
      "ĪìĹŃ": 7690,
      "onut": 7691,
      "Ġgl": 7692,
      "TensorFlow": 7693,
      "ĠAutoModelForSeq": 7694,
      "CAUSAL": 7695,
      "evaluation": 7696,
      "VERSION": 7697,
      "Ġë¡ľ": 7698,
      "DDIMScheduler": 7699,
      "future": 7700,
      "mr": 7701,
      "ĠTotal": 7702,
      "proto": 7703,
      "(\"<": 7704,
      "Ġrespect": 7705,
      "scalar": 7706,
      "nonzero": 7707,
      "ĠOpenAI": 7708,
      "BIL": 7709,
      "Funnel": 7710,
      "bh": 7711,
      "directional": 7712,
      "iels": 7713,
      "ì¶": 7714,
      "ĊĠĠĠĠĠĠ": 7715,
      "etition": 7716,
      "idence": 7717,
      "Ġasync": 7718,
      "ĠOptionally": 7719,
      "color": 7720,
      "Ġ/>": 7721,
      "unctuation": 7722,
      "Learning": 7723,
      "ãģĵãĤĮãģ¯": 7724,
      "éŁ": 7725,
      "íĥ": 7726,
      "Ġanal": 7727,
      "ĠëıĦ": 7728,
      "arrays": 7729,
      "olutions": 7730,
      "ë³¸": 7731,
      "Pl": 7732,
      "bb": 7733,
      "Ġpage": 7734,
      "Ġrec": 7735,
      "Ġcost": 7736,
      "Ġcompare": 7737,
      "ĠConstruct": 7738,
      "unctools": 7739,
      "CLIPTokenizer": 7740,
      "ĠìķĦ": 7741,
      "}_{": 7742,
      "raÃ®": 7743,
      "Ġaggregation": 7744,
      "ãĥĬ": 7745,
      "Ġstages": 7746,
      "ĠDense": 7747,
      "eworks": 7748,
      "defined": 7749,
      "icht": 7750,
      "Ġreader": 7751,
      "ĠChannelDimension": 7752,
      "Ġincluded": 7753,
      "Ġmakes": 7754,
      "runcationStrategy": 7755,
      "maybe": 7756,
      "Here": 7757,
      "hal": 7758,
      "wlv": 7759,
      "Ġrep": 7760,
      "illed": 7761,
      "Pretrained": 7762,
      "windows": 7763,
      "è¾¼": 7764,
      "attributes": 7765,
      "'])": 7766,
      "Language": 7767,
      "Äł": 7768,
      "atural": 7769,
      "Ġfam": 7770,
      "Ġmusic": 7771,
      "isdir": 7772,
      "Ġ`-": 7773,
      "Ġlicense": 7774,
      "epar": 7775,
      "subword": 7776,
      "Ġparts": 7777,
      "spectrogram": 7778,
      "################################": 7779,
      "ĠUniSpeech": 7780,
      "Ġappropriate": 7781,
      "Ġsuffix": 7782,
      "DPR": 7783,
      "Pegasus": 7784,
      "aussian": 7785,
      "fetch": 7786,
      "Ġarea": 7787,
      "idxs": 7788,
      "Ġembedded": 7789,
      "Ġtranspose": 7790,
      "ĠíķĦ": 7791,
      "Ġlookup": 7792,
      "RegNet": 7793,
      "tapas": 7794,
      "OPT": 7795,
      "sim": 7796,
      "inp": 7797,
      "raises": 7798,
      "Ġrust": 7799,
      "isinstance": 7800,
      "Ġvit": 7801,
      "ĠDrop": 7802,
      "Ġìļ": 7803,
      "BertConfig": 7804,
      "Ġíķ´": 7805,
      "æĪĳ": 7806,
      "Ġdevices": 7807,
      "ploy": 7808,
      "GI": 7809,
      "LL": 7810,
      "TORCH": 7811,
      "Ġcut": 7812,
      "Ġequ": 7813,
      "ĠNOTE": 7814,
      "ibli": 7815,
      "ERROR": 7816,
      "liced": 7817,
      "tmpdir": 7818,
      "Ġmatching": 7819,
      "ä»¶": 7820,
      "TSMixer": 7821,
      "Ġìľł": 7822,
      "å¦Ĥæŀľ": 7823,
      "LazyModule": 7824,
      "'d": 7825,
      "PAD": 7826,
      "saved": 7827,
      "Ãł": 7828,
      "inpaint": 7829,
      "change": 7830,
      "rouge": 7831,
      "Ġneg": 7832,
      "ĠVi": 7833,
      "attns": 7834,
      "èªį": 7835,
      "ãģ§ãģįãĤĭ": 7836,
      "mixer": 7837,
      "sorted": 7838,
      "½Ķëĵľ": 7839,
      "crib": 7840,
      "·ãĥ§ãĥ³": 7841,
      "Ġge": 7842,
      "itation": 7843,
      "ĠCre": 7844,
      "utoff": 7845,
      "RATION": 7846,
      "grade": 7847,
      "íķĺì§Ģ": 7848,
      "('--": 7849,
      "Ġencodings": 7850,
      "facebookresearch": 7851,
      "ULTI": 7852,
      "CACHE": 7853,
      "æıĽ": 7854,
      "Ġrecommend": 7855,
      "activations": 7856,
      "Simple": 7857,
      "js": 7858,
      "Ńç»": 7859,
      "Ġpd": 7860,
      "Ġpop": 7861,
      "ulate": 7862,
      "ĠValid": 7863,
      "ĠëĺĲ": 7864,
      "wrapped": 7865,
      "QuestionAnsweringModelOutput": 7866,
      "íģ°": 7867,
      "Ġmiddle": 7868,
      "æĺİ": 7869,
      "è®Ńç»": 7870,
      "ĠDDPMScheduler": 7871,
      "åħ¥åĬĽ": 7872,
      "è®Ńç»ĥ": 7873,
      ",))": 7874,
      "holder": 7875,
      "tqdm": 7876,
      "£¼": 7877,
      "Ġãģ§": 7878,
      "Ġhis": 7879,
      "allen": 7880,
      "When": 7881,
      "ReLU": 7882,
      "wiki": 7883,
      "Ġearly": 7884,
      "Ġlikely": 7885,
      "(`": 7886,
      "((\"": 7887,
      "dq": 7888,
      "aring": 7889,
      "Ġpou": 7890,
      "Ġtools": 7891,
      "ĠClap": 7892,
      "Ġì»": 7893,
      "***": 7894,
      "Resnet": 7895,
      "Ġskipped": 7896,
      "Ġsigmas": 7897,
      "await": 7898,
      "Ġupdates": 7899,
      "seqlens": 7900,
      "DATA": 7901,
      "Mistral": 7902,
      "nlp": 7903,
      "qk": 7904,
      "ë¬¸": 7905,
      "Ġteacher": 7906,
      "Ġda": 7907,
      "thresh": 7908,
      "comment": 7909,
      "ivers": 7910,
      "Ġindividual": 7911,
      "ĠModell": 7912,
      "ATT": 7913,
      "BACKEND": 7914,
      "${": 7915,
      "dat": 7916,
      "æį": 7917,
      "repr": 7918,
      "ĠBark": 7919,
      "Ġusers": 7920,
      "ĠUSE": 7921,
      "plain": 7922,
      "stdout": 7923,
      "ĠIndex": 7924,
      "åĩ¦": 7925,
      "è¯į": 7926,
      "gluon": 7927,
      "fwd": 7928,
      "ukebox": 7929,
      "edirs": 7930,
      "rec": 7931,
      "tern": 7932,
      "cols": 7933,
      "echan": 7934,
      "optimum": 7935,
      "Ġserde": 7936,
      "supervised": 7937,
      "ĠQuant": 7938,
      "ĠDownload": 7939,
      "Ġformatted": 7940,
      "Er": 7941,
      "Stable": 7942,
      "ien": 7943,
      "oise": 7944,
      "watermark": 7945,
      "åķ": 7946,
      "Ġshapes": 7947,
      "Ġprivate": 7948,
      "ocast": 7949,
      "Ġresolved": 7950,
      "Ġendpoint": 7951,
      "initialized": 7952,
      "íĬ¸ë¥¼": 7953,
      "dumps": 7954,
      "Ġallowed": 7955,
      "auxiliary": 7956,
      "Ġauxiliary": 7957,
      "'`": 7958,
      "/%": 7959,
      "gate": 7960,
      "esm": 7961,
      "Ġcute": 7962,
      "Ġ\"./": 7963,
      "lags": 7964,
      "Ġ*=": 7965,
      "ĠDDIM": 7966,
      "ĠBaseModelOutputWithPooling": 7967,
      "InpaintPipeline": 7968,
      "pename": 7969,
      "ngram": 7970,
      "Ġ`\"<": 7971,
      "teach": 7972,
      "ãĤ¤ãĥ«": 7973,
      "tings": 7974,
      "Ġperformed": 7975,
      "interpolation": 7976,
      "AttnProcessor": 7977,
      "Ġexpects": 7978,
      "Ġseparate": 7979,
      "ĠìłĢìŀ¥": 7980,
      "DB": 7981,
      "LS": 7982,
      "lins": 7983,
      "µľ": 7984,
      "ana": 7985,
      "Ġmessages": 7986,
      "upLM": 7987,
      "ĠRetrie": 7988,
      "setup": 7989,
      "ìłĢ": 7990,
      "Ġdisk": 7991,
      "teLevel": 7992,
      "Ġpurposes": 7993,
      "éĥ": 7994,
      "ê±": 7995,
      "Ġip": 7996,
      "\")[": 7997,
      "ĠOPT": 7998,
      "Ġconfigura": 7999,
      "ĠMBart": 8000,
      "Ġstrides": 8001,
      "ĠResnet": 8002,
      "ĠWhat": 8003,
      "TextTo": 8004,
      "Ġdisabled": 8005,
      "nections": 8006,
      "è¡¨": 8007,
      "ĠBeit": 8008,
      "ĠëĮĢíķľ": 8009,
      "ħįìĬ¤íĬ¸": 8010,
      "\\\\)": 8011,
      "éĥ¨": 8012,
      "Can": 8013,
      "Memory": 8014,
      "NO": 8015,
      "Rep": 8016,
      "Spec": 8017,
      "Script": 8018,
      "mand": 8019,
      "uk": 8020,
      "ìĤ¬": 8021,
      "Ġem": 8022,
      "ĠShape": 8023,
      "Ġì¤ĳ": 8024,
      "ĠMemory": 8025,
      ".\"},": 8026,
      "Ġbuilding": 8027,
      ":]),": 8028,
      "Ġassistant": 8029,
      "LIPTextConfig": 8030,
      "There": 8031,
      "ãģĿãģ®": 8032,
      "ĠRegNet": 8033,
      "MBED": 8034,
      "ĠíĽĪëł¨": 8035,
      "Gen": 8036,
      "TYPE": 8037,
      "every": 8038,
      "Ġsi": 8039,
      "Ġhapp": 8040,
      "ĠPPO": 8041,
      "Ġstrip": 8042,
      "Ġcomplete": 8043,
      "QuAD": 8044,
      "SelfOutput": 8045,
      "makedirs": 8046,
      "åł´åĲĪãģ¯": 8047,
      "nvidia": 8048,
      "ëª¨ë": 8049,
      "handler": 8050,
      "pickle": 8051,
      "ĠRuntimeError": 8052,
      ")}.\"": 8053,
      "Ġside": 8054,
      "Ġclamp": 8055,
      "íķĺëł¤": 8056,
      "Response": 8057,
      "ãĥ©ãĤ¹": 8058,
      "Ġabsolute": 8059,
      "Ġrecommended": 8060,
      "fba": 8061,
      "rhs": 8062,
      "æĶ": 8063,
      "status": 8064,
      "Ġplay": 8065,
      "Ġred": 8066,
      "Ġaud": 8067,
      "ĠTim": 8068,
      "ãĥĢ": 8069,
      "Ġcontrastive": 8070,
      "Ġuntil": 8071,
      "ĠBlenderbot": 8072,
      "positional": 8073,
      "indexes": 8074,
      "ãģ«ãģ¤": 8075,
      "should": 8076,
      "jsonl": 8077,
      "flows": 8078,
      "Ġarchive": 8079,
      "dedent": 8080,
      "ë©°": 8081,
      "Ġstreaming": 8082,
      "ĠPreTrainedTokenizer": 8083,
      "ë°ĺ": 8084,
      "Intermediate": 8085,
      "ĠPartial": 8086,
      "DDP": 8087,
      "LINE": 8088,
      "anc": 8089,
      "Ġpas": 8090,
      "Ġpower": 8091,
      "Ġwrapper": 8092,
      "Ġ*/": 8093,
      "debugging": 8094,
      "numel": 8095,
      "cap": 8096,
      "Ġcomponent": 8097,
      "ä½ķ": 8098,
      "EncoderLayer": 8099,
      "Ġmanually": 8100,
      "RobertaPreLayerNorm": 8101,
      "vars": 8102,
      "Ġseems": 8103,
      "linspace": 8104,
      ":\",": 8105,
      "Span": 8106,
      "ao": 8107,
      "ddpm": 8108,
      "flip": 8109,
      "rong": 8110,
      "Ġdetection": 8111,
      "ittle": 8112,
      "Ġpen": 8113,
      "\"]}": 8114,
      "udo": 8115,
      "Ġê·¸": 8116,
      "Ġdisplay": 8117,
      "åĪĹ": 8118,
      "Ġentry": 8119,
      "release": 8120,
      "Ġë³´": 8121,
      "ä½ľæĪĲ": 8122,
      "åĩ¦çĲĨ": 8123,
      "åķı": 8124,
      "GG": 8125,
      "IO": 8126,
      "bd": 8127,
      "nf": 8128,
      "éľ": 8129,
      "Ġess": 8130,
      "Ġfunctools": 8131,
      "Ġinstructions": 8132,
      "ightly": 8133,
      "ĠSam": 8134,
      "Ġìµľ": 8135,
      "ĠRL": 8136,
      "ĠTFModel": 8137,
      "VecVision": 8138,
      "ãĤ¯ãĥĪ": 8139,
      "ãģªãĤĬ": 8140,
      "layoutlmv": 8141,
      "ached": 8142,
      "dit": 8143,
      "Ġfurther": 8144,
      "Ġbpe": 8145,
      "Ġauf": 8146,
      "imator": 8147,
      "Ġhost": 8148,
      "inting": 8149,
      "Ġstack": 8150,
      "Ġrece": 8151,
      "ĠST": 8152,
      "=\"%": 8153,
      ").\"": 8154,
      "Ġsetattr": 8155,
      "ImageClassification": 8156,
      "ãģĹãģĦ": 8157,
      "complet": 8158,
      "electra": 8159,
      "SequenceClassifierOutput": 8160,
      "LoRA": 8161,
      "ĠCLIPSeg": 8162,
      "ĠdonnÃ©": 8163,
      "Ġready": 8164,
      "Ċĉĉĉĉĉ": 8165,
      "Ġtracker": 8166,
      "XLMRoberta": 8167,
      "æŃ£": 8168,
      "Piano": 8169,
      "session": 8170,
      "heckpoint": 8171,
      "Ġ{(": 8172,
      "coordinates": 8173,
      "ĠFlava": 8174,
      "loaders": 8175,
      "ĠëıĻ": 8176,
      "Ġneural": 8177,
      "ĠAlbert": 8178,
      "ãĤ¤ãĤº": 8179,
      "ĠTypeError": 8180,
      "ĠOverview": 8181,
      "floor": 8182,
      "CC": 8183,
      "IDE": 8184,
      "Ġspeaker": 8185,
      "Ġgamma": 8186,
      "INFO": 8187,
      "Tokenized": 8188,
      "Ġsupp": 8189,
      "serde": 8190,
      "Requ": 8191,
      "ì²ĺ": 8192,
      "rispeech": 8193,
      "éľĢ": 8194,
      "=(\"": 8195,
      "zione": 8196,
      "çĦ": 8197,
      "Ġmechan": 8198,
      "entially": 8199,
      "ĠTemp": 8200,
      "ipublic": 8201,
      "Ġstat": 8202,
      "resnext": 8203,
      "Ġì½Ķëĵľ": 8204,
      "perform": 8205,
      "Ġëĵ": 8206,
      "à°¡": 8207,
      "Ġretrieved": 8208,
      "Ġoverridden": 8209,
      "ãģ©ãģ®": 8210,
      "ãĥĩãĥ¼ãĤ¿ãĤ»ãĥĥãĥĪ": 8211,
      "difference": 8212,
      "ĠíĨłíģ°": 8213,
      "NOR": 8214,
      "lint": 8215,
      "¦¬": 8216,
      "ĳĲ": 8217,
      "infer": 8218,
      "Ġcertain": 8219,
      "Ġ\"\".": 8220,
      "__`": 8221,
      "ĠCT": 8222,
      "Models": 8223,
      "Ġnumbers": 8224,
      "osmos": 8225,
      "ĠMT": 8226,
      "ante": 8227,
      "corners": 8228,
      "Ġentire": 8229,
      "Ġresnets": 8230,
      "OPEN": 8231,
      "andidates": 8232,
      "Ġì¶Ķë¡ł": 8233,
      "POSITION": 8234,
      "Dual": 8235,
      "çĤ¹": 8236,
      "replic": 8237,
      "Ġins": 8238,
      "Ġ-=": 8239,
      "ĠLi": 8240,
      "Ġema": 8241,
      "ĠRag": 8242,
      "ocabulary": 8243,
      "Ġ...]": 8244,
      "Ġchain": 8245,
      "llb": 8246,
      "ĠDef": 8247,
      "ĠTensorType": 8248,
      "ãģ¨ãģĹãģ¦": 8249,
      "subTest": 8250,
      "experts": 8251,
      "Ġdelete": 8252,
      "ãģķãĤĮãĤĭ": 8253,
      "è£ħ": 8254,
      "<(": 8255,
      "pm": 8256,
      "px": 8257,
      "å¢": 8258,
      "ëıĻ": 8259,
      "extension": 8260,
      "upd": 8261,
      "(\"-": 8262,
      "pies": 8263,
      "interpolate": 8264,
      "optic": 8265,
      "InputType": 8266,
      "even": 8267,
      "åįĺ": 8268,
      "Warper": 8269,
      "MULTI": 8270,
      "gine": 8271,
      "sion": 8272,
      "ond": 8273,
      "Ġinf": 8274,
      "izable": 8275,
      "una": 8276,
      "Ġgreater": 8277,
      "ĠAct": 8278,
      "Ġrepresents": 8279,
      "ĠOn": 8280,
      "vocabulary": 8281,
      "ĠPyResult": 8282,
      "ãĤ¯ãĥ©ãĤ¹": 8283,
      "UNK": 8284,
      "âĶģâĶģâĶģâĶģâĶģâĶģâĶģâĶģâĶģâĶģâĶģâĶģâĶģâĶģâĶģâĶģ": 8285,
      "ãĥķãĤ©ãĥ¼ãĥ": 8286,
      "fbaipublic": 8287,
      "ãģ«ãģ¤ãģĦãģ¦": 8288,
      "ĠTFModelInputType": 8289,
      "fbaipublicfiles": 8290,
      "ws": 8291,
      "za": 8292,
      "Ġspaces": 8293,
      "ĠClvp": 8294,
      "cheme": 8295,
      "ĠVisual": 8296,
      "DESCRI": 8297,
      "ĠWhich": 8298,
      "ldm": 8299,
      "ìĭĿ": 8300,
      "ĠMobileNetV": 8301,
      "Ġrounded": 8302,
      "fingerprint": 8303,
      "pc": 8304,
      "æĻ": 8305,
      "Ġbare": 8306,
      "ãģļ": 8307,
      "argv": 8308,
      "ĠFirst": 8309,
      "))[": 8310,
      "ĠBridgeTower": 8311,
      "getattr": 8312,
      "Ġprepared": 8313,
      "kipedia": 8314,
      "TFPreTrainedModel": 8315,
      "XLNet": 8316,
      "ĠAdditional": 8317,
      "Ġoperations": 8318,
      "aseModelOutputWithPastAndCrossAttentions": 8319,
      "relationship": 8320,
      "Buffer": 8321,
      "DESCRIPTION": 8322,
      "All": 8323,
      "Ele": 8324,
      "ECE": 8325,
      "]<": 8326,
      "}-": 8327,
      "ħëł¥": 8328,
      "instruct": 8329,
      "Ġdate": 8330,
      "formatt": 8331,
      "Ġunique": 8332,
      "ĠKey": 8333,
      "WithPast": 8334,
      "ãģ®ãĤ³": 8335,
      "Ġshards": 8336,
      "apshot": 8337,
      "ĠBuild": 8338,
      "ĠíķĦìļĶ": 8339,
      "Length": 8340,
      "Ġclear": 8341,
      "Ġhad": 8342,
      "decoded": 8343,
      "Ġ)?;": 8344,
      "cost": 8345,
      "Ġcomb": 8346,
      "Ġlogit": 8347,
      "BertForSequenceClassification": 8348,
      "web": 8349,
      "PIECE": 8350,
      "ynamo": 8351,
      "aws": 8352,
      "ĠSDXL": 8353,
      "MSolverMultistepScheduler": 8354,
      "Flash": 8355,
      "conf": 8356,
      "fusion": 8357,
      "ette": 8358,
      "ãĥĵ": 8359,
      "torchscript": 8360,
      "ĠOptim": 8361,
      "paper": 8362,
      "ĠëĲ": 8363,
      "Ġëł": 8364,
      "Ġpooling": 8365,
      "ãĥĥãĥī": 8366,
      "Ġíķ¨": 8367,
      "Ġeasy": 8368,
      "ĠShould": 8369,
      "ĠíĮĮìĿ¼": 8370,
      "ãĤ¤ãĤ¶": 8371,
      "teacher": 8372,
      "SM": 8373,
      "waveform": 8374,
      "element": 8375,
      "remo": 8376,
      "Ġnormalizer": 8377,
      "Ġdiag": 8378,
      "devices": 8379,
      "ĠPrompt": 8380,
      "versed": 8381,
      "Ġutilis": 8382,
      "affine": 8383,
      "pdrop": 8384,
      "encoders": 8385,
      "ĊĠĠĠĠĠĠĠĠĠĠ": 8386,
      "Ġfit": 8387,
      "Ġmeta": 8388,
      "secut": 8389,
      "Ġreuse": 8390,
      "ector": 8391,
      "ĠMo": 8392,
      "ĠBut": 8393,
      "ifies": 8394,
      "mbart": 8395,
      "ETR": 8396,
      "BertTokenizer": 8397,
      "å®Į": 8398,
      "ĠComput": 8399,
      "(\".\")[-": 8400,
      "ĠApply": 8401,
      "Using": 8402,
      "Ġpotential": 8403,
      ")*": 8404,
      "KWAR": 8405,
      "WS": 8406,
      "sa": 8407,
      "uc": 8408,
      "enumerate": 8409,
      "Ġnodes": 8410,
      "ĠObject": 8411,
      "Ġkernels": 8412,
      "à±ĭ": 8413,
      "annotation": 8414,
      "implify": 8415,
      "!(\"{": 8416,
      "Ġchoices": 8417,
      "CLASSES": 8418,
      "KWARGS": 8419,
      "CTION": 8420,
      "Sw": 8421,
      "VIT": 8422,
      "Ġdl": 8423,
      "Ġ`{": 8424,
      "raint": 8425,
      "Ġoften": 8426,
      "Ġconnection": 8427,
      "coura": 8428,
      "Ġunset": 8429,
      "Ġbyte": 8430,
      "OCESS": 8431,
      "Default": 8432,
      "Quant": 8433,
      "ä»»": 8434,
      "ĠEncoding": 8435,
      "Ġworking": 8436,
      "Ã§Ã£o": 8437,
      "fixture": 8438,
      "éŁ³": 8439,
      "Criteria": 8440,
      "lhs": 8441,
      "Ġfields": 8442,
      "Ġequivalent": 8443,
      "Ġexplicit": 8444,
      "owl": 8445,
      "architecture": 8446,
      "Ġ%}": 8447,
      "Ġgrads": 8448,
      "ĠAlign": 8449,
      "ë²ĪìĹŃ": 8450,
      "ĠErnie": 8451,
      "category": 8452,
      "olos": 8453,
      "TRANSFORMERS": 8454,
      "ãĥķãĤ©ãĥ¼ãĥŀ": 8455,
      "#!": 8456,
      ">()?,": 8457,
      "Message": 8458,
      "messages": 8459,
      "ras": 8460,
      "Ġfused": 8461,
      "deb": 8462,
      "times": 8463,
      "pansion": 8464,
      "è¿Ľ": 8465,
      "ãĥģãĤ§": 8466,
      "å¯¹": 8467,
      "Manager": 8468,
      ":%": 8469,
      "Metal": 8470,
      "RST": 8471,
      "bird": 8472,
      "retain": 8473,
      "å§ĭ": 8474,
      "once": 8475,
      "asure": 8476,
      "ĠAnd": 8477,
      "Ġeine": 8478,
      "Ġconnected": 8479,
      "ĠNeed": 8480,
      "Ġqui": 8481,
      "DERL": 8482,
      "Context": 8483,
      "compiled": 8484,
      "grams": 8485,
      "UNDERL": 8486,
      "LogitsWarper": 8487,
      "Ġnullify": 8488,
      "âĶĢâĶĢ": 8489,
      "éĿŀ": 8490,
      "ĠëłĪìĿ´": 8491,
      "UNDERLINE": 8492,
      "TST": 8493,
      "rict": 8494,
      "ven": 8495,
      "Ġdq": 8496,
      "amless": 8497,
      "ipy": 8498,
      "Ġoutputting": 8499,
      "Ġexpl": 8500,
      "Ġpruning": 8501,
      "Ġ:].": 8502,
      "------------": 8503,
      "Ġìŀħëł¥": 8504,
      "inspect": 8505,
      "Ġdenoise": 8506,
      "Ġconsists": 8507,
      "ĠìĦ¸": 8508,
      "Ġadapted": 8509,
      "glish": 8510,
      "ĠInstall": 8511,
      "ãĥģãĥ£": 8512,
      "CrossAttnDownBlock": 8513,
      "launcher": 8514,
      "'):": 8515,
      "bind": 8516,
      "dig": 8517,
      "oper": 8518,
      "êµ¬": 8519,
      "Ġpan": 8520,
      "Ġinplace": 8521,
      "\")}": 8522,
      "ĠAttn": 8523,
      "Ġorgan": 8524,
      "via": 8525,
      "ãĤ¹ãĤ¿": 8526,
      "ĠEnable": 8527,
      "ê²½": 8528,
      "Then": 8529,
      "delimiter": 8530,
      "ìłģìĿ¸": 8531,
      "Bytes": 8532,
      "PredictionHead": 8533,
      "IMPORT": 8534,
      "Ġëª¨ëĵł": 8535,
      "MBEDDING": 8536,
      "ãĤĦ": 8537,
      "ĠIdefics": 8538,
      "textual": 8539,
      "Ġuntruncated": 8540,
      "weighted": 8541,
      "Ġshown": 8542,
      "([-": 8543,
      "æĪĸ": 8544,
      "ãģ¤ãģ®": 8545,
      "PC": 8546,
      "wen": 8547,
      "Ġturn": 8548,
      "amembert": 8549,
      "Ġdevelop": 8550,
      "abc": 8551,
      "TensorType": 8552,
      "Ġchecks": 8553,
      "Ġtimeout": 8554,
      "Ġdelta": 8555,
      "white": 8556,
      "åħ¨": 8557,
      "ĠThen": 8558,
      "warnings": 8559,
      "client": 8560,
      "Ġâľ": 8561,
      "lates": 8562,
      "Ġzeros": 8563,
      "Łèĥ½": 8564,
      "esome": 8565,
      "ados": 8566,
      "andler": 8567,
      "ĠTake": 8568,
      "Ġstrong": 8569,
      "EncoderBlock": 8570,
      "ĠUsage": 8571,
      "Ġëĭ¤ë¥¸": 8572,
      "}/{": 8573,
      "Ġapprox": 8574,
      "ãģĵãĤĮãĤī": 8575,
      "Ġincrease": 8576,
      "DebertaV": 8577,
      "ãĥģãĤ§ãĥĥãĤ¯": 8578,
      ")(": 8579,
      "empt": 8580,
      "ħ¸": 8581,
      "ono": 8582,
      "Ġduration": 8583,
      "lot": 8584,
      "Ġhuman": 8585,
      "ĠRAM": 8586,
      "feats": 8587,
      "Depth": 8588,
      "region": 8589,
      "randNew": 8590,
      "ĠÃ¨": 8591,
      "Ġrepresenting": 8592,
      "Ġê°ľ": 8593,
      "ìħĺ": 8594,
      "VISION": 8595,
      "IP": 8596,
      "USE": 8597,
      "xA": 8598,
      "ç«": 8599,
      "reen": 8600,
      "Ġaug": 8601,
      "Ġgpt": 8602,
      "ĠSGD": 8603,
      "Ġmapped": 8604,
      "Ġrag": 8605,
      "Ġcomo": 8606,
      "íķĺë©´": 8607,
      "ä»ĸ": 8608,
      "postprocess": 8609,
      "åŃ¦ç¿": 8610,
      "åŃ¦ç¿Ĵ": 8611,
      "Augment": 8612,
      "Des": 8613,
      "ifer": 8614,
      "Ġground": 8615,
      "Ġ{},": 8616,
      "ĠOwlViT": 8617,
      "logprobs": 8618,
      "Ġlayernorm": 8619,
      "document": 8620,
      "ëĭ¹": 8621,
      "aged": 8622,
      "guides": 8623,
      "ĠíĬ¹": 8624,
      "Blenderbot": 8625,
      "SAMPLE": 8626,
      "ji": 8627,
      "metal": 8628,
      "Î·": 8629,
      "ì¤": 8630,
      "Ġ\")": 8631,
      "pyo": 8632,
      "rive": 8633,
      "ribute": 8634,
      "tral": 8635,
      "çļĦãģ«": 8636,
      "Ġsharded": 8637,
      "Ġintegers": 8638,
      "Ġrngs": 8639,
      "HuggingFace": 8640,
      "ĠLongformer": 8641,
      "¢ºèªį": 8642,
      "ë²ĪìĹŃì¤ĳ": 8643,
      ".'": 8644,
      "Beam": 8645,
      "Based": 8646,
      "LEN": 8647,
      "SV": 8648,
      "Use": 8649,
      "fra": 8650,
      "wmt": 8651,
      "ervation": 8652,
      "orator": 8653,
      "oder": 8654,
      "Ġdass": 8655,
      "itext": 8656,
      "ĠfÃ¼r": 8657,
      "Ġmps": 8658,
      "ised": 8659,
      "emon": 8660,
      "iven": 8661,
      "ä»£": 8662,
      "å®ĥ": 8663,
      "implementation": 8664,
      "Ġsimilarity": 8665,
      "fea": 8666,
      "æ³¨æĦı": 8667,
      "æĪĳä»¬": 8668,
      "'^": 8669,
      "Saving": 8670,
      "hparams": 8671,
      "mse": 8672,
      "ini": 8673,
      "elines": 8674,
      "stant": 8675,
      "stchen": 8676,
      "unexpected": 8677,
      "Ġguid": 8678,
      "ĠRandom": 8679,
      "ForObjectDetection": 8680,
      "ForSemanticSegmentation": 8681,
      "Ġenough": 8682,
      "Invalid": 8683,
      "ĠContains": 8684,
      "DecoderBlock": 8685,
      "ĠìĤ¬ìļ©íķł": 8686,
      "ĠLabel": 8687,
      "éĸĵ": 8688,
      "Ġpersistent": 8689,
      "ExamplesIterable": 8690,
      "Fine": 8691,
      "Return": 8692,
      "_*": 8693,
      "flag": 8694,
      "voice": 8695,
      "Ł¥": 8696,
      "Ġdirection": 8697,
      "uron": 8698,
      "bound": 8699,
      "Ġ&'": 8700,
      "Ġupcast": 8701,
      "à¤¿": 8702,
      "ìļ´": 8703,
      "Ġcontiguous": 8704,
      "notes": 8705,
      "ĠEnvironment": 8706,
      "egrations": 8707,
      "å¾Ĺ": 8708,
      "Beit": 8709,
      "Ġpickle": 8710,
      "gpig": 8711,
      "ãĥķãĤ¡ãĤ¤ãĥ«": 8712,
      "criminator": 8713,
      "!\")": 8714,
      "ache": 8715,
      "bt": 8716,
      "tiling": 8717,
      "íĮ": 8718,
      "Ġ._": 8719,
      "lens": 8720,
      "ëĭ¬": 8721,
      "Ġunderlying": 8722,
      "timeout": 8723,
      "regist": 8724,
      "FIX": 8725,
      "ãģĮãģĤãĤĭ": 8726,
      "Ġsuite": 8727,
      "åıĸ": 8728,
      "ìŀĳ": 8729,
      "mathbf": 8730,
      "Ġshorter": 8731,
      "ãĥĿãĥ¼ãĥĪ": 8732,
      "Ġexactly": 8733,
      "ĠIterableDataset": 8734,
      "Ġlatest": 8735,
      "Prior": 8736,
      "lg": 8737,
      "çŃ": 8738,
      "etas": 8739,
      "etical": 8740,
      "()<": 8741,
      "ĠSup": 8742,
      "Ġvot": 8743,
      "verbose": 8744,
      "Ġencoura": 8745,
      "Ġobser": 8746,
      "Ġcollator": 8747,
      "Ġobjective": 8748,
      "Ġrepresented": 8749,
      "à¥į": 8750,
      "Ġbigger": 8751,
      "ãģĻãĤĭãģŁãĤģãģ«": 8752,
      "ê±°": 8753,
      "ĠdonnÃ©es": 8754,
      "Ġmechanism": 8755,
      "SA": 8756,
      "qs": 8757,
      "Ġcore": 8758,
      "estig": 8759,
      "ĠìĽ": 8760,
      "íķ©": 8761,
      "RATE": 8762,
      ".\"})": 8763,
      "Ġruns": 8764,
      "support": 8765,
      "bottleneck": 8766,
      "Ġextracted": 8767,
      "Ġidentical": 8768,
      "Ã¶nn": 8769,
      "Fa": 8770,
      "Free": 8771,
      "ati": 8772,
      "ipp": 8773,
      "dicts": 8774,
      "Ġwhitespace": 8775,
      "Ġtested": 8776,
      "Tokens": 8777,
      "ĠEND": 8778,
      "Ġlegacy": 8779,
      "FIRST": 8780,
      "keepdim": 8781,
      "åĬ¹": 8782,
      "partial": 8783,
      "---:|": 8784,
      "Ġhardware": 8785,
      "Ġì²´": 8786,
      "ĠDistributedType": 8787,
      "uerstchen": 8788,
      "Ġlibraries": 8789,
      ")}\"": 8790,
      ">()?;": 8791,
      "Sat": 8792,
      "xcit": 8793,
      "çħ": 8794,
      "Ġactions": 8795,
      "ĠĠĠĠĠĠĠĠĠĠĠĠĠ": 8796,
      "ĠVideo": 8797,
      "ĠThey": 8798,
      "eger": 8799,
      "Ġweb": 8800,
      "Inversion": 8801,
      "FILE": 8802,
      "monstr": 8803,
      "ãĥĥãĥģ": 8804,
      "ĠTextual": 8805,
      "Ġinstantiated": 8806,
      "centage": 8807,
      "Ġrenamed": 8808,
      "ĠDDPM": 8809,
      "åŁº": 8810,
      "IntegrationTest": 8811,
      "MBEDDINGS": 8812,
      "çħ§": 8813,
      "BLE": 8814,
      "tw": 8815,
      "tity": 8816,
      "yst": 8817,
      "éĹ": 8818,
      "Ġocc": 8819,
      "\")?;": 8820,
      "Ġrecent": 8821,
      "ĠPI": 8822,
      "Ġproxies": 8823,
      "batchnorm": 8824,
      "Ġresource": 8825,
      "ĠkÃ¶nn": 8826,
      "scorer": 8827,
      "gradients": 8828,
      "display": 8829,
      "ãĥ©ãĤ¤": 8830,
      "Ġprojected": 8831,
      "ĠControlNetModel": 8832,
      "Ġíģ´ë": 8833,
      "íı¬ìĿ¸": 8834,
      "è½½": 8835,
      "Positional": 8836,
      ")ãĢĤ": 8837,
      "Handler": 8838,
      "Less": 8839,
      "Salesforce": 8840,
      "User": 8841,
      "WordPiece": 8842,
      "fdeb": 8843,
      "íĶ": 8844,
      "ĠâĢ": 8845,
      "ĠTests": 8846,
      "thers": 8847,
      "faae": 8848,
      "derr": 8849,
      "ĠRem": 8850,
      "Ġtimestamp": 8851,
      "sole": 8852,
      "Ġpainting": 8853,
      "ATE": 8854,
      "encodings": 8855,
      "èª¿": 8856,
      "é¡ŀ": 8857,
      "ìĽĲ": 8858,
      "Ġcompleted": 8859,
      "Ġconcatenated": 8860,
      "children": 8861,
      "ĠGradient": 8862,
      "fdebfaae": 8863,
      "<&": 8864,
      ">;": 8865,
      "Ups": 8866,
      "si": 8867,
      "ĠFunnel": 8868,
      "ĠDistil": 8869,
      "Ġì¡°": 8870,
      "ĠWordPiece": 8871,
      "network": 8872,
      "Ġgets": 8873,
      "observed": 8874,
      "ĠCLIPImageProcessor": 8875,
      "ategies": 8876,
      "åĲĮãģĺ": 8877,
      "ProphetNet": 8878,
      "Ġê°ĻìĿĢ": 8879,
      "itude": 8880,
      "ĠSTART": 8881,
      "DS": 8882,
      "Off": 8883,
      "SPE": 8884,
      "eff": 8885,
      "ka": 8886,
      "ele": 8887,
      "Ġincorrect": 8888,
      "Ġborder": 8889,
      "Ġexper": 8890,
      "ĠML": 8891,
      "Ġresources": 8892,
      "Ġgenerations": 8893,
      "plinter": 8894,
      "`.\")": 8895,
      "collate": 8896,
      "Ã©e": 8897,
      "Ġreload": 8898,
      "VEC": 8899,
      "Ġentities": 8900,
      "ãĥ©ãĥ¡": 8901,
      "Ġserver": 8902,
      "required": 8903,
      "å°ı": 8904,
      "ĠInstantiating": 8905,
      "Ġequation": 8906,
      "Scale": 8907,
      "bank": 8908,
      "Ġslightly": 8909,
      "Ġfrequency": 8910,
      "Ġnice": 8911,
      "uples": 8912,
      "isting": 8913,
      "Ġ)[": 8914,
      "Ġreordered": 8915,
      "=\"./": 8916,
      "ummary": 8917,
      "DEVI": 8918,
      "Ġoverlap": 8919,
      "ĠAda": 8920,
      "ê³Ħ": 8921,
      "Ġtrying": 8922,
      "freeu": 8923,
      "Ġìłģ": 8924,
      "sql": 8925,
      "Ġiterator": 8926,
      "streaming": 8927,
      "partition": 8928,
      "threadgroup": 8929,
      "íģ¬íı¬ìĿ¸": 8930,
      "ĠPRETRAINED": 8931,
      "between": 8932,
      "quivalence": 8933,
      "Ġimprove": 8934,
      "platen": 8935,
      "Ġdependencies": 8936,
      "ossible": 8937,
      "BLOCK": 8938,
      "TYP": 8939,
      "bg": 8940,
      "bmm": 8941,
      "bicubic": 8942,
      "hat": 8943,
      "ãĥİ": 8944,
      "ĠDETR": 8945,
      "ImageModeling": 8946,
      "='',": 8947,
      "kvon": 8948,
      "projects": 8949,
      "LayoutLM": 8950,
      "Ġrewards": 8951,
      "ĠPeftModel": 8952,
      "rickvon": 8953,
      "çĽ®": 8954,
      "æĹ¶": 8955,
      "hfoption": 8956,
      "Ġfeel": 8957,
      "ãĥ©ãĥ¡ãĥ¼ãĤ¿": 8958,
      "<<": 8959,
      "Mid": 8960,
      "ŀĺ": 8961,
      "Ġtgpig": 8962,
      "Ġsparse": 8963,
      "Ġcp": 8964,
      "Ġfo": 8965,
      "Ġreverse": 8966,
      "ĠSto": 8967,
      "Ġeager": 8968,
      "ĠNLP": 8969,
      "ARG": 8970,
      "Ġprobably": 8971,
      "DownEncoderBlock": 8972,
      "Ġclos": 8973,
      "å¼ı": 8974,
      "rickvonplaten": 8975,
      "Optimizer": 8976,
      "íħ": 8977,
      "Ġothers": 8978,
      "depen": 8979,
      "ĠPop": 8980,
      "assertNot": 8981,
      "Ġprefill": 8982,
      "park": 8983,
      "Ġ/*": 8984,
      "à°¯": 8985,
      "Ã©ch": 8986,
      "ï¼ģ": 8987,
      "Ġstarted": 8988,
      "Ġsubset": 8989,
      "bined": 8990,
      "scaler": 8991,
      "Ġpreviously": 8992,
      "å¾Į": 8993,
      "mesh": 8994,
      "Ġtk": 8995,
      "ĠPal": 8996,
      "Ġunits": 8997,
      "assertLess": 8998,
      "Ġprefer": 8999,
      "TIC": 9000,
      "issue": 9001,
      "ĠConnections": 9002,
      "when": 9003,
      "´ë³": 9004,
      "spm": 9005,
      "ĠQK": 9006,
      "å¾®": 9007,
      "Ġexecute": 9008,
      "ë¶Ģ": 9009,
      "patrickvonplaten": 9010,
      ")\"": 9011,
      "ECH": 9012,
      "From": 9013,
      "Rem": 9014,
      "funnel": 9015,
      "tun": 9016,
      "Ġ\"{": 9017,
      "semb": 9018,
      "ãĤ«": 9019,
      "Ġvocoder": 9020,
      "Ġtextual": 9021,
      "BertForMaskedLM": 9022,
      "Ġoverflowing": 9023,
      "ConvNext": 9024,
      "Ġfollows": 9025,
      "binary": 9026,
      "GELU": 9027,
      "Ġmerged": 9028,
      "mixin": 9029,
      "ĠTPUs": 9030,
      "ĠPerceiver": 9031,
      "timestamps": 9032,
      "éħįç½®": 9033,
      "ĠAutoPipelineFor": 9034,
      "ç®Ĺ": 9035,
      "UP": 9036,
      "finished": 9037,
      "na": 9038,
      "æ·": 9039,
      "chron": 9040,
      "Ġfetch": 9041,
      "ĠPush": 9042,
      "Ġuni": 9043,
      "**-": 9044,
      "Ġbatching": 9045,
      "illion": 9046,
      "Ġenum": 9047,
      "Ġcomment": 9048,
      "ĠUnit": 9049,
      "Ġleave": 9050,
      "Ġrole": 9051,
      "Ġgives": 9052,
      "ĠState": 9053,
      "Extraction": 9054,
      "formableDetr": 9055,
      "cumsum": 9056,
      "ĠConditional": 9057,
      "TokenizedInput": 9058,
      "'.": 9059,
      ">`": 9060,
      "BAS": 9061,
      "First": 9062,
      "Over": 9063,
      "Si": 9064,
      "VAE": 9065,
      "literalinclude": 9066,
      "nement": 9067,
      "éļ": 9068,
      "Ġtod": 9069,
      "Ġthus": 9070,
      "ĠPix": 9071,
      "forced": 9072,
      "jected": 9073,
      "Instruct": 9074,
      "ENCE": 9075,
      "NormAct": 9076,
      "DecoderLayer": 9077,
      "ĠDictionary": 9078,
      "Ã¡s": 9079,
      "Ġagainst": 9080,
      "Ġincludes": 9081,
      "ĠGitHub": 9082,
      "Ġmaintain": 9083,
      "OW": 9084,
      "TRA": 9085,
      "known": 9086,
      "xpu": 9087,
      "Ġask": 9088,
      "Ġtile": 9089,
      "Ġtiny": 9090,
      "alization": 9091,
      "rant": 9092,
      "ĠInstruct": 9093,
      "Cont": 9094,
      "ĠDeiT": 9095,
      "Ġfailed": 9096,
      "UpDecoderBlock": 9097,
      "variables": 9098,
      "ĊĠĠĠĠĠĠĠĠĠĠĠĠĠĠĠĠĠĠĠĠĠĠĠĠĠĠĠĠĠĠĠĠĠĠĠĠĠĠĠĠĠĠĠĠĠĠĠ": 9099,
      "Ġë§¤": 9100,
      "Ġcombined": 9101,
      "ĠìĦ¤ìłķ": 9102,
      "WARN": 9103,
      "íĺĦ": 9104,
      "å¹¶": 9105,
      "gmlDType": 9106,
      "è¾¼ãģ¿": 9107,
      ">(&": 9108,
      "EPS": 9109,
      "NLP": 9110,
      "çı": 9111,
      "ĠÐ": 9112,
      "Ġtrad": 9113,
      "alm": 9114,
      "Ġfinished": 9115,
      "ĠLa": 9116,
      "ĠPT": 9117,
      "ĠVQ": 9118,
      "ĠEuler": 9119,
      "abspath": 9120,
      "ê³µ": 9121,
      "Ġrequirements": 9122,
      "Ġworker": 9123,
      "ãĤ¤ãĥ³ãĥĪ": 9124,
      "IterableDataset": 9125,
      "æīĢ": 9126,
      "ifacts": 9127,
      "ĠOtherwise": 9128,
      "TTP": 9129,
      "ĠëĺĲëĬĶ": 9130,
      ">!": 9131,
      "Est": 9132,
      "Embed": 9133,
      "});": 9134,
      "ç¨": 9135,
      "Ġ::": 9136,
      "Ġsliced": 9137,
      "Ġfs": 9138,
      "Ġaus": 9139,
      "ĠTruncationStrategy": 9140,
      "ãĥĭ": 9141,
      "ĠLC": 9142,
      "ĠMin": 9143,
      "Ġstrict": 9144,
      "Ġinstances": 9145,
      "Ġdocuments": 9146,
      "ãĤ¤ãĥī": 9147,
      "ĠPredict": 9148,
      "~~~~~~~~~~~~~~~~": 9149,
      "éĢļå¸¸": 9150,
      "Ġdescribed": 9151,
      "Xiv": 9152,
      "ball": 9153,
      "å£": 9154,
      "eli": 9155,
      "Ġmomentum": 9156,
      "resample": 9157,
      "define": 9158,
      "ĠíħįìĬ¤íĬ¸": 9159,
      "aeImageProcessor": 9160,
      "åĲĦ": 9161,
      "hyper": 9162,
      "Ġìĺ¤": 9163,
      "ëıĦë¡Ŀ": 9164,
      "ruit": 9165,
      "Ġinferred": 9166,
      "ãĥĿãĤ¤ãĥ³ãĥĪ": 9167,
      "ä¼ļ": 9168,
      "NGKey": 9169,
      "ĠëĶĶ": 9170,
      "#!/": 9171,
      "conformer": 9172,
      "fold": 9173,
      "æ©": 9174,
      "mapped": 9175,
      "ĠCausalLM": 9176,
      "ĠLuke": 9177,
      "Ġalloc": 9178,
      "generative": 9179,
      "Ġcompared": 9180,
      "Ġapplies": 9181,
      "ãĤ¹ãĥĨ": 9182,
      "Ġcorrespond": 9183,
      "ordLevel": 9184,
      "IMAGENET": 9185,
      "ĠFeature": 9186,
      "Ġì²´íģ¬íı¬ìĿ¸": 9187,
      "ĠkÃ¶nnen": 9188,
      "API": 9189,
      "vas": 9190,
      "vqa": 9191,
      "chapter": 9192,
      "Ġdemonstr": 9193,
      "ãĥĦ": 9194,
      "ĠBottleneck": 9195,
      "ìĹĲëĬĶ": 9196,
      "Ġinstallation": 9197,
      "contin": 9198,
      "forecast": 9199,
      "phi": 9200,
      "divisor": 9201,
      "à±ĩ": 9202,
      "AddedToken": 9203,
      "è¯·": 9204,
      "usercontent": 9205,
      "æĮĩ": 9206,
      "íķĺëł¤ë©´": 9207,
      "ŀĺìĬ¤": 9208,
      "çı¾": 9209,
      "Vari": 9210,
      "VAL": 9211,
      "íĭ": 9212,
      "Ġppo": 9213,
      "oly": 9214,
      "upsamplers": 9215,
      "integration": 9216,
      "ĠCor": 9217,
      "oses": 9218,
      "clm": 9219,
[...]
