{
  "version": "1.0",
  "truncation": null,
  "padding": null,
  "added_tokens": [
    {
      "id": 0,
      "content": "[PAD]",
      "single_word": false,
      "lstrip": false,
      "rstrip": false,
      "normalized": false,
      "special": true
    },
    {
      "id": 1,
      "content": "[UNK]",
      "single_word": false,
      "lstrip": false,
      "rstrip": false,
      "normalized": false,
      "special": true
    },
    {
      "id": 2,
      "content": "[CLS]",
      "single_word": false,
      "lstrip": false,
      "rstrip": false,
      "normalized": false,
      "special": true
    },
    {
      "id": 3,
      "content": "[SEP]",
      "single_word": false,
      "lstrip": false,
      "rstrip": false,
      "normalized": false,
      "special": true
    },
    {
      "id": 4,
      "content": "[MASK]",
      "single_word": false,
      "lstrip": false,
      "rstrip": false,
      "normalized": false,
      "special": true
    }
  ],
  "normalizer": null,
  "pre_tokenizer": null,
  "post_processor": null,
  "decoder": null,
  "model": {
    "type": "BPE",
    "dropout": null,
    "unk_token": null,
    "continuing_subword_prefix": null,
    "end_of_word_suffix": null,
    "fuse_unk": false,
    "byte_fallback": false,
    "ignore_merges": false,
    "vocab": {
      "[PAD]": 0,
      "[UNK]": 1,
      "[CLS]": 2,
      "[SEP]": 3,
      "[MASK]": 4,
      "\n": 5,
      " ": 6,
      "!": 7,
      "\"": 8,
      "#": 9,
      "$": 10,
      "%": 11,
      "&": 12,
      "'": 13,
      "(": 14,
      ")": 15,
      "*": 16,
      "+": 17,
      ",": 18,
      "-": 19,
      ".": 20,
      "/": 21,
      "0": 22,
      "1": 23,
      "2": 24,
      "3": 25,
      "4": 26,
      "5": 27,
      "6": 28,
      "7": 29,
      "8": 30,
      "9": 31,
      ":": 32,
      ";": 33,
      "<": 34,
      "=": 35,
      ">": 36,
      "?": 37,
      "@": 38,
      "A": 39,
      "B": 40,
      "C": 41,
      "D": 42,
      "E": 43,
      "F": 44,
      "G": 45,
      "H": 46,
      "I": 47,
      "J": 48,
      "K": 49,
      "L": 50,
      "M": 51,
      "N": 52,
      "O": 53,
      "P": 54,
      "Q": 55,
      "R": 56,
      "S": 57,
      "T": 58,
      "U": 59,
      "V": 60,
      "W": 61,
      "X": 62,
      "Y": 63,
      "Z": 64,
      "[": 65,
      "\\": 66,
      "]": 67,
      "^": 68,
      "`": 69,
      "a": 70,
      "b": 71,
      "c": 72,
      "d": 73,
      "e": 74,
      "f": 75,
      "g": 76,
      "h": 77,
      "i": 78,
      "j": 79,
      "k": 80,
      "l": 81,
      "m": 82,
      "n": 83,
      "o": 84,
      "p": 85,
      "q": 86,
      "r": 87,
      "s": 88,
      "t": 89,
      "u": 90,
      "v": 91,
      "w": 92,
      "x": 93,
      "y": 94,
      "z": 95,
      "|": 96,
      "~": 97,
      "¡": 98,
      "£": 99,
      "¥": 100,
      "§": 101,
      "°": 102,
      "±": 103,
      "²": 104,
      "³": 105,
      "µ": 106,
      "·": 107,
      "½": 108,
      "Á": 109,
      "Å": 110,
      "Æ": 111,
      "É": 112,
      "Í": 113,
      "Î": 114,
      "Ö": 115,
      "×": 116,
      "Ø": 117,
      "Ú": 118,
      "Ü": 119,
      "Þ": 120,
      "à": 121,
      "á": 122,
      "â": 123,
      "ã": 124,
      "ä": 125,
      "å": 126,
      "ç": 127,
      "è": 128,
      "é": 129,
      "ê": 130,
      "ë": 131,
      "ì": 132,
      "í": 133,
      "î": 134,
      "ñ": 135,
      "ò": 136,
      "ó": 137,
      "ô": 138,
      "ö": 139,
      "ø": 140,
      "ú": 141,
      "û": 142,
      "ü": 143,
      "Ā": 144,
      "ā": 145,
      "ă": 146,
      "ć": 147,
      "č": 148,
      "Đ": 149,
      "đ": 150,
      "ė": 151,
      "ī": 152,
      "Ł": 153,
      "ł": 154,
      "ń": 155,
      "Ō": 156,
      "ō": 157,
      "ś": 158,
      "ş": 159,
      "š": 160,
      "ū": 161,
      "ų": 162,
      "Ż": 163,
      "ž": 164,
      "ơ": 165,
      "ư": 166,
      "ʻ": 167,
      "ʿ": 168,
      "̃": 169,
      "α": 170,
      "β": 171,
      "γ": 172,
      "κ": 173,
      "μ": 174,
      "С": 175,
      "а": 176,
      "в": 177,
      "е": 178,
      "к": 179,
      "о": 180,
      "с": 181,
      "т": 182,
      "я": 183,
      "ا": 184,
      "ح": 185,
      "ص": 186,
      "ل": 187,
      "ن": 188,
      "ه": 189,
      "्": 190,
      "ก": 191,
      "ง": 192,
      "ณ": 193,
      "ต": 194,
      "ม": 195,
      "ย": 196,
      "ร": 197,
      "ล": 198,
      "ั": 199,
      "า": 200,
      "ิ": 201,
      "่": 202,
      "์": 203,
      "გ": 204,
      "დ": 205,
      "ვ": 206,
      "ზ": 207,
      "ი": 208,
      "კ": 209,
      "ო": 210,
      "რ": 211,
      "ს": 212,
      "უ": 213,
      "ც": 214,
      "ძ": 215,
      "წ": 216,
      "ხ": 217,
      "ჯ": 218,
      "჻": 219,
      "ḥ": 220,
      "ṃ": 221,
      "ṅ": 222,
      "ṣ": 223,
      "ṭ": 224,
      "ṯ": 225,
      "ả": 226,
      "ấ": 227,
      "ầ": 228,
      "ắ": 229,
      "ễ": 230,
      "ệ": 231,
      "ị": 232,
      "ớ": 233,
      "ử": 234,
      "ỳ": 235,
      "‑": 236,
      "–": 237,
      "—": 238,
      "‘": 239,
      "’": 240,
      "“": 241,
      "”": 242,
      "„": 243,
      "†": 244,
      "…": 245,
      "′": 246,
      "″": 247,
      "⁄": 248,
      "₤": 249,
      "€": 250,
      "₹": 251,
      "⅓": 252,
      "⅔": 253,
      "→": 254,
      "−": 255,
      "≤": 256,
      "☉": 257,
      "♭": 258,
      "♯": 259,
      "〈": 260,
      "〉": 261,
      "の": 262,
      "ァ": 263,
      "ア": 264,
      "キ": 265,
      "ス": 266,
      "ッ": 267,
      "ト": 268,
      "プ": 269,
      "ュ": 270,
      "リ": 271,
      "ル": 272,
      "ヴ": 273,
      "・": 274,
      "動": 275,
      "場": 276,
      "大": 277,
      "戦": 278,
      "攻": 279,
      "機": 280,
      "殻": 281,
      "火": 282,
      "礮": 283,
      "空": 284,
      "隊": 285,
      "﻿": 286,
      "～": 287,
      "e ": 288,
      "s ": 289,
      "th": 290,
      "d ": 291,
      "n ": 292,
      "er": 293,
      "t ": 294,
      "the ": 295,
      "in": 296,
      "an": 297,
      ", ": 298,
      "y ": 299,
      "ed ": 300,
      "or": 301,
      "ar": 302,
      "al": 303,
      "o ": 304,
      ". ": 305,
      "f ": 306,
      "re": 307,
      "ti": 308,
      "of ": 309,
      "and ": 310,
      "on": 311,
      "er ": 312,
      "a ": 313,
      "en": 314,
      "g ": 315,
      "on ": 316,
      "in ": 317,
      "ing ": 318,
      "ou": 319,
      "to ": 320,
      "as ": 321,
      "st": 322,
      "es ": 323,
      "at": 324,
      "ic": 325,
      "ro": 326,
      "m ": 327,
      "el": 328,
      " , ": 329,
      "is ": 330,
      "it": 331,
      "he ": 332,
      "il": 333,
      "at ": 334,
      "ch": 335,
      "\" ": 336,
      "an ": 337,
      "al ": 338,
      "th ": 339,
      "is": 340,
      "for": 341,
      "ur": 342,
      "@ ": 343,
      "om": 344,
      "ac": 345,
      "as": 346,
      "es": 347,
      "was ": 348,
      "ec": 349,
      "am": 350,
      "en ": 351,
      "ol": 352,
      "ir": 353,
      "ow": 354,
      "The ": 355,
      "ly ": 356,
      "tion ": 357,
      "of the ": 358,
      "@-": 359,
      "si": 360,
      "wh": 361,
      "@-@ ": 362,
      "ri": 363,
      "h ": 364,
      "wi": 365,
      "= ": 366,
      "ad": 367,
      "l ": 368,
      "em": 369,
      ".\n": 370,
      "that ": 371,
      "pl": 372,
      "'s ": 373,
      "k ": 374,
      "us": 375,
      "for ": 376,
      "un": 377,
      "ve ": 378,
      "ha": 379,
      "ag": 380,
      "by ": 381,
      "di": 382,
      "ev": 383,
      "with ": 384,
      "be": 385,
      "ent ": 386,
      "con": 387,
      "li": 388,
      "ent": 389,
      "( ": 390,
      "os": 391,
      ". The ": 392,
      "ere ": 393,
      "s , ": 394,
      "in the ": 395,
      "19": 396,
      "le": 397,
      "0 ": 398,
      "e , ": 399,
      "ra": 400,
      "su": 401,
      "the": 402,
      "op": 403,
      "hi": 404,
      "pro": 405,
      "his ": 406,
      "or ": 407,
      "oun": 408,
      "ear": 409,
      "com": 410,
      "ov": 411,
      "rom ": 412,
      "bu": 413,
      ") ": 414,
      "le ": 415,
      "gh": 416,
      "ted ": 417,
      "ce ": 418,
      "from ": 419,
      "de": 420,
      "it ": 421,
      "ab": 422,
      "ex": 423,
      "ers ": 424,
      "ch ": 425,
      "ul": 426,
      "tion": 427,
      "ap": 428,
      "ay ": 429,
      "ation ": 430,
      "= = ": 431,
      "20": 432,
      "et": 433,
      "cl": 434,
      "sp": 435,
      "were ": 436,
      "oc": 437,
      "ter ": 438,
      "ew": 439,
      ". I": 440,
      "to the ": 441,
      "st ": 442,
      "ther ": 443,
      "vi": 444,
      "se": 445,
      "p ": 446,
      "tr": 447,
      "im": 448,
      "ea": 449,
      "oo": 450,
      "pre": 451,
      "ts ": 452,
      ". A": 453,
      "ar ": 454,
      "ter": 455,
      "ated ": 456,
      "no": 457,
      "our": 458,
      "ity ": 459,
      "tic": 460,
      ", and ": 461,
      "rec": 462,
      "e of ": 463,
      "uc": 464,
      "ds ": 465,
      "ded ": 466,
      "ain": 467,
      "ich ": 468,
      "ir ": 469,
      "qu": 470,
      "ic ": 471,
      "per": 472,
      "had ": 473,
      "ding ": 474,
      "tw": 475,
      "ay": 476,
      "par": 477,
      "ff": 478,
      "ame ": 479,
      "are ": 480,
      "which ": 481,
      "sh": 482,
      "ing": 483,
      "ld ": 484,
      "ate ": 485,
      "um": 486,
      "est ": 487,
      "1 ": 488,
      "str": 489,
      "ong ": 490,
      "all ": 491,
      "iv": 492,
      "be ": 493,
      "2 ": 494,
      "out ": 495,
      "ed the ": 496,
      "so ": 497,
      "5 ": 498,
      ". T": 499,
      "fir": 500,
      "de ": 501,
      "ak": 502,
      "ing the ": 503,
      "ally ": 504,
      "ber ": 505,
      "ies ": 506,
      "ep": 507,
      "ed to ": 508,
      "tim": 509,
      "gh ": 510,
      ". H": 511,
      "St": 512,
      "ation": 513,
      "on the ": 514,
      "its ": 515,
      "one ": 516,
      "ght ": 517,
      "por": 518,
      "po": 519,
      "man": 520,
      "ed by ": 521,
      "low": 522,
      "ig": 523,
      "3 ": 524,
      "Ch": 525,
      "et ": 526,
      "but ": 527,
      "ary ": 528,
      "der": 529,
      "est": 530,
      "wor": 531,
      "200": 532,
      "; ": 533,
      "their ": 534,
      "4 ": 535,
      "bl": 536,
      "not ": 537,
      "tur": 538,
      "own ": 539,
      "ew ": 540,
      "att": 541,
      "first ": 542,
      "rou": 543,
      "ser": 544,
      "6 ": 545,
      "=\n": 546,
      "– ": 547,
      "clu": 548,
      "s and ": 549,
      "fter ": 550,
      ", the ": 551,
      "og": 552,
      "el ": 553,
      "ould ": 554,
      "her ": 555,
      "also ": 556,
      ". In ": 557,
      "bo": 558,
      "ine ": 559,
      "all": 560,
      "8 ": 561,
      "fi": 562,
      "ost ": 563,
      "sc": 564,
      "der ": 565,
      "cont": 566,
      "s of ": 567,
      "for the ": 568,
      "ran": 569,
      "ion ": 570,
      "other ": 571,
      "ver": 572,
      "have ": 573,
      "ard ": 574,
      "ore ": 575,
      "ast ": 576,
      "ound ": 577,
      "ain ": 578,
      "ge ": 579,
      "and the ": 580,
      "ed in ": 581,
      ": ": 582,
      "has ": 583,
      "i ": 584,
      "7 ": 585,
      "00 ": 586,
      "been ": 587,
      "two ": 588,
      "@.": 589,
      "@.@ ": 590,
      "ed": 591,
      "ru": 592,
      "stor": 593,
      "ack ": 594,
      "bec": 595,
      "des": 596,
      "this ": 597,
      "av": 598,
      "ot": 599,
      "id": 600,
      "land ": 601,
      "ater ": 602,
      "ome ": 603,
      "es , ": 604,
      "dis": 605,
      "ment ": 606,
      "ill": 607,
      "ely ": 608,
      "who ": 609,
      "ey ": 610,
      "ish": 611,
      "they ": 612,
      "year": 613,
      "201": 614,
      "age ": 615,
      "from the ": 616,
      "ence ": 617,
      "sec": 618,
      "pu": 619,
      "ue ": 620,
      "aw": 621,
      "mil": 622,
      "18": 623,
      "duc": 624,
      "fin": 625,
      "comm": 626,
      " , and ": 627,
      "at the ": 628,
      "pres": 629,
      "over": 630,
      "9 ": 631,
      "shi": 632,
      "ical ": 633,
      "id ": 634,
      "' ": 635,
      "rit": 636,
      "fe": 637,
      "form": 638,
      "au": 639,
      "tive ": 640,
      "ob": 641,
      "inclu": 642,
      "cre": 643,
      "@,": 644,
      "@,@ ": 645,
      "I ": 646,
      "ting ": 647,
      "after ": 648,
      "ass": 649,
      "er , ": 650,
      "with the ": 651,
      "ous ": 652,
      "me": 653,
      "ad ": 654,
      "gu": 655,
      ". S": 656,
      "ade ": 657,
      "ow ": 658,
      "ia ": 659,
      "ant ": 660,
      "cri": 661,
      "ents ": 662,
      "as a ": 663,
      "pe": 664,
      "y , ": 665,
      "fl": 666,
      ". Th": 667,
      "over ": 668,
      "ember ": 669,
      "In": 670,
      "pr": 671,
      ". He ": 672,
      "sion ": 673,
      "our ": 674,
      "play": 675,
      "ree ": 676,
      "ile ": 677,
      "ack": 678,
      "een ": 679,
      "min": 680,
      "ph": 681,
      "ell ": 682,
      " , the ": 683,
      "Un": 684,
      "Mar": 685,
      "thou": 686,
      "ite ": 687,
      "mo": 688,
      "pos": 689,
      "cent": 690,
      "would ": 691,
      "more ": 692,
      "il ": 693,
      "spec": 694,
      "ial ": 695,
      "rem": 696,
      "able ": 697,
      "ese ": 698,
      "ian ": 699,
      "kn": 700,
      "that the ": 701,
      "char": 702,
      "us ": 703,
      "se ": 704,
      "te ": 705,
      " @-@ ": 706,
      "ach": 707,
      "ren": 708,
      ". It ": 709,
      "up ": 710,
      "ess": 711,
      "most ": 712,
      "ten": 713,
      "eral ": 714,
      "ish ": 715,
      "son ": 716,
      "ft ": 717,
      "ast": 718,
      "ann": 719,
      "ern ": 720,
      "A ": 721,
      "eg": 722,
      "= = = ": 723,
      "ric": 724,
      "off": 725,
      "ty ": 726,
      ". \" ": 727,
      "dur": 728,
      "lar": 729,
      ". O": 730,
      "ess ": 731,
      ") , ": 732,
      "only ": 733,
      "as the ": 734,
      "tic ": 735,
      "ke ": 736,
      "man ": 737,
      "in 19": 738,
      "inter": 739,
      "are": 740,
      "Al": 741,
      "time ": 742,
      "t of ": 743,
      "ed a ": 744,
      "when ": 745,
      "ee": 746,
      "ell": 747,
      "ust ": 748,
      "ons ": 749,
      "lan": 750,
      "Au": 751,
      "pan": 752,
      "row": 753,
      ". B": 754,
      "mer": 755,
      "res": 756,
      "dec": 757,
      "she ": 758,
      "enc": 759,
      "iti": 760,
      "ond ": 761,
      "Wh": 762,
      "tu": 763,
      "ance ": 764,
      "aus": 765,
      "od": 766,
      "a , ": 767,
      "ong": 768,
      "ace ": 769,
      "ason ": 770,
      "than ": 771,
      "serv": 772,
      "ni": 773,
      "col": 774,
      "reg": 775,
      "x ": 776,
      "\" , ": 777,
      "ice ": 778,
      "En": 779,
      "ited ": 780,
      "mar": 781,
      "ollow": 782,
      "sev": 783,
      "fil": 784,
      "ure ": 785,
      "about ": 786,
      "anc": 787,
      "him ": 788,
      "ks ": 789,
      "end ": 790,
      "um ": 791,
      "ations ": 792,
      "= = =\n": 793,
      "ates ": 794,
      "gr": 795,
      "ei": 796,
      "An": 797,
      "writ": 798,
      "old ": 799,
      "In ": 800,
      "res ": 801,
      "in a ": 802,
      "betw": 803,
      "between ": 804,
      "cc": 805,
      "Bri": 806,
      "star": 807,
      "ake ": 808,
      "recor": 809,
      "three ": 810,
      "am ": 811,
      "sa": 812,
      "throu": 813,
      "om ": 814,
      "sou": 815,
      "num": 816,
      "of": 817,
      "though ": 818,
      "iz": 819,
      "ased ": 820,
      "tra": 821,
      "ple ": 822,
      "tor": 823,
      "while ": 824,
      "later ": 825,
      "ook ": 826,
      "ning ": 827,
      "struc": 828,
      "nor": 829,
      "up": 830,
      "to be ": 831,
      "t , ": 832,
      "Com": 833,
      "sel": 834,
      "ang": 835,
      "season ": 836,
      "beg": 837,
      "eb": 838,
      "tions ": 839,
      "rop": 840,
      "rele": 841,
      "als ": 842,
      "gen": 843,
      "sy": 844,
      "by the ": 845,
      "fore ": 846,
      "ist": 847,
      "app": 848,
      "ood ": 849,
      "into ": 850,
      "mon": 851,
      ". F": 852,
      "game ": 853,
      "ision ": 854,
      "du": 855,
      "where ": 856,
      "way ": 857,
      "king ": 858,
      "produc": 859,
      "ational ": 860,
      "co": 861,
      "ose ": 862,
      "Car": 863,
      "meric": 864,
      "ill ": 865,
      "amp": 866,
      "Ar": 867,
      "Americ": 868,
      "te": 869,
      "with": 870,
      "tis": 871,
      "nam": 872,
      "made ": 873,
      "ten ": 874,
      "Th": 875,
      "sur": 876,
      "ings ": 877,
      "follow": 878,
      "ship ": 879,
      "mus": 880,
      "hel": 881,
      "evel": 882,
      "loc": 883,
      "acc": 884,
      "ement ": 885,
      ". M": 886,
      "them ": 887,
      "go": 888,
      "sub": 889,
      "such ": 890,
      "Jo": 891,
      "publ": 892,
      "ist ": 893,
      "@,@ 0": 894,
      "tiv": 895,
      "sig": 896,
      "new ": 897,
      "ase ": 898,
      "buil": 899,
      "Par": 900,
      "re ": 901,
      "199": 902,
      "with a ": 903,
      "es and ": 904,
      "ked ": 905,
      "s , and ": 906,
      "ud": 907,
      "and": 908,
      "to": 909,
      "es of ": 910,
      "albu": 911,
      "riv": 912,
      "ily ": 913,
      "song ": 914,
      ". D": 915,
      "ned ": 916,
      "enti": 917,
      "sup": 918,
      "op ": 919,
      "cap": 920,
      "air": 921,
      "fu": 922,
      "lin": 923,
      "ble ": 924,
      "olog": 925,
      "before ": 926,
      "ath": 927,
      "compl": 928,
      "Eng": 929,
      "is a ": 930,
      "owev": 931,
      "@,@ 000 ": 932,
      "appear": 933,
      "ected ": 934,
      "can ": 935,
      "pol": 936,
      "ste": 937,
      "oy": 938,
      "known ": 939,
      "ed , ": 940,
      "ans ": 941,
      "ating ": 942,
      "some ": 943,
      "ma": 944,
      "inc": 945,
      ". This ": 946,
      "being ": 947,
      "series ": 948,
      "Nor": 949,
      "fac": 950,
      "well ": 951,
      "many ": 952,
      "album ": 953,
      "poin": 954,
      "it was ": 955,
      "then ": 956,
      "sti": 957,
      "early ": 958,
      "call": 959,
      "fic": 960,
      "yp": 961,
      "second ": 962,
      "through ": 963,
      "ury ": 964,
      "mov": 965,
      "both ": 966,
      "rel": 967,
      "ainst ": 968,
      "including ": 969,
      "consi": 970,
      "epis": 971,
      "film ": 972,
      "ton ": 973,
      "New ": 974,
      "coun": 975,
      "day ": 976,
      "mat": 977,
      "ol ": 978,
      "against ": 979,
      "number ": 980,
      "direc": 981,
      "tion of ": 982,
      "ous": 983,
      "posi": 984,
      "ail": 985,
      "no ": 986,
      "became ": 987,
      "b ": 988,
      "/ ": 989,
      "ect ": 990,
      "ince ": 991,
      "tri": 992,
      "gre": 993,
      "les ": 994,
      "ry ": 995,
      "— ": 996,
      "ards ": 997,
      "cho": 998,
      "charac": 999,
      "tly ": 1000,
      "= =\n": 1001,
      "Joh": 1002,
      "tran": 1003,
      "bel": 1004,
      "iver": 1005,
      "Li": 1006,
      "there ": 1007,
      "vis": 1008,
      "eng": 1009,
      "tea": 1010,
      "orig": 1011,
      "sm": 1012,
      "end": 1013,
      "devel": 1014,
      "ed that ": 1015,
      "car": 1016,
      "peri": 1017,
      "ps ": 1018,
      "sing": 1019,
      "inv": 1020,
      "descri": 1021,
      "hea": 1022,
      "work ": 1023,
      "United ": 1024,
      "y of ": 1025,
      "fer": 1026,
      "ros": 1027,
      "S ": 1028,
      "succ": 1029,
      "side ": 1030,
      "sid": 1031,
      "win": 1032,
      "opul": 1033,
      "contin": 1034,
      "ear ": 1035,
      "during the ": 1036,
      "sul": 1037,
      "cer": 1038,
      "ort ": 1039,
      "lion ": 1040,
      "ture ": 1041,
      "gam": 1042,
      ". A ": 1043,
      "four ": 1044,
      "e , and ": 1045,
      "origin": 1046,
      "od ": 1047,
      "mi": 1048,
      "ot ": 1049,
      "ery ": 1050,
      "several ": 1051,
      "under ": 1052,
      "diff": 1053,
      "Con": 1054,
      "began ": 1055,
      "mis": 1056,
      "tish ": 1057,
      "ou ": 1058,
      "ari": 1059,
      "he was ": 1060,
      "arm": 1061,
      "w ": 1062,
      "fe ": 1063,
      "mp": 1064,
      "ris": 1065,
      "popul": 1066,
      "adi": 1067,
      "ave ": 1068,
      "develop": 1069,
      "dre": 1070,
      "ing a ": 1071,
      "ed by the ": 1072,
      "Ju": 1073,
      "used ": 1074,
      "owever , ": 1075,
      "oper": 1076,
      "ters ": 1077,
      "high": 1078,
      "C ": 1079,
      "line ": 1080,
      "emb": 1081,
      "found ": 1082,
      "ays ": 1083,
      "ion": 1084,
      "pp": 1085,
      ", but ": 1086,
      "sol": 1087,
      "year ": 1088,
      "ale ": 1089,
      "til ": 1090,
      "ause ": 1091,
      "10 ": 1092,
      "like ": 1093,
      "Wor": 1094,
      "ation of ": 1095,
      "years ": 1096,
      "feat": 1097,
      "was the ": 1098,
      "tle ": 1099,
      "overn": 1100,
      "self ": 1101,
      "could ": 1102,
      "histor": 1103,
      "m ) ": 1104,
      "said ": 1105,
      "eiv": 1106,
      "plac": 1107,
      "cur": 1108,
      "port ": 1109,
      "ign ": 1110,
      "may ": 1111,
      "org": 1112,
      "ative ": 1113,
      "s the ": 1114,
      "American ": 1115,
      "Le": 1116,
      "ed in the ": 1117,
      "describ": 1118,
      "Ger": 1119,
      "view": 1120,
      "ai": 1121,
      "forc": 1122,
      "these ": 1123,
      "to a ": 1124,
      "fam": 1125,
      "lo": 1126,
      "until ": 1127,
      "ept": 1128,
      "ode ": 1129,
      "ali": 1130,
      "Col": 1131,
      "city ": 1132,
      "any ": 1133,
      "play ": 1134,
      "ron": 1135,
      "oci": 1136,
      "off ": 1137,
      "ey": 1138,
      "k , ": 1139,
      "did ": 1140,
      "he": 1141,
      "same ": 1142,
      "offic": 1143,
      "outh ": 1144,
      "sive ": 1145,
      "each ": 1146,
      "thern ": 1147,
      "peo": 1148,
      "retur": 1149,
      "low ": 1150,
      "back ": 1151,
      "had been ": 1152,
      "ass ": 1153,
      "British ": 1154,
      "t the ": 1155,
      "198": 1156,
      "ever ": 1157,
      "gi": 1158,
      "do": 1159,
      "receiv": 1160,
      "century ": 1161,
      "Sc": 1162,
      "tor ": 1163,
      "remain": 1164,
      "ward ": 1165,
      "ird ": 1166,
      "abl": 1167,
      "red ": 1168,
      ". W": 1169,
      "mu": 1170,
      "for a ": 1171,
      "dep": 1172,
      "million ": 1173,
      "Oc": 1174,
      "ef": 1175,
      "eld ": 1176,
      "own": 1177,
      ", which ": 1178,
      "ll ": 1179,
      "bor": 1180,
      "ant": 1181,
      "compan": 1182,
      "down ": 1183,
      "emp": 1184,
      "gg": 1185,
      ". On ": 1186,
      "Jan": 1187,
      ". Wh": 1188,
      "tical ": 1189,
      "John ": 1190,
      "194": 1191,
      "tro": 1192,
      "have been ": 1193,
      "pri": 1194,
      "tl": 1195,
      "t of the ": 1196,
      "along ": 1197,
      "long ": 1198,
      "is the ": 1199,
      "bro": 1200,
      "tain ": 1201,
      ". R": 1202,
      "e , the ": 1203,
      "team ": 1204,
      "gra": 1205,
      "do ": 1206,
      "Jun": 1207,
      "az": 1208,
      "tak": 1209,
      "around ": 1210,
      "as \" ": 1211,
      "0 , ": 1212,
      "Is": 1213,
      "continu": 1214,
      "1 , ": 1215,
      "dra": 1216,
      "ord": 1217,
      "of a ": 1218,
      "was a ": 1219,
      "grou": 1220,
      "gust ": 1221,
      "196": 1222,
      "ful": 1223,
      "ished ": 1224,
      "bi": 1225,
      "form ": 1226,
      ". They ": 1227,
      "Austr": 1228,
      "May ": 1229,
      "Sept": 1230,
      "area ": 1231,
      "pow": 1232,
      "September ": 1233,
      "episode ": 1234,
      "ing to ": 1235,
      "ly": 1236,
      "197": 1237,
      "urch ": 1238,
      "tional ": 1239,
      "August ": 1240,
      "50 ": 1241,
      "under": 1242,
      "20 ": 1243,
      "ful ": 1244,
      "ll": 1245,
      "contro": 1246,
      "ually ": 1247,
      "port": 1248,
      "bur": 1249,
      "u ": 1250,
      "ip": 1251,
      "ber": 1252,
      "disc": 1253,
      "ut": 1254,
      "five ": 1255,
      "try ": 1256,
      "s to ": 1257,
      "set ": 1258,
      "17": 1259,
      "% ": 1260,
      "resul": 1261,
      "on a ": 1262,
      ", a ": 1263,
      "World ": 1264,
      "5 , ": 1265,
      "met": 1266,
      ". P": 1267,
      "requ": 1268,
      "stri": 1269,
      "es in ": 1270,
      "one of the ": 1271,
      "wee": 1272,
      "16": 1273,
      "ory ": 1274,
      "\" and ": 1275,
      "into the ": 1276,
      "now ": 1277,
      "dam": 1278,
      "er and ": 1279,
      "al , ": 1280,
      "ley ": 1281,
      "Bl": 1282,
      "Gu": 1283,
      "tain": 1284,
      "3 , ": 1285,
      "\"\n": 1286,
      "national ": 1287,
      "people ": 1288,
      "s in ": 1289,
      "has been ": 1290,
      "stem ": 1291,
      "som": 1292,
      "ard": 1293,
      ". After ": 1294,
      "30 ": 1295,
      "ual ": 1296,
      "s were ": 1297,
      "ording ": 1298,
      "Eu": 1299,
      "bri": 1300,
      "cul": 1301,
      "govern": 1302,
      "ving ": 1303,
      "maj": 1304,
      "such as ": 1305,
      "dic": 1306,
      "def": 1307,
      "spon": 1308,
      "my ": 1309,
      "es to ": 1310,
      "sity ": 1311,
      "larg": 1312,
      "Wil": 1313,
      "what ": 1314,
      "vari": 1315,
      "ise ": 1316,
      "ne ": 1317,
      "since ": 1318,
      "large ": 1319,
      "United St": 1320,
      "ection ": 1321,
      "took ": 1322,
      "incre": 1323,
      "ately ": 1324,
      "ently ": 1325,
      "species ": 1326,
      "chil": 1327,
      "ane ": 1328,
      "during ": 1329,
      "adv": 1330,
      "a and ": 1331,
      "bre": 1332,
      "ted to ": 1333,
      "dr": 1334,
      "appro": 1335,
      "batt": 1336,
      "z ": 1337,
      "called ": 1338,
      "music ": 1339,
      "II ": 1340,
      "enn": 1341,
      "tober ": 1342,
      "me ": 1343,
      "er 's ": 1344,
      "even ": 1345,
      "October ": 1346,
      ". L": 1347,
      "out": 1348,
      "$ ": 1349,
      "2 , ": 1350,
      "fun": 1351,
      "inten": 1352,
      "Austral": 1353,
      "Can": 1354,
      "ers , ": 1355,
      ") and ": 1356,
      "because ": 1357,
      "very ": 1358,
      "Hi": 1359,
      "jo": 1360,
      "oth": 1361,
      "Fran": 1362,
      "will ": 1363,
      "bas": 1364,
      "partic": 1365,
      "ach ": 1366,
      ". N": 1367,
      "yl": 1368,
      "final ": 1369,
      "4 , ": 1370,
      "ropical ": 1371,
      "giv": 1372,
      "Yor": 1373,
      "wro": 1374,
      "es were ": 1375,
      "consider": 1376,
      "[ ": 1377,
      "Nov": 1378,
      "ing , ": 1379,
      "July ": 1380,
      "ball ": 1381,
      "ign": 1382,
      "..": 1383,
      "la": 1384,
      ". \"\n": 1385,
      "sion": 1386,
      "del": 1387,
      "arly ": 1388,
      "ague ": 1389,
      "ext ": 1390,
      "high ": 1391,
      "uary ": 1392,
      "deo ": 1393,
      "Coun": 1394,
      "eff": 1395,
      "open": 1396,
      "sequ": 1397,
      "due ": 1398,
      "pass": 1399,
      "tre": 1400,
      "ed on ": 1401,
      "ed and ": 1402,
      "act ": 1403,
      "hal": 1404,
      "ors ": 1405,
      "construc": 1406,
      "ed with ": 1407,
      "reli": 1408,
      ". In the ": 1409,
      "her": 1410,
      "per ": 1411,
      "ins ": 1412,
      "coll": 1413,
      "gener": 1414,
      "men ": 1415,
      "South ": 1416,
      "mak": 1417,
      "Mon": 1418,
      "Apr": 1419,
      "Dec": 1420,
      "late ": 1421,
      "omin": 1422,
      "much ": 1423,
      "iev": 1424,
      "June ": 1425,
      "cas": 1426,
      "eal": 1427,
      "ati": 1428,
      "fur": 1429,
      "leg": 1430,
      "North ": 1431,
      "differ": 1432,
      "don ": 1433,
      "ms ": 1434,
      "prot": 1435,
      "another ": 1436,
      "ath ": 1437,
      "vic": 1438,
      "provi": 1439,
      "medi": 1440,
      "critic": 1441,
      "record ": 1442,
      "] ": 1443,
      "included ": 1444,
      "12 ": 1445,
      "es the ": 1446,
      "to re": 1447,
      "use ": 1448,
      "field ": 1449,
      "January ": 1450,
      "For": 1451,
      "dy ": 1452,
      ". C": 1453,
      "Her": 1454,
      "inst": 1455,
      "oman ": 1456,
      "establ": 1457,
      "set": 1458,
      "west ": 1459,
      "stud": 1460,
      "aw ": 1461,
      "England ": 1462,
      "ported ": 1463,
      "tel": 1464,
      ", and the ": 1465,
      "a 's ": 1466,
      "United States ": 1467,
      "if ": 1468,
      "lead": 1469,
      "sk": 1470,
      "life ": 1471,
      "s , the ": 1472,
      "left ": 1473,
      "udi": 1474,
      "although ": 1475,
      "respon": 1476,
      "attemp": 1477,
      "15 ": 1478,
      "previ": 1479,
      "\" .\n": 1480,
      "lit": 1481,
      "pi": 1482,
      "tow": 1483,
      "ire ": 1484,
      "War ": 1485,
      "ular ": 1486,
      "Pl": 1487,
      ". E": 1488,
      "as well ": 1489,
      "scor": 1490,
      "released ": 1491,
      "name ": 1492,
      "sen": 1493,
      "sist": 1494,
      "place ": 1495,
      "wrote ": 1496,
      "main ": 1497,
      "pec": 1498,
      "air ": 1499,
      "es ( ": 1500,
      "did not ": 1501,
      "scho": 1502,
      "November ": 1503,
      "and a ": 1504,
      "eight ": 1505,
      "Sh": 1506,
      "cor": 1507,
      "inn": 1508,
      "in 18": 1509,
      "light ": 1510,
      "single ": 1511,
      "hum": 1512,
      "ility ": 1513,
      "expl": 1514,
      "water ": 1515,
      "ended ": 1516,
      "ock ": 1517,
      "present": 1518,
      "after the ": 1519,
      "ities ": 1520,
      "Gre": 1521,
      "arch": 1522,
      "dition ": 1523,
      "December ": 1524,
      "third ": 1525,
      "stat": 1526,
      "195": 1527,
      "dem": 1528,
      "th century ": 1529,
      ". However , ": 1530,
      "just ": 1531,
      "urric": 1532,
      "typ": 1533,
      "April ": 1534,
      "system ": 1535,
      "storm ": 1536,
      "ove ": 1537,
      "auth": 1538,
      "position ": 1539,
      "mor": 1540,
      "run": 1541,
      "exc": 1542,
      ". She ": 1543,
      "9 , ": 1544,
      "ered ": 1545,
      "ick ": 1546,
      "built ": 1547,
      "government ": 1548,
      "war": 1549,
      "manag": 1550,
      "character ": 1551,
      ", \" ": 1552,
      "ground ": 1553,
      "based ": 1554,
      "number of ": 1555,
      "6 , ": 1556,
      "ven": 1557,
      ". It was ": 1558,
      "organ": 1559,
      "Ro": 1560,
      "ties ": 1561,
      "dist": 1562,
      "world ": 1563,
      "best ": 1564,
      "fri": 1565,
      "Wal": 1566,
      "pur": 1567,
      "following ": 1568,
      "March ": 1569,
      "it is ": 1570,
      "ved ": 1571,
      "German ": 1572,
      "itary ": 1573,
      "reach": 1574,
      "if": 1575,
      "art ": 1576,
      "br": 1577,
      "caus": 1578,
      "last ": 1579,
      "show": 1580,
      "song": 1581,
      "small ": 1582,
      "original ": 1583,
      "York ": 1584,
      "ures ": 1585,
      "state ": 1586,
      "aim": 1587,
      "cour": 1588,
      "dom ": 1589,
      "pit": 1590,
      "ound": 1591,
      "flu": 1592,
      "City ": 1593,
      "chang": 1594,
      "gl": 1595,
      "Ma": 1596,
      "Riv": 1597,
      "family ": 1598,
      "some": 1599,
      "y and ": 1600,
      "make ": 1601,
      "allow": 1602,
      "head ": 1603,
      "Ge": 1604,
      "them": 1605,
      "ick": 1606,
      "issu": 1607,
      "six ": 1608,
      "193": 1609,
      "sum": 1610,
      "ed for ": 1611,
      ". Al": 1612,
      "Mus": 1613,
      "avi": 1614,
      "es that ": 1615,
      "video ": 1616,
      "group ": 1617,
      "8 , ": 1618,
      "cra": 1619,
      "sit": 1620,
      "read": 1621,
      "success": 1622,
      "bar": 1623,
      "home ": 1624,
      "ich": 1625,
      "7 , ": 1626,
      "of S": 1627,
      "ether ": 1628,
      "possi": 1629,
      "south ": 1630,
      "ind ": 1631,
      "; the ": 1632,
      "north ": 1633,
      "Gr": 1634,
      "iversity ": 1635,
      "'t ": 1636,
      "mag": 1637,
      "D ": 1638,
      "National ": 1639,
      "16 ": 1640,
      "care": 1641,
      "of his ": 1642,
      "in 200": 1643,
      "fa": 1644,
      "still ": 1645,
      "tal": 1646,
      "ed as ": 1647,
      "stitu": 1648,
      "los": 1649,
      "in his ": 1650,
      "quar": 1651,
      "show ": 1652,
      "ogra": 1653,
      "over the ": 1654,
      "would be ": 1655,
      "14 ": 1656,
      "Per": 1657,
      "Indi": 1658,
      "able to ": 1659,
      "often ": 1660,
      "releas": 1661,
      "Bo": 1662,
      "Pro": 1663,
      "ism ": 1664,
      "arti": 1665,
      "ough ": 1666,
      ": \" ": 1667,
      "version ": 1668,
      "near ": 1669,
      "major ": 1670,
      "Vi": 1671,
      "forman": 1672,
      "chan": 1673,
      "ead ": 1674,
      "rown ": 1675,
      "simil": 1676,
      "s a ": 1677,
      "ony ": 1678,
      "lim": 1679,
      "perform": 1680,
      "ying ": 1681,
      "those ": 1682,
      "sugg": 1683,
      "ation , ": 1684,
      "Div": 1685,
      "aff": 1686,
      "ham ": 1687,
      "oot": 1688,
      "Engl": 1689,
      "ously ": 1690,
      "ements ": 1691,
      "recorded ": 1692,
      "25 ": 1693,
      "resid": 1694,
      "trans": 1695,
      "initi": 1696,
      "rais": 1697,
      "o , ": 1698,
      "Gen": 1699,
      "next ": 1700,
      "1 @.@ ": 1701,
      "band ": 1702,
      "jec": 1703,
      "main": 1704,
      "a f": 1705,
      "ships ": 1706,
      "Jam": 1707,
      "ef ": 1708,
      "ets ": 1709,
      "design": 1710,
      "period ": 1711,
      "comp": 1712,
      "ean ": 1713,
      "held ": 1714,
      "af": 1715,
      "role ": 1716,
      "again ": 1717,
      "urricane ": 1718,
      "Fren": 1719,
      "On ": 1720,
      "bir": 1721,
      "US ": 1722,
      "vo": 1723,
      "times ": 1724,
      "came ": 1725,
      "th , ": 1726,
      "atur": 1727,
      "o @-@ ": 1728,
      "ing and ": 1729,
      "Bar": 1730,
      "stre": 1731,
      "clos": 1732,
      "half ": 1733,
      "Batt": 1734,
      "town ": 1735,
      "that \" ": 1736,
      "without ": 1737,
      "memb": 1738,
      "take ": 1739,
      "that he ": 1740,
      "book ": 1741,
      ". His ": 1742,
      "press": 1743,
      "18 ": 1744,
      "written ": 1745,
      "0s ": 1746,
      "cu": 1747,
      "ology ": 1748,
      "poli": 1749,
      "Ph": 1750,
      "hor": 1751,
      "tot": 1752,
      "action ": 1753,
      "ording to ": 1754,
      "100 ": 1755,
      "ns ": 1756,
      "ral ": 1757,
      "view ": 1758,
      "commun": 1759,
      "tively ": 1760,
      "tem": 1761,
      "local ": 1762,
      "kill": 1763,
      "inf": 1764,
      "less ": 1765,
      "stan": 1766,
      "ss": 1767,
      "Ac": 1768,
      "performan": 1769,
      "ject ": 1770,
      "you ": 1771,
      "fel": 1772,
      ". Dur": 1773,
      "oon ": 1774,
      "part of the ": 1775,
      "V ": 1776,
      "dren ": 1777,
      "ys": 1778,
      "ouse ": 1779,
      "roy": 1780,
      "ghout ": 1781,
      "can": 1782,
      "ole ": 1783,
      "top ": 1784,
      "player ": 1785,
      "public ": 1786,
      "10": 1787,
      "12": 1788,
      "ts of ": 1789,
      "English ": 1790,
      "Mc": 1791,
      "refer": 1792,
      "son": 1793,
      "tropical ": 1794,
      "exam": 1795,
      "ock": 1796,
      "nov": 1797,
      "contr": 1798,
      "track ": 1799,
      "rang": 1800,
      "become ": 1801,
      "Cor": 1802,
      "import": 1803,
      "Division ": 1804,
      "aur": 1805,
      "Fe": 1806,
      "11 ": 1807,
      "em ": 1808,
      "event": 1809,
      "received ": 1810,
      "company ": 1811,
      "further ": 1812,
      "13 ": 1813,
      "right ": 1814,
      "es .\n": 1815,
      "named ": 1816,
      "ne": 1817,
      "At": 1818,
      "claim": 1819,
      "estern ": 1820,
      "different ": 1821,
      "camp": 1822,
      "studi": 1823,
      "road ": 1824,
      "er of ": 1825,
      "ens": 1826,
      "Inter": 1827,
      "Ad": 1828,
      "ther": 1829,
      "ality ": 1830,
      "ligh": 1831,
      "( ) ": 1832,
      "military ": 1833,
      "one of ": 1834,
      "bit": 1835,
      "pite ": 1836,
      "ubl": 1837,
      "war ": 1838,
      "thing ": 1839,
      "heav": 1840,
      "French ": 1841,
      "dest": 1842,
      "& ": 1843,
      "Af": 1844,
      "divi": 1845,
      "between the ": 1846,
      "dg": 1847,
      "erg": 1848,
      "ens ": 1849,
      "scen": 1850,
      "run ": 1851,
      "death ": 1852,
      "Feb": 1853,
      "Su": 1854,
      "equ": 1855,
      "ruary ": 1856,
      "February ": 1857,
      "m ( ": 1858,
      "signi": 1859,
      "former ": 1860,
      "gave ": 1861,
      "ith ": 1862,
      "t to ": 1863,
      "ina ": 1864,
      "ash": 1865,
      "proc": 1866,
      "Char": 1867,
      "more than ": 1868,
      "Man": 1869,
      "pat": 1870,
      "ylan ": 1871,
      "ld": 1872,
      "els ": 1873,
      "among ": 1874,
      "... ": 1875,
      "hy": 1876,
      "exten": 1877,
      "Cl": 1878,
      "Mis": 1879,
      "wat": 1880,
      "ston ": 1881,
      "Rob": 1882,
      "order ": 1883,
      "age of ": 1884,
      "Canad": 1885,
      "featur": 1886,
      "head": 1887,
      "site ": 1888,
      "tion of the ": 1889,
      "evision ": 1890,
      "east ": 1891,
      "ing of ": 1892,
      "ds of ": 1893,
      "fied ": 1894,
      "white ": 1895,
      "attack": 1896,
      "ially ": 1897,
      ", who ": 1898,
      "spir": 1899,
      "children ": 1900,
      "den ": 1901,
      "in which ": 1902,
      "es of the ": 1903,
      "list": 1904,
      "River ": 1905,
      "ers and ": 1906,
      " and ": 1907,
      "seen ": 1908,
      "complet": 1909,
      "erc": 1910,
      "ature ": 1911,
      "moder": 1912,
      "des ": 1913,
      "ounc": 1914,
      "him": 1915,
      "rev": 1916,
      "State ": 1917,
      "17 ": 1918,
      "40 ": 1919,
      "Jap": 1920,
      "cle": 1921,
      "oung ": 1922,
      "defe": 1923,
      "ded to ": 1924,
      "we ": 1925,
      "ang ": 1926,
      "signific": 1927,
      "ed \" ": 1928,
      "review": 1929,
      "common ": 1930,
      "ed his ": 1931,
      "invol": 1932,
      "lost ": 1933,
      "club ": 1934,
      "story ": 1935,
      "new": 1936,
      "influ": 1937,
      "title ": 1938,
      "through the ": 1939,
      "given ": 1940,
      "similar ": 1941,
      "Pol": 1942,
      "contain": 1943,
      "e and ": 1944,
      "a \" ": 1945,
      "spor": 1946,
      "os ": 1947,
      "ending ": 1948,
      "away ": 1949,
      "present ": 1950,
      "Afric": 1951,
      "yle ": 1952,
      "ed to the ": 1953,
      "nec": 1954,
      "stated ": 1955,
      "body ": 1956,
      "eted ": 1957,
      "tour": 1958,
      "in , ": 1959,
      "not": 1960,
      "part": 1961,
      "Mor": 1962,
      "support ": 1963,
      "Di": 1964,
      "sch": 1965,
      "prof": 1966,
      "sign": 1967,
      "New York ": 1968,
      "ok": 1969,
      "occur": 1970,
      "peti": 1971,
      "craft ": 1972,
      "alion ": 1973,
      "ions ": 1974,
      "ves ": 1975,
      "ampion": 1976,
      ". When ": 1977,
      "Dylan ": 1978,
      "Mic": 1979,
      "cou": 1980,
      "lead ": 1981,
      "comman": 1982,
      "ank": 1983,
      "they were ": 1984,
      "pris": 1985,
      "ress ": 1986,
      "power ": 1987,
      "sent ": 1988,
      "went ": 1989,
      "Qu": 1990,
      "agre": 1991,
      "League ": 1992,
      "Ser": 1993,
      "comb": 1994,
      "had a ": 1995,
      "thre": 1996,
      "in L": 1997,
      "University ": 1998,
      "join": 1999,
      "ograph": 2000,
      "! ": 2001,
      ". By ": 2002,
      "believ": 2003,
      "ford ": 2004,
      "include ": 2005,
      "E ": 2006,
      "let": 2007,
      "suggest": 2008,
      "O ": 2009,
      "back": 2010,
      "dge ": 2011,
      "fron": 2012,
      "how ": 2013,
      "val": 2014,
      "scri": 2015,
      "ta": 2016,
      "gun": 2017,
      "ants ": 2018,
      "liam": 2019,
      "can be ": 2020,
      "lor": 2021,
      "xim": 2022,
      "al of ": 2023,
      "Church ": 2024,
      "intro": 2025,
      "es . The ": 2026,
      "effec": 2027,
      "General ": 2028,
      "lik": 2029,
      "exp": 2030,
      "nd ": 2031,
      "father ": 2032,
      "cy": 2033,
      "an , ": 2034,
      "earli": 2035,
      "ically ": 2036,
      "Cent": 2037,
      "ems ": 2038,
      "reland ": 2039,
      "church ": 2040,
      "Ros": 2041,
      "never ": 2042,
      "the first ": 2043,
      "concer": 2044,
      "noted ": 2045,
      "either ": 2046,
      "career ": 2047,
      "Har": 2048,
      "Tim": 2049,
      "on @-@ ": 2050,
      "acros": 2051,
      "throughout ": 2052,
      "building ": 2053,
      "L ": 2054,
      "hol": 2055,
      "as an ": 2056,
      "ental ": 2057,
      "mark": 2058,
      "ped ": 2059,
      "control ": 2060,
      "fail": 2061,
      "and , ": 2062,
      "ably ": 2063,
      "Re": 2064,
      "on , ": 2065,
      "ept ": 2066,
      "announc": 2067,
      "seven ": 2068,
      "Ireland ": 2069,
      "ek ": 2070,
      "ney ": 2071,
      "rac": 2072,
      "rist": 2073,
      "19 ": 2074,
      "due to ": 2075,
      ".S": 2076,
      "Ni": 2077,
      "den": 2078,
      "tin ": 2079,
      "ondon ": 2080,
      "ensive ": 2081,
      "ounded ": 2082,
      ". There ": 2083,
      "thought ": 2084,
      "depend": 2085,
      "es in the ": 2086,
      "ats ": 2087,
      "development ": 2088,
      "mul": 2089,
      "ine": 2090,
      "reported ": 2091,
      "empl": 2092,
      "short ": 2093,
      "himself ": 2094,
      "ority ": 2095,
      "part of ": 2096,
      "members ": 2097,
      "ide": 2098,
      "ner ": 2099,
      "ts , ": 2100,
      "force ": 2101,
      "Cre": 2102,
      "pea": 2103,
      "Comm": 2104,
      "and S": 2105,
      "es are ": 2106,
      "sions ": 2107,
      "pression ": 2108,
      "U.S": 2109,
      "ide ": 2110,
      "omen ": 2111,
      "from a ": 2112,
      "ation of the ": 2113,
      "cast ": 2114,
      "ie ": 2115,
      "person": 2116,
      "tory ": 2117,
      "as well as ": 2118,
      "sw": 2119,
      "at a ": 2120,
      "conc": 2121,
      "row ": 2122,
      "fem": 2123,
      "under the ": 2124,
      "important ": 2125,
      "vill": 2126,
      "star ": 2127,
      "tion , ": 2128,
      "ribu": 2129,
      "played ": 2130,
      "Pr": 2131,
      "wea": 2132,
      "arriv": 2133,
      "ing in ": 2134,
      "ch , ": 2135,
      "east": 2136,
      "television ": 2137,
      "songs ": 2138,
      "introduc": 2139,
      "onom": 2140,
      "roc": 2141,
      ". These ": 2142,
      "full ": 2143,
      "Fin": 2144,
      "days ": 2145,
      "ends ": 2146,
      "land": 2147,
      "consist": 2148,
      "risti": 2149,
      "elec": 2150,
      "ingdom ": 2151,
      "areas ": 2152,
      "previous ": 2153,
      "ted by ": 2154,
      "West ": 2155,
      "ex ": 2156,
      "attack ": 2157,
      "ship": 2158,
      "into a ": 2159,
      "Australia ": 2160,
      "dom": 2161,
      "go ": 2162,
      "anim": 2163,
      "ling ": 2164,
      "amm": 2165,
      "Compan": 2166,
      "publish": 2167,
      "Europ": 2168,
      "was not ": 2169,
      "board ": 2170,
      "school ": 2171,
      "face ": 2172,
      "my": 2173,
      "of M": 2174,
      "prob": 2175,
      "shor": 2176,
      "lev": 2177,
      "suff": 2178,
      "four": 2179,
      "replac": 2180,
      "appoin": 2181,
      "stric": 2182,
      "work": 2183,
      "ult ": 2184,
      "tradi": 2185,
      "trav": 2186,
      "episod": 2187,
      "ogether ": 2188,
      "Or": 2189,
      "ert ": 2190,
      ". Acc": 2191,
      "2010 ": 2192,
      "feet ": 2193,
      "organiz": 2194,
      ":\n": 2195,
      "cam": 2196,
      "experi": 2197,
      "s of the ": 2198,
      "indu": 2199,
      "marri": 2200,
      ". Although ": 2201,
      "R ": 2202,
      "fre": 2203,
      "get ": 2204,
      "out of ": 2205,
      "Scot": 2206,
      "ed to be ": 2207,
      "located ": 2208,
      "tt": 2209,
      "ed that the ": 2210,
      ". J": 2211,
      "in 199": 2212,
      "24 ": 2213,
      "ways ": 2214,
      "or , ": 2215,
      "games ": 2216,
      "draw": 2217,
      "various ": 2218,
      "ootball ": 2219,
      "men": 2220,
      "s . The ": 2221,
      "Christi": 2222,
      "tech": 2223,
      "history ": 2224,
      "km ": 2225,
      "\" The ": 2226,
      "grad": 2227,
      "production ": 2228,
      "ator ": 2229,
      "ological ": 2230,
      "N ": 2231,
      "boo": 2232,
      "s are ": 2233,
      "\" \" ": 2234,
      "should ": 2235,
      "28 ": 2236,
      "sl": 2237,
      "ularly ": 2238,
      "created ": 2239,
      ". It is ": 2240,
      "country ": 2241,
      "increas": 2242,
      "won ": 2243,
      "win ": 2244,
      "fire ": 2245,
      "Cha": 2246,
      "Reg": 2247,
      "km ) ": 2248,
      "moun": 2249,
      ", , ": 2250,
      "ur ": 2251,
      "which was ": 2252,
      "ific ": 2253,
      "2 @.@ ": 2254,
      "eigh": 2255,
      "change ": 2256,
      "21 ": 2257,
      "ref": 2258,
      "rest": 2259,
      "ucle": 2260,
      "month": 2261,
      "F ": 2262,
      "Se": 2263,
      "cros": 2264,
      "sal": 2265,
      "det": 2266,
      "observ": 2267,
      "s that ": 2268,
      "omb": 2269,
      "strong ": 2270,
      "night ": 2271,
      "end of the ": 2272,
      "23 ": 2273,
      "ze ": 2274,
      "0 @.@ ": 2275,
      "competi": 2276,
      "has a ": 2277,
      "gar": 2278,
      "itar ": 2279,
      "\" the ": 2280,
      "div": 2281,
      "Ev": 2282,
      "Pal": 2283,
      "ib": 2284,
      "s .\n": 2285,
      "taken ": 2286,
      "establish": 2287,
      "bus": 2288,
      "lat": 2289,
      "too ": 2290,
      "political ": 2291,
      "60 ": 2292,
      "que ": 2293,
      "about the ": 2294,
      "Ber": 2295,
      "good ": 2296,
      "however , ": 2297,
      "hind ": 2298,
      "es , and ": 2299,
      "ital ": 2300,
      "\" was ": 2301,
      "having ": 2302,
      "when the ": 2303,
      "13": 2304,
      "fig": 2305,
      "house ": 2306,
      "long": 2307,
      "nia ": 2308,
      "wan": 2309,
      "aged ": 2310,
      "match ": 2311,
      "felt ": 2312,
      "Ass": 2313,
      "Por": 2314,
      "gade ": 2315,
      "becom": 2316,
      "res ( ": 2317,
      "ae": 2318,
      "doc": 2319,
      "idd": 2320,
      "move ": 2321,
      "deci": 2322,
      "modern ": 2323,
      "Moun": 2324,
      ". K": 2325,
      "sci": 2326,
      "fle": 2327,
      "’ ": 2328,
      "used to ": 2329,
      ". As ": 2330,
      "time , ": 2331,
      "survi": 2332,
      "scrip": 2333,
      "No": 2334,
      "Sec": 2335,
      "ak ": 2336,
      "style ": 2337,
      "diffic": 2338,
      "Road ": 2339,
      "yard ": 2340,
      "rest ": 2341,
      "using ": 2342,
      "gun ": 2343,
      "completed ": 2344,
      "great ": 2345,
      "ed from ": 2346,
      "in S": 2347,
      "live ": 2348,
      "s , but ": 2349,
      ") . The ": 2350,
      "born ": 2351,
      "campa": 2352,
      "K ": 2353,
      "Ri": 2354,
      "gran": 2355,
      "th and ": 2356,
      "compar": 2357,
      "Australian ": 2358,
      "\" , and ": 2359,
      "22 ": 2360,
      "cop": 2361,
      ", he ": 2362,
      "estim": 2363,
      "started ": 2364,
      "point ": 2365,
      "2nd ": 2366,
      "ed at ": 2367,
      "represent": 2368,
      "\" . The ": 2369,
      "Roy": 2370,
      "Song ": 2371,
      "sha": 2372,
      "come ": 2373,
      "relation": 2374,
      "Atlan": 2375,
      "Kingdom ": 2376,
      "pain": 2377,
      "and was ": 2378,
      "once ": 2379,
      "see ": 2380,
      "part ": 2381,
      "against the ": 2382,
      "instead ": 2383,
      "Du": 2384,
      "Rec": 2385,
      "earch ": 2386,
      "imp": 2387,
      "black ": 2388,
      "tural ": 2389,
      "Sci": 2390,
      "Euro": 2391,
      "15": 2392,
      "Ir": 2393,
      "el , ": 2394,
      "region ": 2395,
      "described ": 2396,
      "making ": 2397,
      "settl": 2398,
      "eve ": 2399,
      "rought ": 2400,
      "week ": 2401,
      "Mag": 2402,
      "ver ": 2403,
      "least ": 2404,
      ") .\n": 2405,
      "aster ": 2406,
      "little ": 2407,
      ", with ": 2408,
      "3 @.@ ": 2409,
      "2008 ": 2410,
      ". For ": 2411,
      "Davi": 2412,
      "Mo": 2413,
      "radi": 2414,
      "tar": 2415,
      "anti": 2416,
      "island ": 2417,
      ". At the ": 2418,
      "curren": 2419,
      "B ": 2420,
      "together ": 2421,
      "ute ": 2422,
      "ety ": 2423,
      "ington ": 2424,
      "originally ": 2425,
      ")\n": 2426,
      "De": 2427,
      "nucle": 2428,
      "ing that ": 2429,
      "re @-@ ": 2430,
      "aver": 2431,
      "few ": 2432,
      "fav": 2433,
      "ever": 2434,
      "along the ": 2435,
      "eas": 2436,
      "evid": 2437,
      "rus": 2438,
      "fif": 2439,
      "Mi": 2440,
      "hun": 2441,
      "ior ": 2442,
      "women ": 2443,
      "associ": 2444,
      "In the ": 2445,
      "others ": 2446,
      "James ": 2447,
      "War": 2448,
      "mer ": 2449,
      "inj": 2450,
      "t 's ": 2451,
      "tial ": 2452,
      "prov": 2453,
      "southern ": 2454,
      "cir": 2455,
      "e , but ": 2456,
      "mix": 2457,
      "return ": 2458,
      ". While ": 2459,
      "Feder": 2460,
      "cover": 2461,
      "ines ": 2462,
      "2007 ": 2463,
      "ress": 2464,
      "characters ": 2465,
      "County ": 2466,
      "human ": 2467,
      "eventually ": 2468,
      "ient ": 2469,
      "loo": 2470,
      "respec": 2471,
      "was also ": 2472,
      "TV ": 2473,
      "squ": 2474,
      ". G": 2475,
      "atter": 2476,
      "2009 ": 2477,
      "release ": 2478,
      "Pet": 2479,
      "bodi": 2480,
      "26 ": 2481,
      "dou": 2482,
      "by a ": 2483,
      "owever ": 2484,
      "carri": 2485,
      "hous": 2486,
      "of H": 2487,
      "ages ": 2488,
      "propos": 2489,
      ". At ": 2490,
      "identi": 2491,
      "2011 ": 2492,
      "eastern ": 2493,
      "ration ": 2494,
      "ability ": 2495,
      "recog": 2496,
      "Europe": 2497,
      "Rich": 2498,
      "young ": 2499,
      "every ": 2500,
      "players ": 2501,
      "destroy": 2502,
      "dividu": 2503,
      "added ": 2504,
      "1 @,@ ": 2505,
      "Tur": 2506,
      "natur": 2507,
      "prais": 2508,
      "popular ": 2509,
      "Som": 2510,
      "Te": 2511,
      "You ": 2512,
      "har": 2513,
      "possible ": 2514,
      "hear": 2515,
      "inning ": 2516,
      "ated the ": 2517,
      "level ": 2518,
      "eu": 2519,
      "lab": 2520,
      "voc": 2521,
      "termin": 2522,
      "within the ": 2523,
      "met ": 2524,
      "mother ": 2525,
      "order": 2526,
      "a ( ": 2527,
      "behind ": 2528,
      "successful ": 2529,
      "fr": 2530,
      "ank ": 2531,
      "th @-@ ": 2532,
      "ent , ": 2533,
      "2012 ": 2534,
      "train": 2535,
      "discover": 2536,
      "hom": 2537,
      "é ": 2538,
      "ink ": 2539,
      "ili": 2540,
      "e , which ": 2541,
      "ted the ": 2542,
      ". In": 2543,
      "separ": 2544,
      "All ": 2545,
      "Carey ": 2546,
      "New": 2547,
      "hurricane ": 2548,
      "190": 2549,
      "minist": 2550,
      ") , and ": 2551,
      "ious ": 2552,
      "wo ": 2553,
      "individu": 2554,
      "ession ": 2555,
      "does ": 2556,
      "London ": 2557,
      "Min": 2558,
      "sold ": 2559,
      "shar": 2560,
      "signed ": 2561,
      "Park ": 2562,
      "ement": 2563,
      "works ": 2564,
      "centur": 2565,
      "eel": 2566,
      "ub": 2567,
      "stand": 2568,
      "ches ": 2569,
      "design ": 2570,
      "comment": 2571,
      "lands ": 2572,
      "before the ": 2573,
      "moved ": 2574,
      "Hol": 2575,
      "rat": 2576,
      "ering ": 2577,
      "almost ": 2578,
      "exist": 2579,
      "ation and ": 2580,
      "audi": 2581,
      "exampl": 2582,
      "Fi": 2583,
      "Hor": 2584,
      "fall ": 2585,
      "rul": 2586,
      "saw ": 2587,
      "vol": 2588,
      "of B": 2589,
      "en , ": 2590,
      "prote": 2591,
      "ring ": 2592,
      "ve": 2593,
      "vir": 2594,
      "wood ": 2595,
      "antry ": 2596,
      "room ": 2597,
      "addition ": 2598,
      "while the ": 2599,
      "significant ": 2600,
      "BC ": 2601,
      "ing \" ": 2602,
      "ext": 2603,
      "she was ": 2604,
      "fully ": 2605,
      "generally ": 2606,
      "Battalion ": 2607,
      "European ": 2608,
      "After ": 2609,
      "arded ": 2610,
      "exic": 2611,
      "Christ": 2612,
      "2006 ": 2613,
      "langu": 2614,
      "mater": 2615,
      "heavy ": 2616,
      "dev": 2617,
      "ut ": 2618,
      "e 's ": 2619,
      "ri ": 2620,
      "track": 2621,
      "poem ": 2622,
      "brought ": 2623,
      "dat": 2624,
      "mi ": 2625,
      "sour": 2626,
      "ed on the ": 2627,
      "in ) ": 2628,
      "up to ": 2629,
      "towards ": 2630,
      "Flor": 2631,
      "acti": 2632,
      "Stre": 2633,
      "miles ( ": 2634,
      "miss": 2635,
      "piec": 2636,
      "Cap": 2637,
      "wards ": 2638,
      "olu": 2639,
      "liam ": 2640,
      "close ": 2641,
      "laun": 2642,
      "stry ": 2643,
      "David ": 2644,
      "Ex": 2645,
      "Val": 2646,
      "ments ": 2647,
      "s in the ": 2648,
      "aircraft ": 2649,
      "highway ": 2650,
      "World War ": 2651,
      "Royal ": 2652,
      "\" ( ": 2653,
      "put ": 2654,
      "performance ": 2655,
      "hon": 2656,
      "western ": 2657,
      "compos": 2658,
      "ained ": 2659,
      "Gam": 2660,
      "eum ": 2661,
      "round ": 2662,
      "e @-@ ": 2663,
      "in an ": 2664,
      "ounds ": 2665,
      "cat": 2666,
      "ra ": 2667,
      "adem": 2668,
      "Champion": 2669,
      "ready ": 2670,
      "Pri": 2671,
      "athe": 2672,
      "aid ": 2673,
      "say": 2674,
      "events ": 2675,
      "vers": 2676,
      "Army ": 2677,
      "nar": 2678,
      "ym": 2679,
      "er was ": 2680,
      "prepar": 2681,
      "augh": 2682,
      "meas": 2683,
      "Ear": 2684,
      "Jer": 2685,
      "Nav": 2686,
      "gin": 2687,
      "n 't ": 2688,
      "six": 2689,
      "conclu": 2690,
      "open ": 2691,
      "ed by a ": 2692,
      "owl": 2693,
      "commerc": 2694,
      "film": 2695,
      "damage ": 2696,
      "da": 2697,
      "ories ": 2698,
      "ap ": 2699,
      "ence of ": 2700,
      "America ": 2701,
      "features ": 2702,
      "provided ": 2703,
      "indic": 2704,
      "route ": 2705,
      "ob ": 2706,
      "central ": 2707,
      "km / ": 2708,
      "Roman ": 2709,
      "Si": 2710,
      "mid ": 2711,
      "rad": 2712,
      "aliz": 2713,
      "and his ": 2714,
      "rather ": 2715,
      "ate the ": 2716,
      "troop": 2717,
      "Gal": 2718,
      "Rom": 2719,
      "nomin": 2720,
      "sts ": 2721,
      "campaign ": 2722,
      "ho": 2723,
      "ession": 2724,
      "wide ": 2725,
      "ts and ": 2726,
      "ordan ": 2727,
      "largest ": 2728,
      "grow": 2729,
      "int": 2730,
      "lear": 2731,
      "rap": 2732,
      "subsequ": 2733,
      "particularly ": 2734,
      "T ": 2735,
      "ium ": 2736,
      "ald ": 2737,
      "to have ": 2738,
      ". He was ": 2739,
      "William ": 2740,
      "No. ": 2741,
      "27 ": 2742,
      "Co": 2743,
      "won the ": 2744,
      "with his ": 2745,
      "lif": 2746,
      "livi": 2747,
      "Chin": 2748,
      "find ": 2749,
      "population ": 2750,
      "novel ": 2751,
      "1st ": 2752,
      "Cam": 2753,
      "El": 2754,
      "cent ": 2755,
      "near": 2756,
      "viol": 2757,
      "help ": 2758,
      "Cup ": 2759,
      "down": 2760,
      "net": 2761,
      "pen": 2762,
      "stone ": 2763,
      "osaur": 2764,
      "working ": 2765,
      "km / h ": 2766,
      "29 ": 2767,
      "200 ": 2768,
      "mean": 2769,
      "northern ": 2770,
      "Geor": 2771,
      "King ": 2772,
      "hour": 2773,
      "neg": 2774,
      "ed of ": 2775,
      "ing his ": 2776,
      " , but ": 2777,
      "= = = =\n": 2778,
      "where the ": 2779,
      "return": 2780,
      "\" and \" ": 2781,
      "leng": 2782,
      "conduc": 2783,
      "189": 2784,
      "employ": 2785,
      "Atlantic ": 2786,
      ". , ": 2787,
      "stren": 2788,
      "is not ": 2789,
      "for his ": 2790,
      "age , ": 2791,
      "ences ": 2792,
      "standing ": 2793,
      "civ": 2794,
      "ched ": 2795,
      "ching ": 2796,
      "ecu": 2797,
      "leav": 2798,
      "= = = = ": 2799,
      "within ": 2800,
      "God ": 2801,
      "One ": 2802,
      "ker ": 2803,
      "member ": 2804,
      "non @-@ ": 2805,
      "whom ": 2806,
      "addi": 2807,
      "appearance ": 2808,
      "may be ": 2809,
      "fourth ": 2810,
      "Street ": 2811,
      "East ": 2812,
      "mach": 2813,
      "tou": 2814,
      "inform": 2815,
      "a was ": 2816,
      "ash ": 2817,
      "conn": 2818,
      "effor": 2819,
      "Ver": 2820,
      "any": 2821,
      "reduc": 2822,
      "to his ": 2823,
      "ago ": 2824,
      "s , including ": 2825,
      "ood": 2826,
      "scre": 2827,
      "avail": 2828,
      "accoun": 2829,
      "birds ": 2830,
      "Missou": 2831,
      "80 ": 2832,
      "Be": 2833,
      "ure": 2834,
      "yn": 2835,
      "ics ": 2836,
      "is , ": 2837,
      "enter": 2838,
      "opp": 2839,
      "promo": 2840,
      "service ": 2841,
      "suppor": 2842,
      "broad": 2843,
      "streng": 2844,
      "Dur": 2845,
      "Ham": 2846,
      "ania ": 2847,
      "wid": 2848,
      "territ": 2849,
      "lower ": 2850,
      "began to ": 2851,
      "mission ": 2852,
      "azine ": 2853,
      "500 ": 2854,
      "Bra": 2855,
      "1 – ": 2856,
      "figh": 2857,
      "general ": 2858,
      "Island ": 2859,
      "hand": 2860,
      "sun": 2861,
      "t and ": 2862,
      "stra": 2863,
      "itted ": 2864,
      "plann": 2865,
      "prec": 2866,
      "season , ": 2867,
      "cel": 2868,
      "date ": 2869,
      "ana ": 2870,
      "uni": 2871,
      "small": 2872,
      "depic": 2873,
      "International ": 2874,
      "Florid": 2875,
      "Sw": 2876,
      "Vill": 2877,
      "foc": 2878,
      "tors ": 2879,
      "great": 2880,
      "love ": 2881,
      ". With ": 2882,
      "total ": 2883,
      ". According to ": 2884,
      "Hen": 2885,
      "Rep": 2886,
      "domin": 2887,
      "soon ": 2888,
      "tation ": 2889,
      "ope ": 2890,
      "ers of ": 2891,
      "occ": 2892,
      "2013 ": 2893,
      "captur": 2894,
      "iddle ": 2895,
      "Jew": 2896,
      "ron ": 2897,
      "vest": 2898,
      "era ": 2899,
      "ess , ": 2900,
      "river ": 2901,
      "Music ": 2902,
      ". During the ": 2903,
      "George ": 2904,
      "din": 2905,
      "mem": 2906,
      "he had ": 2907,
      "amoun": 2908,
      "ers were ": 2909,
      "public": 2910,
      "considered ": 2911,
      "Hero ": 2912,
      "Eg": 2913,
      "anese ": 2914,
      "es a ": 2915,
      "irst ": 2916,
      "s , which ": 2917,
      ". I ": 2918,
      "iment ": 2919,
      "character": 2920,
      "resident ": 2921,
      "earlier ": 2922,
      "inspir": 2923,
      "stage ": 2924,
      "is also ": 2925,
      "around the ": 2926,
      "Sp": 2927,
      "sor": 2928,
      "project ": 2929,
      "Thom": 2930,
      "goal ": 2931,
      "gram ": 2932,
      "previously ": 2933,
      "Micha": 2934,
      "yards ": 2935,
      "£ ": 2936,
      "above ": 2937,
      "prev": 2938,
      "White ": 2939,
      "points ": 2940,
      "Franc": 2941,
      "author": 2942,
      "cycl": 2943,
      "He ": 2944,
      "US": 2945,
      "dol": 2946,
      "key ": 2947,
      "plan": 2948,
      "bet": 2949,
      "ers to ": 2950,
      "class ": 2951,
      "trac": 2952,
      "s and the ": 2953,
      "forces ": 2954,
      "victory ": 2955,
      "Best ": 2956,
      "It ": 2957,
      "Ital": 2958,
      "ff ": 2959,
      " , which ": 2960,
      "at number ": 2961,
      "activ": 2962,
      "ocial ": 2963,
      "writing ": 2964,
      "school": 2965,
      "involv": 2966,
      "throughout the ": 2967,
      "espite ": 2968,
      "class": 2969,
      "structure ": 2970,
      "drew ": 2971,
      "Robert ": 2972,
      "busin": 2973,
      "edi": 2974,
      "ospit": 2975,
      "word ": 2976,
      "Brit": 2977,
      "ai ": 2978,
      "at least ": 2979,
      "ask": 2980,
      "li ": 2981,
      "ket ": 2982,
      "ama ": 2983,
      "use of ": 2984,
      "end of ": 2985,
      "religi": 2986,
      "Ara": 2987,
      "cast": 2988,
      "ands ": 2989,
      "series of ": 2990,
      "combin": 2991,
      "ing it ": 2992,
      "ment of ": 2993,
      ". \" The ": 2994,
      "mph ": 2995,
      "highest ": 2996,
      "across the ": 2997,
      "Egyp": 2998,
      "er of the ": 2999,
      "road": 3000,
      "John": 3001,
      "until the ": 3002,
      "reached ": 3003,
      "led ": 3004,
      "reas": 3005,
      " , a ": 3006,
      "ated to ": 3007,
      "portra": 3008,
      "4 @.@ ": 3009,
      "in 198": 3010,
      "discus": 3011,
      "Ab": 3012,
      "cil ": 3013,
      "y 's ": 3014,
      "ts to ": 3015,
      "director ": 3016,
      "requir": 3017,
      "construction ": 3018,
      "ldham ": 3019,
      "Op": 3020,
      "Rev": 3021,
      "Vir": 3022,
      "bit ": 3023,
      "argu": 3024,
      "usually ": 3025,
      "oppos": 3026,
      "tics ": 3027,
      "ed in a ": 3028,
      "oday ": 3029,
      "official ": 3030,
      "along with ": 3031,
      "likely ": 3032,
      "mid @-@ ": 3033,
      "70 ": 3034,
      "Fre": 3035,
      "im ": 3036,
      "priv": 3037,
      "ales ": 3038,
      "itself ": 3039,
      "situ": 3040,
      "Viet": 3041,
      "aj": 3042,
      "ense ": 3043,
      "in their ": 3044,
      "plan ": 3045,
      "event ": 3046,
      "range ": 3047,
      "aul ": 3048,
      "Cath": 3049,
      "nine ": 3050,
      "pic": 3051,
      "us , ": 3052,
      "tig": 3053,
      "theast ": 3054,
      "abor": 3055,
      "spea": 3056,
      "give ": 3057,
      "liament ": 3058,
      "0s , ": 3059,
      "pil": 3060,
      "all the ": 3061,
      "worked ": 3062,
      "45 ": 3063,
      "Air": 3064,
      "Scho": 3065,
      "told ": 3066,
      "ster ": 3067,
      "whose ": 3068,
      "league ": 3069,
      "spac": 3070,
      "ota ": 3071,
      "eep ": 3072,
      "known as ": 3073,
      "ox": 3074,
      "tun": 3075,
      "ed .\n": 3076,
      "urch": 3077,
      "conv": 3078,
      "term ": 3079,
      "they are ": 3080,
      "recording ": 3081,
      "coast ": 3082,
      "continued to ": 3083,
      "responsi": 3084,
      "Japanese ": 3085,
      "female ": 3086,
      "electr": 3087,
      "U ": 3088,
      "far ": 3089,
      "ses ": 3090,
      "wife ": 3091,
      "serve ": 3092,
      "playing ": 3093,
      "tures ": 3094,
      "Brigade ": 3095,
      "north": 3096,
      "opening ": 3097,
      "possib": 3098,
      "ximately ": 3099,
      "Squ": 3100,
      "° ": 3101,
      "titl": 3102,
      "th centur": 3103,
      "2004 ": 3104,
      "recogni": 3105,
      "Cro": 3106,
      "Ne": 3107,
      "ed as a ": 3108,
      "al and ": 3109,
      "2 – ": 3110,
      "porary ": 3111,
      "contribu": 3112,
      "known as the ": 3113,
      "aif": 3114,
      "Company ": 3115,
      "relationship ": 3116,
      "Pac": 3117,
      "native ": 3118,
      "sex": 3119,
      "ret": 3120,
      "an 's ": 3121,
      "agu": 3122,
      "presid": 3123,
      "remov": 3124,
      "published ": 3125,
      "outside ": 3126,
      "profession": 3127,
      "does not ": 3128,
      "III ": 3129,
      "Y ": 3130,
      "tour ": 3131,
      "ark ": 3132,
      "o and ": 3133,
      "assist": 3134,
      "sian ": 3135,
      "sport ": 3136,
      "edit": 3137,
      "eeded ": 3138,
      "difficul": 3139,
      "Republ": 3140,
      "First ": 3141,
      "atic ": 3142,
      "must ": 3143,
      "nearly ": 3144,
      "ument": 3145,
      "despite ": 3146,
      "regular ": 3147,
      "entire ": 3148,
      "athedr": 3149,
      "Bus": 3150,
      "Zeal": 3151,
      "ces ": 3152,
      "mb": 3153,
      "teen ": 3154,
      ", as ": 3155,
      "alis": 3156,
      "forward ": 3157,
      "ams ": 3158,
      "clas": 3159,
      "aint ": 3160,
      "shot ": 3161,
      "ingly ": 3162,
      "educ": 3163,
      "meet": 3164,
      "Black ": 3165,
      "community ": 3166,
      "appointed ": 3167,
      "Sha": 3168,
      "dro": 3169,
      "sem": 3170,
      "independ": 3171,
      "econom": 3172,
      "New Zeal": 3173,
      "leading ": 3174,
      "Fil": 3175,
      "Mad": 3176,
      "daugh": 3177,
      "happ": 3178,
      "progr": 3179,
      "post": 3180,
      "Ang": 3181,
      "syn": 3182,
      "ential ": 3183,
      "weeks ": 3184,
      "initially ": 3185,
      "occup": 3186,
      "Jack": 3187,
      "Jordan ": 3188,
      "le , ": 3189,
      "red to ": 3190,
      "alter": 3191,
      "read ": 3192,
      "immedi": 3193,
      "ency ": 3194,
      "Indian ": 3195,
      "Olivi": 3196,
      "Oldham ": 3197,
      "P ": 3198,
      "erous ": 3199,
      "already ": 3200,
      "on September ": 3201,
      "units ": 3202,
      "defin": 3203,
      "international ": 3204,
      "Guitar ": 3205,
      "High": 3206,
      "archae": 3207,
      "estimated ": 3208,
      "Bi": 3209,
      "Rus": 3210,
      "da ": 3211,
      "is an ": 3212,
      "espec": 3213,
      "ourn": 3214,
      "all of ": 3215,
      "duce ": 3216,
      "France ": 3217,
      "probably ": 3218,
      "techn": 3219,
      "Missouri ": 3220,
      "especially ": 3221,
      "repor": 3222,
      "th of ": 3223,
      "lig": 3224,
      "occas": 3225,
      "sea ": 3226,
      "Union ": 3227,
      "beli": 3228,
      "rock ": 3229,
      "case ": 3230,
      "gold ": 3231,
      "stly ": 3232,
      "liv": 3233,
      "ies , ": 3234,
      "pool ": 3235,
      "secur": 3236,
      "mod": 3237,
      "chart ": 3238,
      "declar": 3239,
      "established ": 3240,
      "feet ( ": 3241,
      "Bill": 3242,
      "dam ": 3243,
      "mary ": 3244,
      "super": 3245,
      "or of ": 3246,
      "execu": 3247,
      "spent ": 3248,
      "year , ": 3249,
      "flic": 3250,
      "achiev": 3251,
      "elling ": 3252,
      "might ": 3253,
      "complete ": 3254,
      "evidence ": 3255,
      "75 ": 3256,
      "Ed": 3257,
      "ated by ": 3258,
      "Chr": 3259,
      "operations ": 3260,
      "aff ": 3261,
      "Canadian ": 3262,
      "Man ": 3263,
      "woman ": 3264,
      "ght": 3265,
      "aper ": 3266,
      "ft ) ": 3267,
      "surr": 3268,
      "appear ": 3269,
      "multi": 3270,
      "Irish ": 3271,
      "Chinese ": 3272,
      "Britain ": 3273,
      "so": 3274,
      "test": 3275,
      "in and ": 3276,
      "that it ": 3277,
      "plat": 3278,
      "secon": 3279,
      "remi": 3280,
      "approximately ": 3281,
      "38 ": 3282,
      "Lor": 3283,
      "Ru": 3284,
      "ah": 3285,
      "ah ": 3286,
      "i , ": 3287,
      "chap": 3288,
      "\" a ": 3289,
      "phys": 3290,
      "ells ": 3291,
      "study ": 3292,
      "U.S. ": 3293,
      "latter ": 3294,
      "Tech ": 3295,
      "Cathol": 3296,
      "- ": 3297,
      "hold ": 3298,
      "ied ": 3299,
      "ls ": 3300,
      "past ": 3301,
      "soci": 3302,
      "urb": 3303,
      "@-@ yard ": 3304,
      "astern ": 3305,
      "break": 3306,
      "Christian ": 3307,
      "Michael ": 3308,
      "Mexic": 3309,
      "cover ": 3310,
      "dri": 3311,
      "football ": 3312,
      "ed it ": 3313,
      "prog": 3314,
      "expan": 3315,
      "ump": 3316,
      "who had ": 3317,
      "liter": 3318,
      "Associ": 3319,
      "commercial ": 3320,
      "returned to ": 3321,
      "cr": 3322,
      "dings ": 3323,
      "ith": 3324,
      "lack ": 3325,
      "ones ": 3326,
      "enough ": 3327,
      "on his ": 3328,
      "debut ": 3329,
      "impro": 3330,
      "soldi": 3331,
      "could be ": 3332,
      "Thomas ": 3333,
      "90 ": 3334,
      "minut": 3335,
      "decision ": 3336,
      "writer ": 3337,
      "Phil": 3338,
      "additional ": 3339,
      "Sy": 3340,
      "fru": 3341,
      "ence , ": 3342,
      "beginning ": 3343,
      "developed ": 3344,
      "Scient": 3345,
      "Gl": 3346,
      "II": 3347,
      "President ": 3348,
      "Tor": 3349,
      "mir": 3350,
      "ox ": 3351,
      "appl": 3352,
      "3 – ": 3353,
      "all , ": 3354,
      "ruis": 3355,
      "positive ": 3356,
      "Play": 3357,
      "religious ": 3358,
      "31 ": 3359,
      "Po": 3360,
      "ment": 3361,
      "social ": 3362,
      "o 's ": 3363,
      "enon ": 3364,
      "that was ": 3365,
      "tru": 3366,
      "ester ": 3367,
      ". Some ": 3368,
      "speci": 3369,
      "supported ": 3370,
      "success ": 3371,
      "Oly": 3372,
      "sil": 3373,
      "err": 3374,
      "probl": 3375,
      "person ": 3376,
      "turned ": 3377,
      "special ": 3378,
      "\" , \" ": 3379,
      "music": 3380,
      "Florida ": 3381,
      "Award ": 3382,
      "Day ": 3383,
      "eding ": 3384,
      "lay": 3385,
      "male ": 3386,
      "ness ": 3387,
      "ton": 3388,
      "ought ": 3389,
      "elements ": 3390,
      "active ": 3391,
      "habit": 3392,
      "depression ": 3393,
      "finish": 3394,
      "called the ": 3395,
      "battle ": 3396,
      "collec": 3397,
      "running ": 3398,
      "better ": 3399,
      "? ": 3400,
      "Govern": 3401,
      "Paul ": 3402,
      "c ": 3403,
      "mas": 3404,
      "shown ": 3405,
      "colon": 3406,
      "rela": 3407,
      "child ": 3408,
      "Hurricane ": 3409,
      "Jos": 3410,
      "eir ": 3411,
      "food ": 3412,
      "law ": 3413,
      "xon ": 3414,
      "als , ": 3415,
      "cher ": 3416,
      "2005 ": 3417,
      "35 ": 3418,
      "a new ": 3419,
      "es \" ": 3420,
      "certain ": 3421,
      "off the ": 3422,
      "manager ": 3423,
      "based on ": 3424,
      "Grand ": 3425,
      "rather than ": 3426,
      "Mac": 3427,
      "Shi": 3428,
      "ts of the ": 3429,
      ". An ": 3430,
      "ause of ": 3431,
      "servic": 3432,
      "provide ": 3433,
      "sometimes ": 3434,
      "Guitar Hero ": 3435,
      "Olymp": 3436,
      "Hel": 3437,
      "Res": 3438,
      "al @-@ ": 3439,
      "Stor": 3440,
      "him to ": 3441,
      "advanc": 3442,
      "near the ": 3443,
      "Im": 3444,
      "level": 3445,
      "tom": 3446,
      "ere": 3447,
      "omet": 3448,
      "oot ": 3449,
      ". On": 3450,
      "friend ": 3451,
      "co @-@ ": 3452,
      "ran ": 3453,
      "race ": 3454,
      "anal": 3455,
      "of \" ": 3456,
      "iting ": 3457,
      "actu": 3458,
      "ted in ": 3459,
      "death": 3460,
      ". To ": 3461,
      "achel ": 3462,
      "became the ": 3463,
      "aim ": 3464,
      "ight ": 3465,
      "n , ": 3466,
      "a .\n": 3467,
      "eption ": 3468,
      "objec": 3469,
      "critics ": 3470,
      "Jin ": 3471,
      "ders ": 3472,
      "an and ": 3473,
      "program ": 3474,
      "eph": 3475,
      "Tre": 3476,
      "frequ": 3477,
      "rd ": 3478,
      "y the ": 3479,
      "e , a ": 3480,
      "have a ": 3481,
      "mostly ": 3482,
      "Great ": 3483,
      "caused ": 3484,
      "themsel": 3485,
      "Pacific ": 3486,
      "Game ": 3487,
      "free ": 3488,
      "ials ": 3489,
      "list ": 3490,
      "with an ": 3491,
      "two @-@ ": 3492,
      "186": 3493,
      "upon ": 3494,
      "studio ": 3495,
      "fleet ": 3496,
      "Bal": 3497,
      "Town": 3498,
      "tan": 3499,
      "via ": 3500,
      "quick": 3501,
      "formed ": 3502,
      "Wheel": 3503,
      "ebr": 3504,
      "Carol": 3505,
      "alifor": 3506,
      "remaining ": 3507,
      "largely ": 3508,
      "quarters ": 3509,
      "available ": 3510,
      "NY ": 3511,
      "Sar": 3512,
      "s from ": 3513,
      "reti": 3514,
      "ess of ": 3515,
      "amb": 3516,
      "188": 3517,
      "commis": 3518,
      "Mari": 3519,
      "interest ": 3520,
      "three @-@ ": 3521,
      "including the ": 3522,
      "temper": 3523,
      "order to ": 3524,
      "Billboard ": 3525,
      "3rd ": 3526,
      "Western ": 3527,
      "oid ": 3528,
      "ting the ": 3529,
      "ern": 3530,
      "t was ": 3531,
      "or the ": 3532,
      ". As a ": 3533,
      "floo": 3534,
      "when he ": 3535,
      "Bay ": 3536,
      "base ": 3537,
      "ken ": 3538,
      "med": 3539,
      "na ": 3540,
      "acqu": 3541,
      "ades ": 3542,
      "ounding ": 3543,
      "tions of ": 3544,
      "2015 ": 3545,
      "in 196": 3546,
      "goals ": 3547,
      "Angel": 3548,
      "Tr": 3549,
      "post ": 3550,
      "enj": 3551,
      "not be ": 3552,
      ". One ": 3553,
      "Comman": 3554,
      "controll": 3555,
      "Georg": 3556,
      "Charles ": 3557,
      "FA ": 3558,
      "Hu": 3559,
      "Tri": 3560,
      "mur": 3561,
      "sh ": 3562,
      "of its ": 3563,
      "states ": 3564,
      "his first ": 3565,
      "finished ": 3566,
      "money ": 3567,
      "future ": 3568,
      "scored ": 3569,
      "Henry ": 3570,
      "Ag": 3571,
      "Love ": 3572,
      "Old ": 3573,
      "jected ": 3574,
      "sent": 3575,
      "send ": 3576,
      "the most ": 3577,
      "er to ": 3578,
      "ull ": 3579,
      "imag": 3580,
      "185": 3581,
      "crew ": 3582,
      "ists ": 3583,
      "such as the ": 3584,
      "ordin": 3585,
      "majority ": 3586,
      "Califor": 3587,
      "FI": 3588,
      "Red ": 3589,
      "we": 3590,
      "ed with the ": 3591,
      "arrang": 3592,
      "at , ": 3593,
      "chor": 3594,
      "adop": 3595,
      "in the United States ": 3596,
      "first time ": 3597,
      "prin": 3598,
      "princ": 3599,
      "interest": 3600,
      "police ": 3601,
      "power": 3602,
      "scene ": 3603,
      "Brown ": 3604,
      "Mos": 3605,
      "Sou": 3606,
      "Sim": 3607,
      "mig": 3608,
      "isl": 3609,
      "owle": 3610,
      "e of a ": 3611,
      "ques": 3612,
      "where he ": 3613,
      "winning ": 3614,
      "lyric": 3615,
      "cut ": 3616,
      "a @-@ ": 3617,
      ". An": 3618,
      "4 – ": 3619,
      "musical ": 3620,
      "primary ": 3621,
      "particip": 3622,
      "every": 3623,
      "New Zealand ": 3624,
      "A. ": 3625,
      "Mil": 3626,
      "Rachel ": 3627,
      "fol": 3628,
      "ket": 3629,
      "mos": 3630,
      "ric ": 3631,
      "orial ": 3632,
      "itte": 3633,
      "nother ": 3634,
      "engine": 3635,
      "ference ": 3636,
      "Isra": 3637,
      "larger ": 3638,
      "magazine ": 3639,
      "schol": 3640,
      "Portu": 3641,
      "Croati": 3642,
      "allow ": 3643,
      "on to ": 3644,
      "in its ": 3645,
      "staff ": 3646,
      "Chic": 3647,
      "son , ": 3648,
      "stars ": 3649,
      "accep": 3650,
      "heal": 3651,
      "due to the ": 3652,
      "treat": 3653,
      "’ s ": 3654,
      "Championship ": 3655,
      "Ke": 3656,
      "fall": 3657,
      "gir": 3658,
      "ed at the ": 3659,
      "alist ": 3660,
      "always ": 3661,
      "as , ": 3662,
      "ple": 3663,
      "seas": 3664,
      ". He also ": 3665,
      "son 's ": 3666,
      "became a ": 3667,
      "quickly ": 3668,
      "Gul": 3669,
      "Sov": 3670,
      "Vic": 3671,
      "ge": 3672,
      "top": 3673,
      "e the ": 3674,
      ". St": 3675,
      "election ": 3676,
      "che": 3677,
      "estig": 3678,
      "ady ": 3679,
      "ghts ": 3680,
      "i @-@ ": 3681,
      "critical ": 3682,
      "phas": 3683,
      "in 197": 3684,
      "ances ": 3685,
      ". Despite ": 3686,
      "months ": 3687,
      "decided to ": 3688,
      "language ": 3689,
      "th century , ": 3690,
      "Bel": 3691,
      "Var": 3692,
      "hand ": 3693,
      "ership ": 3694,
      "aries ": 3695,
      "ille ": 3696,
      "actions ": 3697,
      "distri": 3698,
      "extr": 3699,
      "ffic ": 3700,
      "meth": 3701,
      "draw ": 3702,
      "process ": 3703,
      "distribu": 3704,
      "ars ": 3705,
      "ateg": 3706,
      "ica ": 3707,
      "whether ": 3708,
      "ray ": 3709,
      "determin": 3710,
      "exper": 3711,
      "norm": 3712,
      "game 's ": 3713,
      "produced ": 3714,
      "returned ": 3715,
      "pian": 3716,
      "athedral ": 3717,
      "Dr": 3718,
      "Gi": 3719,
      "hop": 3720,
      ", was ": 3721,
      "chi": 3722,
      "proper": 3723,
      "ations , ": 3724,
      "but the ": 3725,
      "charg": 3726,
      ". Other ": 3727,
      "increased ": 3728,
      "average ": 3729,
      "Federer ": 3730,
      "California ": 3731,
      "eign ": 3732,
      "sing ": 3733,
      "estiv": 3734,
      "enty ": 3735,
      "feder": 3736,
      "flo": 3737,
      "Times ": 3738,
      "Creek ": 3739,
      "Jewish ": 3740,
      "Scientology ": 3741,
      "400 ": 3742,
      "M ": 3743,
      "ball": 3744,
      "zz": 3745,
      "of L": 3746,
      "adap": 3747,
      "leave ": 3748,
      "rail": 3749,
      "projec": 3750,
      ". Two ": 3751,
      "2003 ": 3752,
      "6 @.@ ": 3753,
      "secu": 3754,
      "syl": 3755,
      "Northern ": 3756,
      "each other ": 3757,
      "taking ": 3758,
      "limited ": 3759,
      "current ": 3760,
      "natural ": 3761,
      "Mal": 3762,
      "law": 3763,
      "ots ": 3764,
      "pair ": 3765,
      "sound ": 3766,
      "thes": 3767,
      "review ": 3768,
      "or to ": 3769,
      "turn ": 3770,
      "edy ": 3771,
      "Enter": 3772,
      "polic": 3773,
      "directly ": 3774,
      "back to ": 3775,
      "constructed ": 3776,
      "attempt to ": 3777,
      "Wales ": 3778,
      "mi ) ": 3779,
      "Oper": 3780,
      "bs ": 3781,
      "ugg": 3782,
      "onc": 3783,
      "ings , ": 3784,
      "financ": 3785,
      "includes ": 3786,
      "Parliament ": 3787,
      "feature ": 3788,
      "remained ": 3789,
      "continued ": 3790,
      "atin ": 3791,
      "written by ": 3792,
      "newsp": 3793,
      "Europe ": 3794,
      "detail": 3795,
      "training ": 3796,
      "subsequently ": 3797,
      "Cong": 3798,
      "M @-@ ": 3799,
      "cal": 3800,
      "led to ": 3801,
      "mot": 3802,
      "vice ": 3803,
      "ening ": 3804,
      "in @-@ ": 3805,
      "month ": 3806,
      ". On the ": 3807,
      "court ": 3808,
      "tournam": 3809,
      "Central ": 3810,
      "Galvest": 3811,
      "professional ": 3812,
      "Tex": 3813,
      "real ": 3814,
      "of their ": 3815,
      "oute ": 3816,
      "as it ": 3817,
      "was re": 3818,
      "for their ": 3819,
      "condi": 3820,
      "umb": 3821,
      "The": 3822,
      "positions ": 3823,
      "Light ": 3824,
      "since the ": 3825,
      ". Later ": 3826,
      "organis": 3827,
      "idea ": 3828,
      "wanted to ": 3829,
      "owever , the ": 3830,
      "touch": 3831,
      "smaller ": 3832,
      "private ": 3833,
      "On": 3834,
      "cle ": 3835,
      "crow": 3836,
      "don": 3837,
      "kel": 3838,
      "to make ": 3839,
      "\" . ": 3840,
      "adron ": 3841,
      "ranked ": 3842,
      ": The ": 3843,
      "ishop ": 3844,
      "finally ": 3845,
      "aul": 3846,
      "kil": 3847,
      "nest ": 3848,
      "thus ": 3849,
      "d , ": 3850,
      "on and ": 3851,
      "on August ": 3852,
      "agg": 3853,
      "express": 3854,
      "2 @,@ ": 3855,
      "poor ": 3856,
      "greater ": 3857,
      "famil": 3858,
      "bridge ": 3859,
      "contract ": 3860,
      "clear ": 3861,
      "48 ": 3862,
      "47 ": 3863,
      "Em": 3864,
      "SA": 3865,
      "ani ": 3866,
      "whil": 3867,
      "administ": 3868,
      "dead ": 3869,
      "ation .\n": 3870,
      "contem": 3871,
      "maintain": 3872,
      "daughter ": 3873,
      "driv": 3874,
      "ians ": 3875,
      "mom": 3876,
      ", it ": 3877,
      "sta": 3878,
      "that they ": 3879,
      "tionally ": 3880,
      "atten": 3881,
      "rup": 3882,
      "stories ": 3883,
      "suppl": 3884,
      "Sun ": 3885,
      "necess": 3886,
      "anti @-@ ": 3887,
      "fighting ": 3888,
      "School ": 3889,
      "0 , the ": 3890,
      "Ott": 3891,
      "cad": 3892,
      "jud": 3893,
      "sus": 3894,
      "tac": 3895,
      "yet ": 3896,
      "s for ": 3897,
      "ar , ": 3898,
      "tions , ": 3899,
      "ument ": 3900,
      "because of ": 3901,
      "research ": 3902,
      "There ": 3903,
      "surface ": 3904,
      "stein ": 3905,
      "was the first ": 3906,
      "particular ": 3907,
      "students ": 3908,
      "after": 3909,
      "University of ": 3910,
      "ben": 3911,
      "mm ) ": 3912,
      "pun": 3913,
      "wit": 3914,
      "ine , ": 3915,
      ", in ": 3916,
      "ed . The ": 3917,
      "of which ": 3918,
      "ac ": 3919,
      "conflic": 3920,
      "in 195": 3921,
      "than the ": 3922,
      ". Follow": 3923,
      "gods ": 3924,
      "direct ": 3925,
      "transi": 3926,
      "func": 3927,
      "response ": 3928,
      "th @-@ century ": 3929,
      "lack of ": 3930,
      "sylv": 3931,
      "Ap": 3932,
      "Nic": 3933,
      "Soci": 3934,
      "bird ": 3935,
      "ep ": 3936,
      "nis ": 3937,
      "ans": 3938,
      "antly ": 3939,
      "ed , and ": 3940,
      "in H": 3941,
      "did": 3942,
      "create ": 3943,
      "I '": 3944,
      "minute ": 3945,
      "traffic ": 3946,
      "brother ": 3947,
      "purch": 3948,
      "longer ": 3949,
      "double ": 3950,
      "Richard ": 3951,
      "classi": 3952,
      "bil": 3953,
      "done ": 3954,
      "r ": 3955,
      "aband": 3956,
      "poten": 3957,
      "section ": 3958,
      "Inf": 3959,
      "numb": 3960,
      "following the ": 3961,
      "movement ": 3962,
      "advant": 3963,
      "Christm": 3964,
      "Cer": 3965,
      "Cra": 3966,
      "Cros": 3967,
      "San ": 3968,
      "UK ": 3969,
      "was released ": 3970,
      "'s first ": 3971,
      "would have ": 3972,
      "llery ": 3973,
      "explain": 3974,
      "a few ": 3975,
      "reveal": 3976,
      "37 ": 3977,
      "Sing": 3978,
      "batter": 3979,
      "drop": 3980,
      "ual": 3981,
      "ami ": 3982,
      "unable to ": 3983,
      "everal ": 3984,
      "lie ": 3985,
      "living ": 3986,
      "Star ": 3987,
      "poss": 3988,
      "When ": 3989,
      "ance of ": 3990,
      "album , ": 3991,
      "army ": 3992,
      "increase ": 3993,
      "quarter ": 3994,
      "referred to ": 3995,
      "sched": 3996,
      "Regiment ": 3997,
      "bran": 3998,
      "bomb": 3999,
      "dru": 4000,
      "hus": 4001,
      "hou ": 4002,
      "ty , ": 4003,
      "escap": 4004,
      "'s \" ": 4005,
      "( the ": 4006,
      "ety of ": 4007,
      "Station ": 4008,
      ". In 200": 4009,
      "awarded ": 4010,
      "press ": 4011,
      "meant ": 4012,
      "pre @-@ ": 4013,
      ". Most ": 4014,
      "lines ": 4015,
      "mium ": 4016,
      "Battle ": 4017,
      "associated ": 4018,
      "activity ": 4019,
      "Cour": 4020,
      "Tel": 4021,
      "ed an ": 4022,
      "ed from the ": 4023,
      "in this ": 4024,
      "asc": 4025,
      "siz": 4026,
      "for \" ": 4027,
      "condom": 4028,
      ". The first ": 4029,
      "ultim": 4030,
      ". Its ": 4031,
      "embly ": 4032,
      "week": 4033,
      "Council ": 4034,
      ". During ": 4035,
      "O '": 4036,
      "traditional ": 4037,
      "surviv": 4038,
      "shap": 4039,
      "fifth ": 4040,
      "activi": 4041,
      "network ": 4042,
      "hu": 4043,
      "score ": 4044,
      "der of the ": 4045,
      "187": 4046,
      "upper ": 4047,
      "fact ": 4048,
      "graph": 4049,
      "African ": 4050,
      "experience ": 4051,
      "material ": 4052,
      "broadcast ": 4053,
      "greatest ": 4054,
      "Bur": 4055,
      "Fri": 4056,
      "acting ": 4057,
      "dedic": 4058,
      "space ": 4059,
      "aught ": 4060,
      ". She was ": 4061,
      "incor": 4062,
      ". After the ": 4063,
      "battl": 4064,
      "tropical storm ": 4065,
      "mixed ": 4066,
      "Navy ": 4067,
      "nearby ": 4068,
      "president ": 4069,
      "300 ": 4070,
      "Met": 4071,
      "Penn": 4072,
      "bb": 4073,
      "dh": 4074,
      "dated ": 4075,
      ". Un": 4076,
      "was \" ": 4077,
      "old": 4078,
      "died ": 4079,
      "e , \" ": 4080,
      "coming ": 4081,
      "overall ": 4082,
      "minor ": 4083,
      "metres ( ": 4084,
      "break ": 4085,
      "Polish ": 4086,
      "competition ": 4087,
      "rest of the ": 4088,
      "ginia ": 4089,
      "business ": 4090,
      "Virginia ": 4091,
      "sylvania ": 4092,
      "Off": 4093,
      "Tropical ": 4094,
      "athan ": 4095,
      "ease ": 4096,
      "gar ": 4097,
      "ids ": 4098,
      "pass ": 4099,
      "sav": 4100,
      "tal ": 4101,
      "web": 4102,
      "es from ": 4103,
      "chall": 4104,
      "isc": 4105,
      "ung ": 4106,
      "confir": 4107,
      "( ) , ": 4108,
      "leg ": 4109,
      "ation was ": 4110,
      "trad": 4111,
      "annual ": 4112,
      "related ": 4113,
      "wind": 4114,
      "purpos": 4115,
      "voice ": 4116,
      "performanc": 4117,
      "among the ": 4118,
      "defeat ": 4119,
      "defeated ": 4120,
      "machine ": 4121,
      "weap": 4122,
      "jun": 4123,
      "s on ": 4124,
      "think ": 4125,
      "erset ": 4126,
      ". U": 4127,
      "was an ": 4128,
      "owl ": 4129,
      "whole ": 4130,
      "constitu": 4131,
      "deb": 4132,
      "claim ": 4133,
      "eway ": 4134,
      "seem": 4135,
      "Studi": 4136,
      "panish ": 4137,
      ". From ": 4138,
      "Arch": 4139,
      "eyonc": 4140,
      "expected ": 4141,
      "Ale": 4142,
      "Ever": 4143,
      "iet ": 4144,
      "lege ": 4145,
      "theat": 4146,
      "opin": 4147,
      "see": 4148,
      "trade ": 4149,
      "fiel": 4150,
      "United Kingdom ": 4151,
      "rison ": 4152,
      "released in ": 4153,
      "favor": 4154,
      "Port ": 4155,
      "Tenn": 4156,
      "ger ": 4157,
      "hospit": 4158,
      "in ( ": 4159,
      "atory ": 4160,
      "add": 4161,
      "promis": 4162,
      "compu": 4163,
      "party ": 4164,
      "2010 , ": 4165,
      "command ": 4166,
      "starting ": 4167,
      "legal ": 4168,
      "front ": 4169,
      "standard ": 4170,
      "olution ": 4171,
      "4th ": 4172,
      "Jack ": 4173,
      "efore ": 4174,
      "gas ": 4175,
      "log": 4176,
      "nel ": 4177,
      "anas": 4178,
      "itch": 4179,
      "chem": 4180,
      "agon": 4181,
      "promin": 4182,
      "5 @.@ ": 4183,
      "who was ": 4184,
      "know ": 4185,
      "anna ": 4186,
      "Alk": 4187,
      "according to ": 4188,
      "iverpool ": 4189,
      "there were ": 4190,
      "investig": 4191,
      "continue ": 4192,
      "highly ": 4193,
      "nuclear ": 4194,
      "Infantry ": 4195,
      ") , the ": 4196,
      "5th ": 4197,
      "Haif": 4198,
      "Sup": 4199,
      "cric": 4200,
      "gent": 4201,
      "nation": 4202,
      "wal": 4203,
      "ild ": 4204,
      "emerg": 4205,
      "plans ": 4206,
      "ding the ": 4207,
      ". In addition ": 4208,
      "capital ": 4209,
      "well @-@ ": 4210,
      "said that ": 4211,
      "do not ": 4212,
      "approach": 4213,
      "will be ": 4214,
      "media ": 4215,
      "morning ": 4216,
      "tail ": 4217,
      "peak ": 4218,
      "immediately ": 4219,
      "39 ": 4220,
      "Brad": 4221,
      "Ter": 4222,
      "day": 4223,
      "lis": 4224,
      "nav": 4225,
      "ois ": 4226,
      "tons ": 4227,
      "the same ": 4228,
      "really ": 4229,
      "onic ": 4230,
      "enth ": 4231,
      "enem": 4232,
      "hit ": 4233,
      "term": 4234,
      "office ": 4235,
      "Alice ": 4236,
      "south": 4237,
      "companies ": 4238,
      "deliver": 4239,
      "distinc": 4240,
      "partment ": 4241,
      "troops ": 4242,
      "kilomet": 4243,
      "Air ": 4244,
      "Bro": 4245,
      "Mey": 4246,
      "ais": 4247,
      "sound": 4248,
      "e ( ": 4249,
      ". ( ": 4250,
      "refl": 4251,
      "onym": 4252,
      "er ( ": 4253,
      "ened ": 4254,
      "\" ) ": 4255,
      "actor ": 4256,
      "asked ": 4257,
      "with her ": 4258,
      "spe": 4259,
      "had to ": 4260,
      "selected ": 4261,
      "cell ": 4262,
      "fell ": 4263,
      "lam": 4264,
      "ta ": 4265,
      "erbe": 4266,
      "rain ": 4267,
      ": the ": 4268,
      "years , ": 4269,
      "2014 ": 4270,
      "Mark ": 4271,
      "up the ": 4272,
      "numerous ": 4273,
      "moving ": 4274,
      "countri": 4275,
      "day , ": 4276,
      "Live ": 4277,
      "visit": 4278,
      "innes": 4279,
      "influenc": 4280,
      "guns ": 4281,
      "experienc": 4282,
      "scienti": 4283,
      "radio ": 4284,
      "source ": 4285,
      "responsible ": 4286,
      "36 ": 4287,
      "eth": 4288,
      "uk": 4289,
      "one , ": 4290,
      ". Bo": 4291,
      "ivers": 4292,
      "Colon": 4293,
      "archit": 4294,
      "artist ": 4295,
      "Nixon ": 4296,
      "Scotland ": 4297,
      "respectively ": 4298,
      "cyclone ": 4299,
      "Storm ": 4300,
      "commission": 4301,
      "ke": 4302,
      "sons ": 4303,
      "ys ": 4304,
      "report ": 4305,
      "of D": 4306,
      "on their ": 4307,
      "on July ": 4308,
      "is now ": 4309,
      "il , ": 4310,
      "sia ": 4311,
      "for its ": 4312,
      "unity ": 4313,
      "ers of the ": 4314,
      "some of the ": 4315,
      "side of the ": 4316,
      "pursu": 4317,
      "Museum ": 4318,
      "strict ": 4319,
      "Second ": 4320,
      "widely ": 4321,
      "Catholic ": 4322,
      "themselves ": 4323,
      "33 ": 4324,
      "My ": 4325,
      "Pe": 4326,
      "aby ": 4327,
      "stay ": 4328,
      "ayl": 4329,
      "specific ": 4330,
      "records ": 4331,
      "going ": 4332,
      "self @-@ ": 4333,
      "ording to the ": 4334,
      "completely ": 4335,
      "influence ": 4336,
      "characteris": 4337,
      "Am": 4338,
      "Tru": 4339,
      "Wi": 4340,
      "wall ": 4341,
      "thir": 4342,
      "ans , ": 4343,
      "an un": 4344,
      "ower ": 4345,
      "that a ": 4346,
      "dig": 4347,
      "it , ": 4348,
      "uments ": 4349,
      "; and ": 4350,
      "after a ": 4351,
      "most of the ": 4352,
      "ional ": 4353,
      "antas": 4354,
      "issue ": 4355,
      "initial ": 4356,
      "Academ": 4357,
      "lightly ": 4358,
      "division ": 4359,
      "copies ": 4360,
      "Chicago ": 4361,
      "+ ": 4362,
      "Hill ": 4363,
      "Rock ": 4364,
      "pul": 4365,
      "ped": 4366,
      "ed its ": 4367,
      "ed for the ": 4368,
      ". Con": 4369,
      "emo": 4370,
      "lies ": 4371,
      "bul": 4372,
      "manu": 4373,
      "illu": 4374,
      "as a \" ": 4375,
      "god ": 4376,
      "primar": 4377,
      "affected ": 4378,
      "pressure ": 4379,
      "ergy ": 4380,
      "Roseb": 4381,
      "members of the ": 4382,
      "peaked ": 4383,
      "document": 4384,
      "concluded ": 4385,
      "mph ( ": 4386,
      "Pennsylvania ": 4387,
      "49 ": 4388,
      "Kh": 4389,
      "Latin ": 4390,
      "cost ": 4391,
      "ez ": 4392,
      "hic": 4393,
      "middle ": 4394,
      "ram": 4395,
      "weight ": 4396,
      ", although ": 4397,
      "ican ": 4398,
      "roll": 4399,
      "ashi": 4400,
      "@-@": 4401,
      "siv": 4402,
      "are the ": 4403,
      "strong": 4404,
      "estin": 4405,
      "2011 , ": 4406,
      "later , ": 4407,
      "Queen ": 4408,
      "viron": 4409,
      "extrem": 4410,
      "Chris ": 4411,
      "Der": 4412,
      "Football ": 4413,
      "dy": 4414,
      "phi": 4415,
      "se of ": 4416,
      "vent": 4417,
      "inside ": 4418,
      "arity ": 4419,
      "tian ": 4420,
      "in M": 4421,
      "to take ": 4422,
      "elected ": 4423,
      "opport": 4424,
      "tically ": 4425,
      "akap": 4426,
      "award ": 4427,
      "awai": 4428,
      "declin": 4429,
      "engag": 4430,
      "winds ": 4431,
      "higher ": 4432,
      "heavily ": 4433,
      "should be ": 4434,
      "Christmas ": 4435,
      "32 ": 4436,
      "How": 4437,
      "canc": 4438,
      "sli": 4439,
      "ón ": 4440,
      "and other ": 4441,
      "accompan": 4442,
      "appe": 4443,
      "quality ": 4444,
      "percent ": 4445,
      ". Her ": 4446,
      "year @-@ ": 4447,
      ". Since ": 4448,
      "both the ": 4449,
      "damag": 4450,
      "criticiz": 4451,
      "across ": 4452,
      "weak": 4453,
      "mention": 4454,
      "Republic ": 4455,
      "contemporary ": 4456,
      "aylor ": 4457,
      "ee ": 4458,
      "ean": 4459,
      "host ": 4460,
      "weal": 4461,
      "m , ": 4462,
      "acy ": 4463,
      "appar": 4464,
      "2001 ": 4465,
      "rout": 4466,
      "2016 ": 4467,
      ". But ": 4468,
      ". Many ": 4469,
      "adium ": 4470,
      "explo": 4471,
      "individual ": 4472,
      "information ": 4473,
      "Texas ": 4474,
      "Lit": 4475,
      "fect ": 4476,
      "spl": 4477,
      "slow": 4478,
      "today ": 4479,
      "institu": 4480,
      "als and ": 4481,
      "ing of the ": 4482,
      "university ": 4483,
      "oph": 4484,
      ". Another ": 4485,
      ", and a ": 4486,
      "2 ) ": 4487,
      "story": 4488,
      "ia , ": 4489,
      "offensive ": 4490,
      "Ander": 4491,
      "facil": 4492,
      "casual": 4493,
      "typically ": 4494,
      "something ": 4495,
      "artillery ": 4496,
      "Africa ": 4497,
      "ography ": 4498,
      "launch": 4499,
      "Beyonc": 4500,
      "Nations ": 4501,
      "Pen": 4502,
      "Sk": 4503,
      "Year ": 4504,
      "bon": 4505,
      "fer ": 4506,
      "ix ": 4507,
      "ed out ": 4508,
      "ed her ": 4509,
      "stating ": 4510,
      "champion": 4511,
      "sim": 4512,
      "adver": 4513,
      "uses ": 4514,
      "from his ": 4515,
      "recent ": 4516,
      "ded by ": 4517,
      "coach ": 4518,
      "Party ": 4519,
      "there are ": 4520,
      "historical ": 4521,
      "Canada ": 4522,
      "personal ": 4523,
      "techni": 4524,
      "Peter ": 4525,
      "Galveston ": 4526,
      "husband ": 4527,
      "Acc": 4528,
      "Il": 4529,
      "Str": 4530,
      "Wat": 4531,
      "Wel": 4532,
      "ds , ": 4533,
      "flow": 4534,
      "found": 4535,
      "hour ": 4536,
      "mel": 4537,
      "nam ": 4538,
      "rhy": 4539,
      "say ": 4540,
      "tles ": 4541,
      "an inter": 4542,
      "for her ": 4543,
      "19th century ": 4544,
      "let ": 4545,
      "ts were ": 4546,
      "uck": 4547,
      "at the time ": 4548,
      ". Their ": 4549,
      "symb": 4550,
      "Like ": 4551,
      "peopl": 4552,
      "Black": 4553,
      "Histor": 4554,
      "demon": 4555,
      "mainly ": 4556,
      "extended ": 4557,
      "Series ": 4558,
      "6th ": 4559,
      "Awards ": 4560,
      "Bu": 4561,
      "Hous": 4562,
      "Law": 4563,
      "NA ": 4564,
      "Pi": 4565,
      "Pit": 4566,
      "ban": 4567,
      "journ": 4568,
      "mass ": 4569,
      "tice ": 4570,
      "on October ": 4571,
      "ators ": 4572,
      "unic": 4573,
      "condom ": 4574,
      ". The song ": 4575,
      "deal ": 4576,
      "expos": 4577,
      "strugg": 4578,
      "ests ": 4579,
      "edly ": 4580,
      "cred": 4581,
      "specim": 4582,
      "below ": 4583,
      "described the ": 4584,
      "makes ": 4585,
      "total of ": 4586,
      "headquarters ": 4587,
      "Church of ": 4588,
      "failed to ": 4589,
      "vehic": 4590,
      "Ottoman ": 4591,
      "11": 4592,
      "Fort ": 4593,
      "He": 4594,
      "Route ": 4595,
      "astr": 4596,
      "aiti": 4597,
      "bat": 4598,
      "cause ": 4599,
      "last": 4600,
      "mental ": 4601,
      "attrac": 4602,
      "was to ": 4603,
      "plot ": 4604,
      "unit ": 4605,
      "ted a ": 4606,
      "prac": 4607,
      "location ": 4608,
      "build ": 4609,
      "culture ": 4610,
      "India ": 4611,
      "Villa ": 4612,
      "actually ": 4613,
      "abandon": 4614,
      "incorpor": 4615,
      "Yue ": 4616,
      "flight ": 4617,
      "gri": 4618,
      "get": 4619,
      "hard ": 4620,
      "ward": 4621,
      "xenon ": 4622,
      "insul": 4623,
      "and its ": 4624,
      "to their ": 4625,
      "station ": 4626,
      "used in ": 4627,
      "it the ": 4628,
      "exclu": 4629,
      "fight ": 4630,
      "rick ": 4631,
      "ance , ": 4632,
      "athens ": 4633,
      "operation ": 4634,
      "damaged ": 4635,
      "tellig": 4636,
      "Maj": 4637,
      "summ": 4638,
      "transfer": 4639,
      "travel": 4640,
      "volum": 4641,
      "Italian ": 4642,
      "7th ": 4643,
      "This ": 4644,
      "nal ": 4645,
      "things ": 4646,
      "instr": 4647,
      "size ": 4648,
      "( 199": 4649,
      "192": 4650,
      "2000 ": 4651,
      "thous": 4652,
      "eeds ": 4653,
      "moved to ": 4654,
      "directed by ": 4655,
      "transpor": 4656,
      "game , ": 4657,
      "effect ": 4658,
      "confirm": 4659,
      "Lou": 4660,
      "Spanish ": 4661,
      "ible ": 4662,
      "ry": 4663,
      "of The ": 4664,
      "oul": 4665,
      "elev": 4666,
      "ural ": 4667,
      "act": 4668,
      "en and ": 4669,
      "ush": 4670,
      "liz": 4671,
      "were also ": 4672,
      "all @-@ ": 4673,
      "one @-@ ": 4674,
      "; he ": 4675,
      "ricul": 4676,
      "them to ": 4677,
      "athus ": 4678,
      "venue ": 4679,
      "group of ": 4680,
      "stream ": 4681,
      "industry ": 4682,
      "member of the ": 4683,
      "Highway ": 4684,
      "primarily ": 4685,
      "sively ": 4686,
      "Civ": 4687,
      "Hav": 4688,
      "St ": 4689,
      "Tra": 4690,
      "ax": 4691,
      "cathedral ": 4692,
      "fly ": 4693,
      "paid ": 4694,
      "slightly ": 4695,
      "want ": 4696,
      ", or ": 4697,
      "in order to ": 4698,
      "ic , ": 4699,
      "rapp": 4700,
      "produce ": 4701,
      "depl": 4702,
      "ations of ": 4703,
      "deriv": 4704,
      "attribu": 4705,
      ": 00 ": 4706,
      "feel": 4707,
      ". That ": 4708,
      "forced to ": 4709,
      "tainment ": 4710,
      "Force ": 4711,
      "killed ": 4712,
      "threat": 4713,
      "analys": 4714,
      "Cal": 4715,
      "Emp": 4716,
      "Kor": 4717,
      "dary ": 4718,
      "ha ": 4719,
      "here ": 4720,
      "ply ": 4721,
      "pag": 4722,
      "pair": 4723,
      "and re": 4724,
      "embl": 4725,
      "that she ": 4726,
      "concent": 4727,
      "twenty ": 4728,
      "ongside ": 4729,
      "start ": 4730,
      "remains ": 4731,
      "ipal ": 4732,
      "divided ": 4733,
      "cross": 4734,
      "figure ": 4735,
      "separate ": 4736,
      "soldiers ": 4737,
      "Portugu": 4738,
      "AA": 4739,
      "Gar": 4740,
      "Hun": 4741,
      "Wee": 4742,
      "fill": 4743,
      "ny ": 4744,
      "neigh": 4745,
      "stand ": 4746,
      "es for ": 4747,
      "ita ": 4748,
      "( \" ": 4749,
      "ulp": 4750,
      "sculp": 4751,
      "\" , which ": 4752,
      "struck ": 4753,
      "buildings ": 4754,
      "found in ": 4755,
      "relief ": 4756,
      "voic": 4757,
      "infantry ": 4758,
      "Japan ": 4759,
      "Vietnam ": 4760,
      "akapo ": 4761,
      "Del": 4762,
      "Fle": 4763,
      "Tess": 4764,
      "Young ": 4765,
      "kin": 4766,
      "nature ": 4767,
      "rated ": 4768,
      "wall": 4769,
      "intin ": 4770,
      "rely ": 4771,
      "conver": 4772,
      "ingu": 4773,
      "igned ": 4774,
      "Indu": 4775,
      "battalion ": 4776,
      "status ": 4777,
      "communic": 4778,
      "Film ": 4779,
      "problems ": 4780,
      "Victor": 4781,
      "Varanas": 4782,
      "Illin": 4783,
      "0th ": 4784,
      "Fowl": 4785,
      "Kar": 4786,
      "Zhou ": 4787,
      "keep ": 4788,
      "chester ": 4789,
      "esbit": 4790,
      "that is ": 4791,
      "entran": 4792,
      "true ": 4793,
      "for the first time ": 4794,
      "remar": 4795,
      "made a ": 4796,
      "access ": 4797,
      "Paris ": 4798,
      "incid": 4799,
      "four @-@ ": 4800,
      "valu": 4801,
      "village ": 4802,
      "marriage ": 4803,
      "powerful ": 4804,
      "Soviet ": 4805,
      "As ": 4806,
      "Bas": 4807,
      "Dan": 4808,
      "Dou": 4809,
      "Liverpool ": 4810,
      "Yank": 4811,
      "call ": 4812,
      "look ": 4813,
      "ination ": 4814,
      ", while ": 4815,
      "alty ": 4816,
      "of her ": 4817,
      "of these ": 4818,
      "eam ": 4819,
      "which the ": 4820,
      "5 – ": 4821,
      "verse ": 4822,
      "phot": 4823,
      "remain ": 4824,
      "directed ": 4825,
      "takes ": 4826,
      "result ": 4827,
      "Blue ": 4828,
      "cultural ": 4829,
      "advance ": 4830,
      "approach ": 4831,
      "excav": 4832,
      "Walpol": 4833,
      "version of the ": 4834,
      "os Angel": 4835,
      "earliest ": 4836,
      "Finkel": 4837,
      "domes": 4838,
      "daen": 4839,
      "hours ": 4840,
      "prevent ": 4841,
      "Lake ": 4842,
      "MS ": 4843,
      "We ": 4844,
      "farm": 4845,
      "founded ": 4846,
      "ed their ": 4847,
      "a is ": 4848,
      "es ' ": 4849,
      " , who ": 4850,
      "tion and ": 4851,
      "tion to ": 4852,
      "conven": 4853,
      "ancient ": 4854,
      "sign ": 4855,
      "maxim": 4856,
      "cerem": 4857,
      "officially ": 4858,
      "resulting ": 4859,
      "water": 4860,
      "concert ": 4861,
      "drawn ": 4862,
      "towards the ": 4863,
      "length ": 4864,
      "recogniz": 4865,
      "Olivier ": 4866,
      "Olympic ": 4867,
      "flooding ": 4868,
      "manufac": 4869,
      "Bol": 4870,
      "Hot ": 4871,
      "Lar": 4872,
      "With ": 4873,
      "car ": 4874,
      "ipl": 4875,
      "kind ": 4876,
      "table ": 4877,
      "ub ": 4878,
      "ville ": 4879,
      "as he ": 4880,
      "havi": 4881,
      "deep ": 4882,
      "impl": 4883,
      "parti": 4884,
      "timony ": 4885,
      ". However , the ": 4886,
      "blue ": 4887,
      "meet ": 4888,
      "Institu": 4889,
      "practi": 4890,
      "aster": 4891,
      "odon ": 4892,
      "served ": 4893,
      "got ": 4894,
      "Engine": 4895,
      "placed ": 4896,
      ", which was ": 4897,
      "group": 4898,
      "background ": 4899,
      "injur": 4900,
      "Earth ": 4901,
      "Portuguese ": 4902,
      "Simp": 4903,
      "thers ": 4904,
      "inch": 4905,
      "ilian ": 4906,
      "sust": 4907,
      ") in ": 4908,
      ". All ": 4909,
      "perman": 4910,
      "2008 , ": 4911,
      "ogad": 4912,
      "2013 , ": 4913,
      "9 @.@ ": 4914,
      "offer": 4915,
      "toward ": 4916,
      "inner ": 4917,
      "Busch ": 4918,
      "Sun": 4919,
      "cen": 4920,
      "fans ": 4921,
      "rate ": 4922,
      "ret ": 4923,
      "and M": 4924,
      "or to the ": 4925,
      "earth": 4926,
      "exhi": 4927,
      "ed to a ": 4928,
      "time of ": 4929,
      "edg": 4930,
      "guitar ": 4931,
      "encour": 4932,
      "torped": 4933,
      "genus ": 4934,
      "high @-@ ": 4935,
      "decided ": 4936,
      "circul": 4937,
      "Somerset ": 4938,
      "oppon": 4939,
      "relatively ": 4940,
      "enjoy": 4941,
      "ittee ": 4942,
      "piano ": 4943,
      "Clar": 4944,
      "Don": 4945,
      "Er": 4946,
      "Early ": 4947,
      "Grou": 4948,
      "nh ": 4949,
      "test ": 4950,
      "yel": 4951,
      "environ": 4952,
      "to \" ": 4953,
      "\" in ": 4954,
      "aspec": 4955,
      "debu": 4956,
      "ourney ": 4957,
      "recover": 4958,
      "blood ": 4959,
      "attended ": 4960,
      "mechan": 4961,
      "coast": 4962,
      "tives ": 4963,
      "High ": 4964,
      "ashington ": 4965,
      "market ": 4966,
      "Recor": 4967,
      "square ": 4968,
      "protein ": 4969,
      "Captain ": 4970,
      "sixth ": 4971,
      "portray": 4972,
      "Mosley ": 4973,
      "cadmium ": 4974,
      "150 ": 4975,
      "43 ": 4976,
      "Camp": 4977,
      "Hear": 4978,
      "Oma": 4979,
      "Spec": 4980,
      "ma ": 4981,
      "mol": 4982,
      "nin": 4983,
      "rin": 4984,
      "youn": 4985,
      "thy ": 4986,
      "alongside ": 4987,
      "recomm": 4988,
      "ates , ": 4989,
      "older ": 4990,
      "@-@ up ": 4991,
      "connec": 4992,
      "in the first ": 4993,
      "it 's ": 4994,
      "shoo": 4995,
      "7 @.@ ": 4996,
      "this time ": 4997,
      "2012 , ": 4998,
      "films ": 4999,
      "help": 5000,
      "fication ": 5001,
      "armed ": 5002,
      "groups ": 5003,
      "form of ": 5004,
      "basis ": 5005,
      "passed ": 5006,
      "explor": 5007,
      "state of ": 5008,
      "based on the ": 5009,
      "changes ": 5010,
      "designated ": 5011,
      "street ": 5012,
      "stated that ": 5013,
      "Service ": 5014,
      "During the ": 5015,
      "Arab": 5016,
      "surrounding ": 5017,
      ". Both ": 5018,
      "Publ": 5019,
      "Saint ": 5020,
      "Taylor ": 5021,
      "Ven": 5022,
      "W ": 5023,
      "ph ": 5024,
      "vot": 5025,
      "s \" ": 5026,
      "s ( ": 5027,
      "tified ": 5028,
      "olden ": 5029,
      "advis": 5030,
      "rainf": 5031,
      "ers ( ": 5032,
      "ull": 5033,
      "in 190": 5034,
      "syst": 5035,
      "helm ": 5036,
      "song \" ": 5037,
      "like the ": 5038,
      "variety of ": 5039,
      "Mont": 5040,
      "friends ": 5041,
      "theme ": 5042,
      "example , ": 5043,
      "Horse ": 5044,
      "celebr": 5045,
      "daenathus ": 5046,
      "Lady ": 5047,
      "Rock": 5048,
      "Washington ": 5049,
      "cruis": 5050,
      "a in ": 5051,
      "stag": 5052,
      "ate , ": 5053,
      "atop": 5054,
      "en 's ": 5055,
      "sip": 5056,
      "k of ": 5057,
      ") was ": 5058,
      "ts in ": 5059,
      "Chron": 5060,
      "rule ": 5061,
      "phere ": 5062,
      "centre ": 5063,
      "regim": 5064,
      "northeast ": 5065,
      "ister ": 5066,
      "Thunder": 5067,
      "used for ": 5068,
      "may have ": 5069,
      "Germany ": 5070,
      "intensity ": 5071,
      "scoring ": 5072,
      "type ": 5073,
      "transl": 5074,
      "patter": 5075,
      "featured ": 5076,
      "shortly ": 5077,
      "proteins ": 5078,
      "possibly ": 5079,
      "Meyerbe": 5080,
      "ogadish": 5081,
      "10 , ": 5082,
      "42 ": 5083,
      "Fam": 5084,
      "Minnes": 5085,
      "ki ": 5086,
      "ro ": 5087,
      "inch ": 5088,
      "reason ": 5089,
      "to @-@ ": 5090,
      "simp": 5091,
      "s , a ": 5092,
      "hip ": 5093,
      "ers .\n": 5094,
      "had not ": 5095,
      "serious ": 5096,
      "burn ": 5097,
      "% of ": 5098,
      "neu": 5099,
      "Direc": 5100,
      "gradu": 5101,
      "looking ": 5102,
      "Somal": 5103,
      "audience ": 5104,
      "territory ": 5105,
      "security ": 5106,
      "schedul": 5107,
      "maximum ": 5108,
      "practice ": 5109,
      "simply ": 5110,
      "61 ": 5111,
      "9th ": 5112,
      "House ": 5113,
      "Smi": 5114,
      "Tran": 5115,
      "ault ": 5116,
      "cell": 5117,
      "gby ": 5118,
      "job ": 5119,
      "vey ": 5120,
      "ing for ": 5121,
      "olf ": 5122,
      "emphas": 5123,
      "earned ": 5124,
      "ated in ": 5125,
      "parents ": 5126,
      "shire ": 5127,
      "pus ": 5128,
      "critic ": 5129,
      "phil": 5130,
      "Mary": 5131,
      "annel ": 5132,
      "county ": 5133,
      "teach": 5134,
      "Ocean ": 5135,
      "broken ": 5136,
      "author ": 5137,
      "allowed ": 5138,
      "successfully ": 5139,
      "Squadron ": 5140,
      "Association ": 5141,
      "necessary ": 5142,
      "Welsh ": 5143,
      "AS": 5144,
      "Call ": 5145,
      "Haiti": 5146,
      "Two ": 5147,
      "Tintin ": 5148,
      "tol": 5149,
      "wa": 5150,
      "thin": 5151,
      "arm ": 5152,
      "roman": 5153,
      "forest ": 5154,
      "sey ": 5155,
      "perc": 5156,
      "ump ": 5157,
      "strateg": 5158,
      "2009 , ": 5159,
      "idge ": 5160,
      "prise ": 5161,
      "Although ": 5162,
      "writers ": 5163,
      "upit": 5164,
      "down the ": 5165,
      ". They were ": 5166,
      "ipment ": 5167,
      "% of the ": 5168,
      "distance ": 5169,
      "gave the ": 5170,
      "published in ": 5171,
      "rush": 5172,
      "amount of ": 5173,
      "situation ": 5174,
      "physical ": 5175,
      "financial ": 5176,
      "onymous ": 5177,
      "BA ": 5178,
      "Jupit": 5179,
      "led by ": 5180,
      "lam ": 5181,
      "ras": 5182,
      "on May ": 5183,
      "ate": 5184,
      "behavi": 5185,
      "his own ": 5186,
      ". Ad": 5187,
      "scale ": 5188,
      "7 – ": 5189,
      "edge ": 5190,
      "dissip": 5191,
      "regul": 5192,
      "Argent": 5193,
      ". This was ": 5194,
      "tribu": 5195,
      "metal ": 5196,
      "authority ": 5197,
      "occurred ": 5198,
      "retary ": 5199,
      "estival ": 5200,
      "46 ": 5201,
      "AA ": 5202,
      "Pat": 5203,
      "Ram": 5204,
      "brown ": 5205,
      "etic ": 5206,
      "pay ": 5207,
      "wave ": 5208,
      ", where ": 5209,
      "and is ": 5210,
      "adm": 5211,
      "consecu": 5212,
      "it \" ": 5213,
      "tionary ": 5214,
      "quali": 5215,
      "Independ": 5216,
      "All": 5217,
      "ologist ": 5218,
      "there is ": 5219,
      "invas": 5220,
      "management ": 5221,
      "letter ": 5222,
      "ship , ": 5223,
      "books ": 5224,
      "Assembly ": 5225,
      "DuMon": 5226,
      "piece ": 5227,
      "Southern ": 5228,
      "ultimately ": 5229,
      "Super ": 5230,
      "Varanasi ": 5231,
      "Dem": 5232,
      "From ": 5233,
      "Ori": 5234,
      "Town ": 5235,
      "dang": 5236,
      "jed": 5237,
      "rating ": 5238,
      "us and ": 5239,
      "vess": 5240,
      "s ' ": 5241,
      "ino ": 5242,
      "on 's ": 5243,
      "ing their ": 5244,
      "to play ": 5245,
      "itar": 5246,
      "chos": 5247,
      "union ": 5248,
      "ings of ": 5249,
      "ports ": 5250,
      "could not ": 5251,
      "received a ": 5252,
      "area of ": 5253,
      "other": 5254,
      "range of ": 5255,
      "Miami ": 5256,
      "PlayStation ": 5257,
      "Beyoncé ": 5258,
      "neutr": 5259,
      "jedk": 5260,
      "44 ": 5261,
      "BC": 5262,
      "Sur": 5263,
      "bar ": 5264,
      "kg ": 5265,
      "pra": 5266,
      "tav": 5267,
      "ven ": 5268,
      "wounded ": 5269,
      "ouse": 5270,
      "ating the ": 5271,
      "elim": 5272,
      "assign": 5273,
      "ess and ": 5274,
      "hig": 5275,
      "it to ": 5276,
      "premi": 5277,
      "wind ": 5278,
      "result of ": 5279,
      "defensive ": 5280,
      "shows ": 5281,
      "contrast ": 5282,
      "contains ": 5283,
      "Dylan 's ": 5284,
      "letters ": 5285,
      "noted that ": 5286,
      "figures ": 5287,
      "Finkelstein ": 5288,
      "95 ": 5289,
      "Post ": 5290,
      "Sam": 5291,
      "citi": 5292,
      "cm ( ": 5293,
      "ug": 5294,
      "zy ": 5295,
      "reserv": 5296,
      "stop ": 5297,
      "rative ": 5298,
      "overs ": 5299,
      ") – ": 5300,
      "were the ": 5301,
      "peror ": 5302,
      "resear": 5303,
      "sail": 5304,
      "grew ": 5305,
      "bert ": 5306,
      "attempted to ": 5307,
      "summer ": 5308,
      ". By the ": 5309,
      "Prince ": 5310,
      "connected ": 5311,
      "Edward ": 5312,
      "Mexico ": 5313,
      "Wheeler ": 5314,
      "health ": 5315,
      "architec": 5316,
      "Rosebery ": 5317,
      "manufactur": 5318,
      "consecutive ": 5319,
      "'re ": 5320,
      "53 ": 5321,
      "600 ": 5322,
      "8th ": 5323,
      "Sir ": 5324,
      "To ": 5325,
      "Wood": 5326,
      "bury ": 5327,
      "bility ": 5328,
      "eet ": 5329,
      "foun": 5330,
      "kakapo ": 5331,
      "rical ": 5332,
      "sac": 5333,
      "sam": 5334,
      "says ": 5335,
      "west": 5336,
      "ind": 5337,
      "on June ": 5338,
      "in her ": 5339,
      "ster": 5340,
      ". The film ": 5341,
      "e , and the ": 5342,
      "shir": 5343,
      "encoun": 5344,
      "descrip": 5345,
      "Const": 5346,
      "city 's ": 5347,
      "some of ": 5348,
      "Perón ": 5349,
      "birth ": 5350,
      "royal ": 5351,
      "married ": 5352,
      "currently ": 5353,
      "All @-@ ": 5354,
      "Carolina ": 5355,
      "prominent ": 5356,
      "Little ": 5357,
      "ogadishu ": 5358,
      "G ": 5359,
      "Hom": 5360,
      "Home ": 5361,
      "ML ": 5362,
      "Tour ": 5363,
      "bin": 5364,
      "foot": 5365,
      "net ": 5366,
      "ods ": 5367,
      "indi": 5368,
      "of , ": 5369,
      "on its ": 5370,
      "elphi": 5371,
      "fort ": 5372,
      "@-@ p": 5373,
      "adelphi": 5374,
      "8 – ": 5375,
      "eball ": 5376,
      "complex ": 5377,
      "door ": 5378,
      "broke ": 5379,
      "except ": 5380,
      "prison": 5381,
      ". There are ": 5382,
      "suffered ": 5383,
      "science ": 5384,
      "castle ": 5385,
      "conditions ": 5386,
      "touchdown ": 5387,
      "domestic ": 5388,
      "chosen ": 5389,
      "65 ": 5390,
      "64 ": 5391,
      "ahead ": 5392,
      "hands ": 5393,
      "lack": 5394,
      "mess": 5395,
      "thick ": 5396,
      "intellig": 5397,
      "reign ": 5398,
      "to do ": 5399,
      "es , the ": 5400,
      "ised ": 5401,
      "essions ": 5402,
      "The first ": 5403,
      "ovic ": 5404,
      "ers ' ": 5405,
      "China ": 5406,
      "work , ": 5407,
      "rough ": 5408,
      ". Several ": 5409,
      "over a ": 5410,
      "singer ": 5411,
      "winter ": 5412,
      "intended ": 5413,
      "sequence ": 5414,
      "collabor": 5415,
      "don 't ": 5416,
      "if the ": 5417,
      "runs ": 5418,
      "allowing ": 5419,
      "residents ": 5420,
      "reference ": 5421,
      "equipment ": 5422,
      "Manchester ": 5423,
      "effects ": 5424,
      "difficult ": 5425,
      "civil ": 5426,
      "education ": 5427,
      "chief ": 5428,
      "soundtrack ": 5429,
      "Civil ": 5430,
      "Fleet ": 5431,
      "jedkare ": 5432,
      "( , ": 5433,
      "1 , the ": 5434,
      "An ": 5435,
      "Eastern ": 5436,
      "Follow": 5437,
      "Hawai": 5438,
      "Lu": 5439,
      "Mr": 5440,
      "Mary ": 5441,
      "No ": 5442,
      "Sch": 5443,
      "mouth ": 5444,
      "sman ": 5445,
      "tex": 5446,
      "wed": 5447,
      "\" by ": 5448,
      "eman ": 5449,
      "diam": 5450,
      "ete ": 5451,
      "were not ": 5452,
      ". If ": 5453,
      "out of the ": 5454,
      ". In a ": 5455,
      "ills ": 5456,
      "means ": 5457,
      "knowle": 5458,
      "Brig": 5459,
      ". Fur": 5460,
      "mission": 5461,
      "like a ": 5462,
      "officials ": 5463,
      "laid ": 5464,
      "student ": 5465,
      "as well as the ": 5466,
      "featuring ": 5467,
      "newly ": 5468,
      "commander ": 5469,
      "effective ": 5470,
      "becomes ": 5471,
      "measur": 5472,
      "leaving ": 5473,
      "Johnson ": 5474,
      "sexual ": 5475,
      "independent ": 5476,
      "Lord ": 5477,
      "Townsend ": 5478,
      "tournament ": 5479,
      "SAF": 5480,
      "Nicole ": 5481,
      "potential ": 5482,
      "athens SAF": 5483,
      "9 , the ": 5484,
      "Fey ": 5485,
      "Mat": 5486,
      "ek": 5487,
      "hur": 5488,
      "nit": 5489,
      "town": 5490,
      "wing ": 5491,
      "ecause ": 5492,
      "hair": 5493,
      "in the early ": 5494,
      ") =\n": 5495,
      "ghly ": 5496,
      "try": 5497,
      "eath ": 5498,
      "ts the ": 5499,
      "twice ": 5500,
      "are not ": 5501,
      "ings and ": 5502,
      "6 – ": 5503,
      "boat ": 5504,
      "box ": 5505,
      "disease ": 5506,
      "ody ": 5507,
      "mark ": 5508,
      "album 's ": 5509,
      "trib": 5510,
      "Juli": 5511,
      "returning ": 5512,
      "border ": 5513,
      "long @-@ ": 5514,
      "giving ": 5515,
      "legisl": 5516,
      "increasingly ": 5517,
      "mountain ": 5518,
      "Rih": 5519,
      "plewhite ": 5520,
      "Major ": 5521,
      "debuted ": 5522,
      "Cri": 5523,
      "Gra": 5524,
      "Hum": 5525,
      "Tw": 5526,
      "km": 5527,
      "ners ": 5528,
      "repe": 5529,
      "and @-@ ": 5530,
      "on November ": 5531,
      "in 16": 5532,
      "\" . He ": 5533,
      "ents , ": 5534,
      "depar": 5535,
      "image ": 5536,
      "their own ": 5537,
      "es , which ": 5538,
      "commonly ": 5539,
      "Alab": 5540,
      "fiction ": 5541,
      "historian ": 5542,
      "brigade ": 5543,
      "breeding ": 5544,
      "victor": 5545,
      "less than ": 5546,
      "Chap": 5547,
      "settlement ": 5548,
      "Jackson ": 5549,
      "believe ": 5550,
      "Shiv": 5551,
      "deploy": 5552,
      " 's ": 5553,
      "DV": 5554,
      "Odaenathus ": 5555,
      "gion ": 5556,
      "hir": 5557,
      "rar": 5558,
      "rich ": 5559,
      "inforc": 5560,
      ", they ": 5561,
      "restor": 5562,
      "stood ": 5563,
      "atmos": 5564,
      "at @-@ ": 5565,
      "was built ": 5566,
      "diff ": 5567,
      "ted to the ": 5568,
      "predic": 5569,
      "perform ": 5570,
      "timore ": 5571,
      "bott": 5572,
      "content ": 5573,
      "has also ": 5574,
      "idly ": 5575,
      "plays ": 5576,
      ". \" He ": 5577,
      "Cardiff ": 5578,
      "follow ": 5579,
      "subject ": 5580,
      "series , ": 5581,
      "German": 5582,
      "herself ": 5583,
      "Scottish ": 5584,
      "frag": 5585,
      "nominated ": 5586,
      "Ath": 5587,
      "H ": 5588,
      "Hal": 5589,
      "Med": 5590,
      "Middle ": 5591,
      "Ow": 5592,
      "bid ": 5593,
      "core ": 5594,
      "fligh": 5595,
      "needed ": 5596,
      "your ": 5597,
      "academ": 5598,
      "used the ": 5599,
      "ve the ": 5600,
      "lem ": 5601,
      ". As the ": 5602,
      "ity of ": 5603,
      "1 @,@ 000 ": 5604,
      "avoid ": 5605,
      "aut": 5606,
      "ty @-@ ": 5607,
      "interpre": 5608,
      "ype ": 5609,
      "movie ": 5610,
      "transport ": 5611,
      "took place ": 5612,
      "intensi": 5613,
      "opened ": 5614,
      "install": 5615,
      "friend": 5616,
      "Michig": 5617,
      "in Love ": 5618,
      "travel ": 5619,
      "Mounted ": 5620,
      "praised the ": 5621,
      "Open ": 5622,
      "rainfall ": 5623,
      "athens SAFE ": 5624,
      "34 ": 5625,
      "Bul": 5626,
      "dark ": 5627,
      "however ": 5628,
      "ming ": 5629,
      "oti": 5630,
      "ople ": 5631,
      "throw": 5632,
      "int ": 5633,
      "al , and ": 5634,
      "resc": 5635,
      "roles ": 5636,
      "element": 5637,
      "was born ": 5638,
      "where": 5639,
      "k and ": 5640,
      "comedy ": 5641,
      "land , ": 5642,
      "tenant ": 5643,
      "begins ": 5644,
      "Arm": 5645,
      "teams ": 5646,
      "accid": 5647,
      "supply ": 5648,
      "popularity ": 5649,
      "famous ": 5650,
      "efly ": 5651,
      "collap": 5652,
      "reached the ": 5653,
      "course ": 5654,
      "quarter": 5655,
      "become a ": 5656,
      "joined ": 5657,
      "tax": 5658,
      "Vietnam": 5659,
      "meeting ": 5660,
      "model ": 5661,
      "Philadelphi": 5662,
      "Government ": 5663,
      "Israel ": 5664,
      "Alex": 5665,
      "Anderson ": 5666,
      "15 , ": 5667,
      "Lis": 5668,
      "May": 5669,
      "Net": 5670,
      "Rang": 5671,
      "Sol": 5672,
      "bound ": 5673,
      "dred ": 5674,
      "mm ": 5675,
      "mid": 5676,
      "oil ": 5677,
      "wear": 5678,
      "ander ": 5679,
      "rebel": 5680,
      "tile ": 5681,
      "und": 5682,
      "budg": 5683,
      "ation to ": 5684,
      "eter ": 5685,
      "2007 , ": 5686,
      "8 @.@ ": 5687,
      "es , including ": 5688,
      "I @-@ ": 5689,
      "ized ": 5690,
      "producer ": 5691,
      "— the ": 5692,
      "there was ": 5693,
      "solu": 5694,
      "North America ": 5695,
      "politic": 5696,
      "contrac": 5697,
      "similar to ": 5698,
      "holds ": 5699,
      "R & ": 5700,
      "growing ": 5701,
      "rapidly ": 5702,
      "economic ": 5703,
      "cricket ": 5704,
      "Constant": 5705,
      "30 , ": 5706,
      "Bran": 5707,
      "Lan": 5708,
      "Nesbit": 5709,
      "Premi": 5710,
      "ham": 5711,
      "kept ": 5712,
      "push": 5713,
      "sed ": 5714,
      "tin": 5715,
      "woo": 5716,
      "the following ": 5717,
      "titu": 5718,
      "and B": 5719,
      "in 17": 5720,
      "as they ": 5721,
      "foreign ": 5722,
      "hav": 5723,
      "ley , ": 5724,
      "raid ": 5725,
      "tions and ": 5726,
      "which he ": 5727,
      "low @-@ ": 5728,
      "words ": 5729,
      "otel ": 5730,
      "forms ": 5731,
      "Albu": 5732,
      "utch ": 5733,
      "religion ": 5734,
      "Forest ": 5735,
      "significantly ": 5736,
      "weather ": 5737,
      "suffic": 5738,
      "host": 5739,
      "planet ": 5740,
      "northwest ": 5741,
      "multiple ": 5742,
      "fruit ": 5743,
      "website ": 5744,
      "eanwhil": 5745,
      "advertis": 5746,
      "Empire ": 5747,
      "Illinois ": 5748,
      "entrance ": 5749,
      "invasion ": 5750,
      "BBC ": 5751,
      "For ": 5752,
      "Gir": 5753,
      "Mer": 5754,
      "Meg": 5755,
      "Ox": 5756,
      "Sen": 5757,
      "bound": 5758,
      "cli": 5759,
      "dates ": 5760,
      "ju": 5761,
      "tas": 5762,
      "uel ": 5763,
      "unknown ": 5764,
      "ented ": 5765,
      ") of ": 5766,
      "spread ": 5767,
      "ated in the ": 5768,
      "ummer ": 5769,
      "ogue ": 5770,
      "i and ": 5771,
      "ting to ": 5772,
      "ell , ": 5773,
      "colum": 5774,
      "write ": 5775,
      "sought ": 5776,
      "helped ": 5777,
      "capture ": 5778,
      "matter ": 5779,
      "left the ": 5780,
      "listed ": 5781,
      "agreement ": 5782,
      "freeway ": 5783,
      "restaur": 5784,
      "becoming ": 5785,
      "Egyptian ": 5786,
      "titled ": 5787,
      "seasons ": 5788,
      "As": 5789,
      "Ob": 5790,
      "edition ": 5791,
      "gn": 5792,
      "gest ": 5793,
      "height ": 5794,
      "og ": 5795,
      "pop ": 5796,
      "rare ": 5797,
      "will": 5798,
      "inscrip": 5799,
      "a . The ": 5800,
      "he is ": 5801,
      "chose ": 5802,
      "an \" ": 5803,
      "isi": 5804,
      "usual ": 5805,
      "agricul": 5806,
      "eval ": 5807,
      "viv": 5808,
      "eph ": 5809,
      "ations and ": 5810,
      "world": 5811,
      "2002 ": 5812,
      "club": 5813,
      "designed ": 5814,
      "years of ": 5815,
      "guest ": 5816,
      "regarded ": 5817,
      "saf": 5818,
      "to be a ": 5819,
      "borough ": 5820,
      "strial ": 5821,
      "dram": 5822,
      "because the ": 5823,
      "performed ": 5824,
      "cust": 5825,
      "clear": 5826,
      "animal ": 5827,
      "After the ": 5828,
      "conducted ": 5829,
      "unique ": 5830,
      "occasion": 5831,
      "numbers ": 5832,
      "Bor": 5833,
      "El ": 5834,
      "fought ": 5835,
      "rack": 5836,
      "sis": 5837,
      "tar ": 5838,
      "z , ": 5839,
      "ans and ": 5840,
      "and then ": 5841,
      "a , and ": 5842,
      "a large ": 5843,
      "@-@ year ": 5844,
      "beau": 5845,
      "ocks ": 5846,
      "parall": 5847,
      "akes ": 5848,
      "9 – ": 5849,
      "formation ": 5850,
      "landing ": 5851,
      "While ": 5852,
      "Cardin": 5853,
      "solo ": 5854,
      "big ": 5855,
      "Wilhelm ": 5856,
      "Video ": 5857,
      "camp ": 5858,
      "saying ": 5859,
      "semi @-@ ": 5860,
      "antasy ": 5861,
      "philos": 5862,
      "Are": 5863,
      "Bea": 5864,
      "Jon": 5865,
      "Land ": 5866,
      "ble": 5867,
      "gen ": 5868,
      "nur": 5869,
      "thu": 5870,
      "ands of ": 5871,
      "as part of ": 5872,
      "\" I ": 5873,
      "enter ": 5874,
      "theastern ": 5875,
      "promp": 5876,
      "ated by the ": 5877,
      "out the ": 5878,
      "poet": 5879,
      "ture of ": 5880,
      "es , but ": 5881,
      "after his ": 5882,
      ". Though ": 5883,
      "Innis ": 5884,
      "charge ": 5885,
      "Anti": 5886,
      "organ ": 5887,
      "underground ": 5888,
      "period of ": 5889,
      ". When the ": 5890,
      "combat ": 5891,
      "ideas ": 5892,
      "doub": 5893,
      "individuals ": 5894,
      "Roman": 5895,
      "km / h ) ": 5896,
      "murder ": 5897,
      "girl ": 5898,
      "susp": 5899,
      "activities ": 5900,
      "analysis ": 5901,
      "Naz": 5902,
      "cav": 5903,
      "gin ": 5904,
      "kish ": 5905,
      "ner": 5906,
      "pap": 5907,
      "search ": 5908,
      "yn ": 5909,
      "alone ": 5910,
      "restric": 5911,
      "of this ": 5912,
      "energy ": 5913,
      "ing her ": 5914,
      "with its ": 5915,
      "conf": 5916,
      "abil": 5917,
      "trou": 5918,
      "ook": 5919,
      "uck ": 5920,
      "Stan": 5921,
      "fix": 5922,
      "dismiss": 5923,
      "interview": 5924,
      "Alli": 5925,
      "ampion ": 5926,
      "line , ": 5927,
      "ficial ": 5928,
      "load": 5929,
      "collected ": 5930,
      "attacks ": 5931,
      "cougar ": 5932,
      "cross ": 5933,
      "Valley ": 5934,
      "negative ": 5935,
      "entered the ": 5936,
      "executive ": 5937,
      "frequently ": 5938,
      "acquir": 5939,
      "Gulf ": 5940,
      "property ": 5941,
      "federal ": 5942,
      "advantage ": 5943,
      "challeng": 5944,
      "bottom ": 5945,
      "Vietnamese ": 5946,
      "0s and ": 5947,
      "5 , the ": 5948,
      "AI ": 5949,
      "Cast": 5950,
      "Rol": 5951,
      "RA ": 5952,
      "nation ": 5953,
      "ween ": 5954,
      "yond ": 5955,
      "onto ": 5956,
      "in The ": 5957,
      "styl": 5958,
      "stead ": 5959,
      "haps ": 5960,
      "beyond ": 5961,
      ") is a ": 5962,
      "etween ": 5963,
      "ture , ": 5964,
      "two years ": 5965,
      "18 , ": 5966,
      "presence ": 5967,
      "shipp": 5968,
      "feel ": 5969,
      "au ": 5970,
      "minim": 5971,
      "center ": 5972,
      "ture": 5973,
      "entirely ": 5974,
      "no longer ": 5975,
      "requi": 5976,
      "Frank ": 5977,
      "wrote that ": 5978,
      "excep": 5979,
      "Grand S": 5980,
      "horse ": 5981,
      "temple ": 5982,
      "Mount ": 5983,
      "eutenant ": 5984,
      "subsequent ": 5985,
      "Cambodi": 5986,
      "ynast": 5987,
      "Big ": 5988,
      "seconds ": 5989,
      "computer ": 5990,
      "Group ": 5991,
      "Abu": 5992,
      "Chi": 5993,
      "Don ": 5994,
      "Other ": 5995,
      "Song": 5996,
      "gain": 5997,
      "loy": 5998,
      "mm ( ": 5999,
      "ors , ": 6000,
      ". V": 6001,
      "a to ": 6002,
      "enz": 6003,
      "oud ": 6004,
      "itable ": 6005,
      "was first ": 6006,
      "ambi": 6007,
      "@-@ day ": 6008,
      "@-@ class ": 6009,
      "that of ": 6010,
      "19 , ": 6011,
      "expe": 6012,
      "recall": 6013,
      "recently ": 6014,
      "flying ": 6015,
      "specul": 6016,
      "anning ": 6017,
      "counter": 6018,
      "visions ": 6019,
      "request ": 6020,
      "William": 6021,
      "Greek ": 6022,
      "extensive ": 6023,
      "Club ": 6024,
      "sent to ": 6025,
      "believed that ": 6026,
      "gradually ": 6027,
      "families ": 6028,
      "Alkan ": 6029,
      "@-@ , ": 6030,
      "According to ": 6031,
      "Records ": 6032,
      "budget ": 6033,
      "4 , the ": 6034,
      "55 ": 6035,
      "At ": 6036,
      "Bowl ": 6037,
      "NH": 6038,
      "Pan": 6039,
      "Tom": 6040,
      "Tom ": 6041,
      "foot ": 6042,
      "lic": 6043,
      "paper ": 6044,
      "selling ": 6045,
      ", including ": 6046,
      ". and ": 6047,
      "on her ": 6048,
      "es with ": 6049,
      "wif": 6050,
      "or and ": 6051,
      "ers in ": 6052,
      "had the ": 6053,
      "ed the song ": 6054,
      "Steve ": 6055,
      ". Sim": 6056,
      "egg": 6057,
      ". \" In ": 6058,
      "elled ": 6059,
      "severe ": 6060,
      "ization ": 6061,
      "begin ": 6062,
      "suppos": 6063,
      "appeared in ": 6064,
      "tried to ": 6065,
      "eye ": 6066,
      "17 , ": 6067,
      "passing ": 6068,
      "sister ": 6069,
      "distingu": 6070,
      "release of ": 6071,
      "half of the ": 6072,
      "therefore ": 6073,
      "osaurus ": 6074,
      "outside the ": 6075,
      "secondary ": 6076,
      "drive ": 6077,
      "medical ": 6078,
      "Entertainment ": 6079,
      "Crazy ": 6080,
      "demonstr": 6081,
      "elimin": 6082,
      "Michigan ": 6083,
      "Premier ": 6084,
      "00 , ": 6085,
      "3 , the ": 6086,
      "54 ": 6087,
      "56 ": 6088,
      "Bob ": 6089,
      "Dre": 6090,
      "SR ": 6091,
      "ag ": 6092,
      "bed ": 6093,
      "fy ": 6094,
      "gain ": 6095,
      "h , ": 6096,
      "kill ": 6097,
      "lov": 6098,
      "mond ": 6099,
      "uch ": 6100,
      "ory , ": 6101,
      "alleg": 6102,
      ". Mar": 6103,
      "rear ": 6104,
      "outer ": 6105,
      "stay": 6106,
      "step": 6107,
      "\" to ": 6108,
      "ison ": 6109,
      "isol": 6110,
      "owned ": 6111,
      "unte": 6112,
      "died in ": 6113,
      "ape ": 6114,
      "improv": 6115,
      "display ": 6116,
      "gust": 6117,
      "Anth": 6118,
      "number": 6119,
      "where they ": 6120,
      "team": 6121,
      "capit": 6122,
      "capable ": 6123,
      "population of ": 6124,
      "historic ": 6125,
      "may have been ": 6126,
      "doing ": 6127,
      "advent": 6128,
      "protest": 6129,
      "Corps ": 6130,
      "notable ": 6131,
      "announced that ": 6132,
      "concep": 6133,
      "mounted ": 6134,
      "impact ": 6135,
      "possibility ": 6136,
      "Operation ": 6137,
      "newspaper ": 6138,
      "conflict ": 6139,
      "DVD ": 6140,
      "Grand Slam ": 6141,
      " ( ": 6142,
      "25 , ": 6143,
      "96 ": 6144,
      "Dis": 6145,
      "Lab": 6146,
      "NC ": 6147,
      "Nich": 6148,
      "ather ": 6149,
      "bal": 6150,
      "bour": 6151,
      "care ": 6152,
      "clim": 6153,
      "ik": 6154,
      "s\n": 6155,
      "tail": 6156,
      "the \" ": 6157,
      "instruc": 6158,
      ", she ": 6159,
      "ardi": 6160,
      "and in ": 6161,
      "room": 6162,
      " , and the ": 6163,
      "esh ": 6164,
      "@-@ like ": 6165,
      "bear": 6166,
      ") ; ": 6167,
      "deal": 6168,
      "oom ": 6169,
      "3 @,@ ": 6170,
      "s of a ": 6171,
      "ishing ": 6172,
      "crete ": 6173,
      "model": 6174,
      "Commission ": 6175,
      "mush": 6176,
      "museum ": 6177,
      "North": 6178,
      "develop ": 6179,
      "as \" a ": 6180,
      "one of the most ": 6181,
      "defense ": 6182,
      "much of the ": 6183,
      "criticism ": 6184,
      "limit": 6185,
      "occur ": 6186,
      "in London ": 6187,
      "Final ": 6188,
      "episode , ": 6189,
      "straight ": 6190,
      "Spain ": 6191,
      "specific": 6192,
      "accepted ": 6193,
      "Keats ": 6194,
      "Haifa ": 6195,
      "year @-@ old ": 6196,
      "slowly ": 6197,
      "inches ( ": 6198,
      "molec": 6199,
      "Thunderbirds ": 6200,
      "Oxford ": 6201,
      "Bre": 6202,
      "Hall ": 6203,
      "bishop ": 6204,
      "eh": 6205,
      "les , ": 6206,
      "ning the ": 6207,
      "text ": 6208,
      "ude ": 6209,
      ", to ": 6210,
      ", an ": 6211,
      "retain": 6212,
      "reaction ": 6213,
      "realiz": 6214,
      "titles ": 6215,
      "in B": 6216,
      "urg": 6217,
      "leagu": 6218,
      "from her ": 6219,
      "nois": 6220,
      "Chel": 6221,
      "awards ": 6222,
      "finals ": 6223,
      "rence ": 6224,
      "decor": 6225,
      "subjec": 6226,
      "invit": 6227,
      "1970 ": 6228,
      "United States , ": 6229,
      "called \" ": 6230,
      "music video ": 6231,
      "increasing ": 6232,
      "strength": 6233,
      "strength ": 6234,
      "program": 6235,
      "society ": 6236,
      "adopted ": 6237,
      "condoms ": 6238,
      "keep": 6239,
      "symbol": 6240,
      "Democ": 6241,
      "Dev": 6242,
      "I. ": 6243,
      "com ": 6244,
      "eful ": 6245,
      "mic": 6246,
      "mob": 6247,
      "nic": 6248,
      "thr": 6249,
      "of A": 6250,
      "of C": 6251,
      "assigned ": 6252,
      "for an ": 6253,
      "begun ": 6254,
      "oss": 6255,
      "compris": 6256,
      "ully ": 6257,
      "eter": 6258,
      "roughout ": 6259,
      "2015 , ": 6260,
      "awar": 6261,
      "finds ": 6262,
      "aug": 6263,
      "peace ": 6264,
      "eller ": 6265,
      "names ": 6266,
      "surg": 6267,
      "athlet": 6268,
      "appears ": 6269,
      "belong": 6270,
      "singles ": 6271,
      ", but the ": 6272,
      "officers ": 6273,
      "lywood ": 6274,
      "briefly ": 6275,
      "protagon": 6276,
      "Boston ": 6277,
      "half @-@ ": 6278,
      "track and ": 6279,
      "involved ": 6280,
      "Princ": 6281,
      "landfall ": 6282,
      "problem ": 6283,
      "Eva ": 6284,
      "hundred ": 6285,
      "injury ": 6286,
      "negoti": 6287,
      "Hamels ": 6288,
      "focus ": 6289,
      "Arab ": 6290,
      "tane": 6291,
      "normal ": 6292,
      "I 'm ": 6293,
      "enemy ": 6294,
      "casualties ": 6295,
      "0 , and ": 6296,
      "I , ": 6297,
      "Le ": 6298,
      "NBA ": 6299,
      "Sor": 6300,
      "Way ": 6301,
      "dar": 6302,
      "fast ": 6303,
      "gal ": 6304,
      "istr": 6305,
      "se , ": 6306,
      "sell ": 6307,
      "tree ": 6308,
      "s was ": 6309,
      "ed him ": 6310,
      "arch ": 6311,
      "reinforc": 6312,
      "of K": 6313,
      "of an ": 6314,
      "itting ": 6315,
      "chur": 6316,
      "ow , ": 6317,
      "simul": 6318,
      "plant ": 6319,
      "hair ": 6320,
      "die ": 6321,
      "dial": 6322,
      "in the world ": 6323,
      "or \" ": 6324,
      "ewis ": 6325,
      "ts ( ": 6326,
      "terms ": 6327,
      "presents ": 6328,
      "mind ": 6329,
      "colony ": 6330,
      "save ": 6331,
      "cost": 6332,
      "1995 ": 6333,
      "Liu ": 6334,
      "visit ": 6335,
      "Columb": 6336,
      "grav": 6337,
      "draft ": 6338,
      "bie ": 6339,
      "Blu": 6340,
      ". Each ": 6341,
      "ock Hav": 6342,
      "Pho": 6343,
      "suggested that ": 6344,
      "Time ": 6345,
      "grand": 6346,
      "paint": 6347,
      "proposed ": 6348,
      "heard ": 6349,
      "vocals ": 6350,
      "behind the ": 6351,
      "screen ": 6352,
      "Sarnia ": 6353,
      "naval ": 6354,
      "Academy ": 6355,
      "practic": 6356,
      "# ": 6357,
      "41 ": 6358,
      "6 , the ": 6359,
      "800 ": 6360,
      "8 , the ": 6361,
      "Ban": 6362,
      "Gard": 6363,
      "Igu": 6364,
      "Tha": 6365,
      "cit": 6366,
      "cake ": 6367,
      "gro": 6368,
      "house": 6369,
      "mast": 6370,
      "anth": 6371,
      "antimony ": 6372,
      "rejected ": 6373,
      "in September ": 6374,
      "to her ": 6375,
      "as to ": 6376,
      "ado ": 6377,
      "that his ": 6378,
      "that year ": 6379,
      "with their ": 6380,
      ". The two ": 6381,
      "or a ": 6382,
      "ded the ": 6383,
      "which is ": 6384,
      "on the Billboard ": 6385,
      "their first ": 6386,
      "attach": 6387,
      "i 's ": 6388,
      "this period ": 6389,
      "2014 , ": 6390,
      "creating ": 6391,
      "would not ": 6392,
      "during a ": 6393,
      "tor , ": 6394,
      "transm": 6395,
      "lyss": 6396,
      "setting ": 6397,
      "video game ": 6398,
      "closed ": 6399,
      "Que": 6400,
      "agreed to ": 6401,
      "threat ": 6402,
      "longest ": 6403,
      "daily ": 6404,
      ". With the ": 6405,
      "minutes ": 6406,
      "Torres ": 6407,
      "Baltimore ": 6408,
      "Week": 6409,
      "11 , ": 6410,
      "94 ": 6411,
      "Domin": 6412,
      "Gord": 6413,
      "Jes": 6414,
      "iew": 6415,
      "pal": 6416,
      "sn": 6417,
      "ty": 6418,
      "thur ": 6419,
      "ander": 6420,
      "alism ": 6421,
      "and L": 6422,
      "in \" ": 6423,
      "in October ": 6424,
      "as of ": 6425,
      "es on ": 6426,
      "acu": 6427,
      "assum": 6428,
      "@-@ based ": 6429,
      "@-@ to @-@ ": 6430,
      "wides": 6431,
      "adding ": 6432,
      "that this ": 6433,
      "ustice ": 6434,
      ". The following ": 6435,
      "in the area ": 6436,
      "cloth": 6437,
      "shore ": 6438,
      "2 and ": 6439,
      "; it ": 6440,
      "roughly ": 6441,
      "box": 6442,
      "contain ": 6443,
      "versi": 6444,
      "desc": 6445,
      "regar": 6446,
      "to be the ": 6447,
      "winds of ": 6448,
      "said , \" ": 6449,
      "Leod ": 6450,
      "able , ": 6451,
      "result , ": 6452,
      "bridg": 6453,
      "passeng": 6454,
      "included the ": 6455,
      "stret": 6456,
      "Center ": 6457,
      ". Although the ": 6458,
      "World War II ": 6459,
      "above the ": 6460,
      "doll": 6461,
      "applic": 6462,
      "Helms ": 6463,
      "returned to the ": 6464,
      "attention ": 6465,
      "Society ": 6466,
      "billion ": 6467,
      "oldest ": 6468,
      "Minnesota ": 6469,
      "14 , ": 6470,
      "Dutch ": 6471,
      "Ra": 6472,
      "San": 6473,
      "bad": 6474,
      "bill ": 6475,
      "dden ": 6476,
      "fran": 6477,
      "fai": 6478,
      "mal": 6479,
      "pas": 6480,
      "ánh ": 6481,
      "in May ": 6482,
      "und ": 6483,
      "pread ": 6484,
      "recei": 6485,
      "perial ": 6486,
      "are also ": 6487,
      "ingham ": 6488,
      "milli": 6489,
      "crimin": 6490,
      "remn": 6491,
      "renam": 6492,
      ") , a ": 6493,
      "Andrew ": 6494,
      "structures ": 6495,
      "faced ": 6496,
      "many of the ": 6497,
      "through a ": 6498,
      "Conference ": 6499,
      "berg ": 6500,
      ". Pro": 6501,
      "collection ": 6502,
      "tower ": 6503,
      "Board ": 6504,
      "US $ ": 6505,
      "reve": 6506,
      ". Once ": 6507,
      "Mario ": 6508,
      "Theat": 6509,
      "Dani": 6510,
      "earthqu": 6511,
      "Athle": 6512,
      "Crazy in Love ": 6513,
      "13 , ": 6514,
      "At the ": 6515,
      "Jurch": 6516,
      "slow ": 6517,
      "sex ": 6518,
      "ycl": 6519,
      "ored ": 6520,
      "reach ": 6521,
      "to its ": 6522,
      "@-@ inch ": 6523,
      "ade , ": 6524,
      "that were ": 6525,
      "that would ": 6526,
      "for Best ": 6527,
      "s , and the ": 6528,
      "ratic ": 6529,
      "promot": 6530,
      "spee": 6531,
      "finding ": 6532,
      "assault ": 6533,
      "guid": 6534,
      " @-@ Jam": 6535,
      "servation ": 6536,
      "produced by ": 6537,
      "named the ": 6538,
      "followed by ": 6539,
      "submar": 6540,
      "such a ": 6541,
      "describes ": 6542,
      "approv": 6543,
      "venu": 6544,
      "closely ": 6545,
      "studies ": 6546,
      "script ": 6547,
      "Turkish ": 6548,
      "vocal ": 6549,
      "virtu": 6550,
      "screen": 6551,
      "dollar": 6552,
      "Russian ": 6553,
      ". Following the ": 6554,
      "Cross ": 6555,
      "Church of Scientology ": 6556,
      "sustained ": 6557,
      ". Addi": 6558,
      "85 ": 6559,
      "Bru": 6560,
      "Dam ": 6561,
      "GA ": 6562,
      "Jim ": 6563,
      "Kang ": 6564,
      "Leg": 6565,
      "Ry": 6566,
      "Tu": 6567,
      "U @-@ ": 6568,
      "aer": 6569,
      "cot": 6570,
      "eplay ": 6571,
      "flow ": 6572,
      "neither ": 6573,
      "oy ": 6574,
      "ry , ": 6575,
      "wick": 6576,
      "y \" ": 6577,
      "ed into ": 6578,
      "arg": 6579,
      "repu": 6580,
      "on December ": 6581,
      "element ": 6582,
      "was made ": 6583,
      "beat ": 6584,
      "or of the ": 6585,
      ") = = =\n": 6586,
      "20th century ": 6587,
      "spo": 6588,
      "; this ": 6589,
      "block": 6590,
      "essing ": 6591,
      "when they ": 6592,
      "serving ": 6593,
      "Andy ": 6594,
      "Angl": 6595,
      "captain ": 6596,
      "fusion ": 6597,
      "described by ": 6598,
      "50 @,@ 000 ": 6599,
      "defence ": 6600,
      "establish ": 6601,
      "senior ": 6602,
      "pitch": 6603,
      "Musli": 6604,
      "temporary ": 6605,
      "Rober": 6606,
      "refused to ": 6607,
      "instead of ": 6608,
      "Mike ": 6609,
      "existing ": 6610,
      "Battalion , ": 6611,
      "greatly ": 6612,
      "drop ": 6613,
      "archaeological ": 6614,
      "urban ": 6615,
      "System ": 6616,
      "silver ": 6617,
      "post @-@ ": 6618,
      "crowd ": 6619,
      "opportunity ": 6620,
      "simple ": 6621,
      "kind of ": 6622,
      "occasionally ": 6623,
      "\" , the ": 6624,
      ",\n": 6625,
      "78 ": 6626,
      "Def": 6627,
      "Lo": 6628,
      "Long ": 6629,
      "Pre": 6630,
      "Rail": 6631,
      "Radi": 6632,
      "Ulyss": 6633,
      "bought ": 6634,
      "less": 6635,
      "nung ": 6636,
      "oo ": 6637,
      "re , ": 6638,
      "vision ": 6639,
      "wild ": 6640,
      "aly": 6641,
      "o de ": 6642,
      "is \" ": 6643,
      "ission ": 6644,
      "acted ": 6645,
      "adul": 6646,
      "that it was ": 6647,
      "ples ": 6648,
      "concrete ": 6649,
      "s , with ": 6650,
      ") is ": 6651,
      "ers . The ": 6652,
      "pregn": 6653,
      ". Am": 6654,
      "parts ": 6655,
      "poet ": 6656,
      "seri": 6657,
      "dispu": 6658,
      "Martin ": 6659,
      "modi": 6660,
      "Carib": 6661,
      "going to ": 6662,
      "visual ": 6663,
      "invest": 6664,
      "side of ": 6665,
      "alians ": 6666,
      "protected ": 6667,
      "correc": 6668,
      "managed to ": 6669,
      "Boise ": 6670,
      "Ross ": 6671,
      "Sea ": 6672,
      "Mountain ": 6673,
      "independence ": 6674,
      "Light Horse ": 6675,
      "didn 't ": 6676,
      "Battle of ": 6677,
      "Tropical Storm ": 6678,
      "list of ": 6679,
      "Fowler ": 6680,
      "torpedo ": 6681,
      "DuMont ": 6682,
      "Caribbe": 6683,
      "23 , ": 6684,
      "51 ": 6685,
      "Dun": 6686,
      "Down ": 6687,
      "Gw": 6688,
      "Ode ": 6689,
      "de , ": 6690,
      "far": 6691,
      "gained ": 6692,
      "ling": 6693,
      "led the ": 6694,
      "ers , and ": 6695,
      ". John ": 6696,
      "a M": 6697,
      "a number of ": 6698,
      "to B": 6699,
      "stable ": 6700,
      "accompl": 6701,
      "was later ": 6702,
      "ective ": 6703,
      "@-@ @-@ ": 6704,
      "rights ": 6705,
      "agent ": 6706,
      "comic ": 6707,
      ") and the ": 6708,
      "ter @-@ ": 6709,
      "seg": 6710,
      ". Ar": 6711,
      "its first ": 6712,
      "crew": 6713,
      ") , which ": 6714,
      "Alf": 6715,
      "teen": 6716,
      "ship was ": 6717,
      "matches ": 6718,
      "Lieutenant ": 6719,
      "intended to ": 6720,
      "construction of ": 6721,
      "hero": 6722,
      "sky ": 6723,
      "Admir": 6724,
      "in which the ": 6725,
      "couple ": 6726,
      "joined the ": 6727,
      "painting ": 6728,
      "return to ": 6729,
      "bodies ": 6730,
      ". Instead ": 6731,
      "Braathens SAFE ": 6732,
      "authorities ": 6733,
      "speaking ": 6734,
      "massive ": 6735,
      "Joseph ": 6736,
      "sentence ": 6737,
      "ansas ": 6738,
      "AAF ": 6739,
      "yellow ": 6740,
      "westward ": 6741,
      "widespread ": 6742,
      "Dar": 6743,
      "Djedkare ": 6744,
      "Hospit": 6745,
      "HMS ": 6746,
      "Pic": 6747,
      "Qed": 6748,
      "Rog": 6749,
      "ae ": 6750,
      "mist": 6751,
      "munic": 6752,
      "nos": 6753,
      "session ": 6754,
      "in late ": 6755,
      "in January ": 6756,
      "to an ": 6757,
      "ate of ": 6758,
      "church": 6759,
      "of the season ": 6760,
      "that had ": 6761,
      "aging ": 6762,
      "being the ": 6763,
      "in the city ": 6764,
      "e , he ": 6765,
      "theory ": 6766,
      "oured ": 6767,
      "twel": 6768,
      "park ": 6769,
      "rub": 6770,
      "they had ": 6771,
      "mile ( ": 6772,
      "assass": 6773,
      "render": 6774,
      "capac": 6775,
      "urrican": 6776,
      "brary ": 6777,
      "Project ": 6778,
      "compon": 6779,
      "Phili": 6780,
      "destro": 6781,
      "consisted of ": 6782,
      "Field ": 6783,
      "categ": 6784,
      "Coast ": 6785,
      "programm": 6786,
      "literature ": 6787,
      "Georgian ": 6788,
      "illustr": 6789,
      "Bon": 6790,
      "Ben": 6791,
      "Golden ": 6792,
      "bra": 6793,
      "dance ": 6794,
      "dating ": 6795,
      "fear": 6796,
      "fashi": 6797,
      "l , ": 6798,
      "alent ": 6799,
      "retre": 6800,
      "and were ": 6801,
      "ing from ": 6802,
      "as his ": 6803,
      "store ": 6804,
      "stations ": 6805,
      "itsun": 6806,
      "\" C": 6807,
      "was in ": 6808,
      "rif": 6809,
      "that are ": 6810,
      "plain ": 6811,
      "evacu": 6812,
      "condition ": 6813,
      "lived ": 6814,
      "s , who ": 6815,
      "ated with ": 6816,
      "perhaps ": 6817,
      "not to ": 6818,
      "not only ": 6819,
      "up a ": 6820,
      "color ": 6821,
      "way to ": 6822,
      "Arti": 6823,
      "substan": 6824,
      "1998 ": 6825,
      "appearanc": 6826,
      "succeeded ": 6827,
      "brief ": 6828,
      "took the ": 6829,
      "passes ": 6830,
      "typical ": 6831,
      "McCall ": 6832,
      "went on to ": 6833,
      "tradition ": 6834,
      "book": 6835,
      "fram": 6836,
      "Games ": 6837,
      "Swed": 6838,
      "calcul": 6839,
      "southwest ": 6840,
      "aiss": 6841,
      "digital ": 6842,
      "atmosphere ": 6843,
      "R & B ": 6844,
      "700 ": 6845,
      "7 , the ": 6846,
      "AR": 6847,
      "Gil": 6848,
      "Osl": 6849,
      "Rel": 6850,
      "Sant": 6851,
      "TC ": 6852,
      "bad ": 6853,
      "ce": 6854,
      "dress": 6855,
      "god": 6856,
      "hem": 6857,
      "ts , and ": 6858,
      "ery , ": 6859,
      "inem": 6860,
      "ties , ": 6861,
      "of all ": 6862,
      "is in ": 6863,
      "ament ": 6864,
      "in the second ": 6865,
      "composition ": 6866,
      "destruc": 6867,
      "2006 , ": 6868,
      "contact ": 6869,
      "knew ": 6870,
      "offer ": 6871,
      "made the ": 6872,
      "film 's ": 6873,
      "visible ": 6874,
      "alions ": 6875,
      "episode was ": 6876,
      "burns ": 6877,
      "resulted ": 6878,
      "attempts to ": 6879,
      "types of ": 6880,
      "positive review": 6881,
      "Commander ": 6882,
      "lyrics ": 6883,
      "moment ": 6884,
      "Tenny": 6885,
      "wedding ": 6886,
      "Abu @-@ Jam": 6887,
      "Iguan": 6888,
      "05 ": 6889,
      "12 , ": 6890,
      "29 , ": 6891,
      "By ": 6892,
      "Crus": 6893,
      "Dubl": 6894,
      "Far": 6895,
      "Gab": 6896,
      "Hindu": 6897,
      "Lin": 6898,
      "Los Angel": 6899,
      "Me ": 6900,
      "Mogadishu ": 6901,
      "Sin": 6902,
      "Van ": 6903,
      "cru": 6904,
      "eir": 6905,
      "pher ": 6906,
      "path ": 6907,
      "tment ": 6908,
      "ye ": 6909,
      "erly ": 6910,
      "inhabit": 6911,
      "y min": 6912,
      "artic": 6913,
      "of P": 6914,
      "and K": 6915,
      "enge ": 6916,
      "in Cha": 6917,
      "es from the ": 6918,
      "ata ": 6919,
      "is to ": 6920,
      "rive ": 6921,
      "deep": 6922,
      "seat ": 6923,
      ". As of ": 6924,
      "parts of ": 6925,
      "all of the ": 6926,
      "ally , ": 6927,
      "Steph": 6928,
      "Stadium ": 6929,
      ". Three ": 6930,
      "Under": 6931,
      "spective ": 6932,
      "accur": 6933,
      "athle": 6934,
      "games , ": 6935,
      "Juan ": 6936,
      "Colleg": 6937,
      "funding ": 6938,
      "because of the ": 6939,
      "attempt ": 6940,
      "disturb": 6941,
      "causing ": 6942,
      "loss ": 6943,
      "ographer ": 6944,
      "killing ": 6945,
      "cannot ": 6946,
      "animals ": 6947,
      "circ": 6948,
      "promotion ": 6949,
      "convinc": 6950,
      "progres": 6951,
      "MacLeod ": 6952,
      "folk ": 6953,
      "Gully ": 6954,
      "chestr": 6955,
      "projects ": 6956,
      "newspap": 6957,
      "capable of ": 6958,
      "26 , ": 6959,
      "Aer": 6960,
      "Gold ": 6961,
      "Jain ": 6962,
      "Lev": 6963,
      "Not": 6964,
      "Nathan ": 6965,
      "hard": 6966,
      "igh": 6967,
      "vel": 6968,
      "wel": 6969,
      "wish": 6970,
      "n and ": 6971,
      "inity ": 6972,
      "repl": 6973,
      "resist": 6974,
      "reality ": 6975,
      "of them ": 6976,
      "stop": 6977,
      "ilton ": 6978,
      "al of the ": 6979,
      "acid ": 6980,
      "esp": 6981,
      "oli": 6982,
      "ada ": 6983,
      "adult ": 6984,
      "with other ": 6985,
      "entered ": 6986,
      "( 198": 6987,
      "1920": 6988,
      ") to ": 6989,
      "etro": 6990,
      "miles ": 6991,
      "finish ": 6992,
      "creator ": 6993,
      "interview ": 6994,
      "regions ": 6995,
      "ancy ": 6996,
      "southeast ": 6997,
      "though the ": 6998,
      ". Fe": 6999,
      "Arthur ": 7000,
      "Americans ": 7001,
      "match": 7002,
      "carry ": 7003,
      "Isab": 7004,
      "protect ": 7005,
      "although the ": 7006,
      "humans ": 7007,
      "examin": 7008,
      "concept ": 7009,
      "Science ": 7010,
      "association ": 7011,
      "recogn": 7012,
      "supporting ": 7013,
      "difficult to ": 7014,
      "improved ": 7015,
      "retired ": 7016,
      "drum ": 7017,
      "Court ": 7018,
      "Virginia Tech ": 7019,
      "Evergl": 7020,
      "responsible for ": 7021,
      "research": 7022,
      "66 ": 7023,
      "81 ": 7024,
      "Avenue ": 7025,
      "Cub": 7026,
      "Fantasy ": 7027,
      "Good ": 7028,
      "Nev": 7029,
      "Sus": 7030,
      "Tro": 7031,
      "VN ": 7032,
      "jill": 7033,
      "jack": 7034,
      "ler ": 7035,
      ". ' ": 7036,
      "realis": 7037,
      "on January ": 7038,
      "in November ": 7039,
      "\" is ": 7040,
      "agle ": 7041,
      "consol": 7042,
      "entry ": 7043,
      "( a ": 7044,
      "legi": 7045,
      "opposition ": 7046,
      "exist ": 7047,
      "prefer": 7048,
      "lane ": 7049,
      "college ": 7050,
      "regularly ": 7051,
      "\" , but ": 7052,
      "End ": 7053,
      "symp": 7054,
      "1999 ": 7055,
      ". Due ": 7056,
      "World Cup ": 7057,
      "Green ": 7058,
      "those who ": 7059,
      "suggest ": 7060,
      "fellow ": 7061,
      "referenc": 7062,
      "tropical cyclone ": 7063,
      "failure ": 7064,
      "destroyed ": 7065,
      "technical ": 7066,
      "reports ": 7067,
      "enough to ": 7068,
      "temperature ": 7069,
      "Croatian ": 7070,
      "experim": 7071,
      "thesis ": 7072,
      "benef": 7073,
      "opinion ": 7074,
      "House of ": 7075,
      "wards , ": 7076,
      "Omaha ": 7077,
      "Liu Kang ": 7078,
      "21 , ": 7079,
      "62 ": 7080,
      "Ca": 7081,
      "Den": 7082,
      "Fl": 7083,
      "Hon": 7084,
      "Mill": 7085,
      "She ": 7086,
      "X ": 7087,
      "gor": 7088,
      "han": 7089,
      "km ( ": 7090,
      "path": 7091,
      "on April ": 7092,
      "ous , ": 7093,
      "\" of ": 7094,
      "\" . In ": 7095,
      "of the Year ": 7096,
      "sipp": 7097,
      "raft ": 7098,
      "his father ": 7099,
      "degre": 7100,
      "it had ": 7101,
      "ocked ": 7102,
      "quite ": 7103,
      "has the ": 7104,
      "Marine ": 7105,
      "merg": 7106,
      "him , ": 7107,
      "They ": 7108,
      "accept": 7109,
      "aire ": 7110,
      "used as a ": 7111,
      "embar": 7112,
      "forced ": 7113,
      "College ": 7114,
      "red to the ": 7115,
      "long tons ": 7116,
      "protest ": 7117,
      "Plat": 7118,
      "sense of ": 7119,
      "Rox": 7120,
      "best @-@ ": 7121,
      "losing ": 7122,
      "between the two ": 7123,
      "common star": 7124,
      "containing ": 7125,
      "replaced by ": 7126,
      "Department ": 7127,
      "Carey 's ": 7128,
      "devo": 7129,
      "sources ": 7130,
      "required ": 7131,
      "Missouri River ": 7132,
      "chapter ": 7133,
      "expanded ": 7134,
      "c . ": 7135,
      "death , ": 7136,
      "Applewhite ": 7137,
      "Dougl": 7138,
      "permanent ": 7139,
      "trying to ": 7140,
      "sissipp": 7141,
      "philosoph": 7142,
      "Allied ": 7143,
      "dollar ": 7144,
      "Caribbean ": 7145,
      "Book ": 7146,
      "Line ": 7147,
      "ao": 7148,
      "ius ": 7149,
      "mar ": 7150,
      "rural ": 7151,
      "tty ": 7152,
      "e to ": 7153,
      "thel": 7154,
      "ero ": 7155,
      "erog": 7156,
      "arily ": 7157,
      "in some ": 7158,
      "in early ": 7159,
      "in August ": 7160,
      "as part of the ": 7161,
      "itz ": 7162,
      "chair": 7163,
      "asser": 7164,
      "was completed ": 7165,
      "of the first ": 7166,
      "emble ": 7167,
      "convic": 7168,
      "e , with ": 7169,
      "immig": 7170,
      "preme ": 7171,
      "recru": 7172,
      "worst ": 7173,
      "guard ": 7174,
      "played by ": 7175,
      "man 's ": 7176,
      "area , ": 7177,
      "seventh ": 7178,
      "satis": 7179,
      "trail": 7180,
      "tivision ": 7181,
      "council ": 7182,
      "gameplay ": 7183,
      "buri": 7184,
      "Max ": 7185,
      "1 @.@ 5 ": 7186,
      "Act ": 7187,
      "Mississipp": 7188,
      ". According to the ": 7189,
      "organization ": 7190,
      "ability to ": 7191,
      "Hollywood ": 7192,
      "anything ": 7193,
      "focused ": 7194,
      "captured ": 7195,
      "method ": 7196,
      "supplies ": 7197,
      "battles": 7198,
      "fields ": 7199,
      "Bradford ": 7200,
      "countries ": 7201,
      "neighbor": 7202,
      "dissipated ": 7203,
      "Alabama ": 7204,
      "micro": 7205,
      "28 , ": 7206,
      "67 ": 7207,
      "Ari": 7208,
      "Bill ": 7209,
      "Da": 7210,
      "Fer": 7211,
      "Festival ": 7212,
      "Kil": 7213,
      "fal": 7214,
      "gath": 7215,
      "kl": 7216,
      "mad": 7217,
      "oir": 7218,
      "veg": 7219,
      ", however , ": 7220,
      "ors and ": 7221,
      "alem ": 7222,
      "ons , ": 7223,
      "enni": 7224,
      "in June ": 7225,
      "in March ": 7226,
      "icc": 7227,
      "isher ": 7228,
      "istic ": 7229,
      "actors ": 7230,
      "esc": 7231,
      "unket": 7232,
      ". The game ": 7233,
      "e , who ": 7234,
      ") . ": 7235,
      "exerc": 7236,
      "seas ": 7237,
      "1 and ": 7238,
      "Chil": 7239,
      "turn": 7240,
      "turning ": 7241,
      "vert": 7242,
      "secure ": 7243,
      "puzz": 7244,
      "obtain": 7245,
      ". It also ": 7246,
      "only one ": 7247,
      "Common": 7248,
      "visited ": 7249,
      "certified ": 7250,
      "controversi": 7251,
      "16 , ": 7252,
      "protection ": 7253,
      "providing ": 7254,
      "provides ": 7255,
      "changed ": 7256,
      "Perry ": 7257,
      "that \" the ": 7258,
      "claimed ": 7259,
      "full @-@ ": 7260,
      "of Mexic": 7261,
      "Secretary ": 7262,
      "shaped ": 7263,
      "problem": 7264,
      "dropped ": 7265,
      "kilometres ( ": 7266,
      "Engineer ": 7267,
      "worldwide ": 7268,
      "mushroom ": 7269,
      "08 ": 7270,
      "Destin": 7271,
      "GN ": 7272,
      "Kra": 7273,
      "Lewis ": 7274,
      "UTC ": 7275,
      "bell ": 7276,
      "bowl": 7277,
      "baby ": 7278,
      "mit": 7279,
      "nor ": 7280,
      "nowle": 7281,
      "q ": 7282,
      "un ": 7283,
      "uti": 7284,
      "von ": 7285,
      "was": 7286,
      "thos": 7287,
      "the song ": 7288,
      "ina , ": 7289,
      "er .\n": 7290,
      "on March ": 7291,
      "in England ": 7292,
      "ous and ": 7293,
      "to form ": 7294,
      "elly ": 7295,
      "itz": 7296,
      "using the ": 7297,
      ". The album ": 7298,
      "in the final ": 7299,
      "predec": 7300,
      ". And ": 7301,
      "reception ": 7302,
      "which were ": 7303,
      "poor": 7304,
      "intersec": 7305,
      "resour": 7306,
      "ities , ": 7307,
      "up , ": 7308,
      "coach": 7309,
      "albums ": 7310,
      "comple": 7311,
      "lying ": 7312,
      ". After a ": 7313,
      "species of ": 7314,
      "fur ": 7315,
      "correspon": 7316,
      "war , ": 7317,
      "bring": 7318,
      "Maed": 7319,
      ". Also ": 7320,
      "south @-@ ": 7321,
      "village of ": 7322,
      "Holy ": 7323,
      "Braz": 7324,
      "combined ": 7325,
      "reasons ": 7326,
      "ajev": 7327,
      "technology ": 7328,
      "extra ": 7329,
      "Alice in Cha": 7330,
      "Phoen": 7331,
      "Weekly ": 7332,
      "aissance ": 7333,
      ". Feder": 7334,
      "predecess": 7335,
      "2 , the ": 7336,
      "52 ": 7337,
      "79 ": 7338,
      "DS ": 7339,
      "ERA ": 7340,
      "Kur": 7341,
      "Summer ": 7342,
      "caught ": 7343,
      "cinem": 7344,
      "ech ": 7345,
      "fying ": 7346,
      "ieve ": 7347,
      "lec": 7348,
      "lap ": 7349,
      "sen ": 7350,
      "sear": 7351,
      "te of ": 7352,
      "wr": 7353,
      "the next ": 7354,
      "of T": 7355,
      "as one of the ": 7356,
      "roll ": 7357,
      "\" M": 7358,
      "ecting ": 7359,
      "iron ": 7360,
      "adj": 7361,
      "for this ": 7362,
      "in the late ": 7363,
      "spok": 7364,
      "set of ": 7365,
      "time , the ": 7366,
      ". In his ": 7367,
      ". In 199": 7368,
      "bod": 7369,
      "age and ": 7370,
      "Marl": 7371,
      "when he was ": 7372,
      "night": 7373,
      "\" , a ": 7374,
      "train ": 7375,
      "anger ": 7376,
      "signing ": 7377,
      "link ": 7378,
      "fictional ": 7379,
      "received the ": 7380,
      "eff ": 7381,
      "drum": 7382,
      "statement ": 7383,
      "loss of ": 7384,
      "artists ": 7385,
      "top of the ": 7386,
      "Commun": 7387,
      "Moz": 7388,
      "nucleus ": 7389,
      "europ": 7390,
      "data ": 7391,
      "mi ( ": 7392,
      "1 – 0 ": 7393,
      "Francisc": 7394,
      "Freder": 7395,
      "II , ": 7396,
      "branch ": 7397,
      "People ": 7398,
      "techniqu": 7399,
      "coastal ": 7400,
      "Chronic": 7401,
      "rarely ": 7402,
      "restaurant ": 7403,
      "120 ": 7404,
      "76 ": 7405,
      "Des": 7406,
      "Dota ": 7407,
      "Gang": 7408,
      "Native ": 7409,
      "bits ": 7410,
      "ction ": 7411,
      "pain ": 7412,
      "taught ": 7413,
      "induc": 7414,
      "anity ": 7415,
      "arrest": 7416,
      "of F": 7417,
      "and her ": 7418,
      "and two ": 7419,
      "rose ": 7420,
      "\" B": 7421,
      "astic ": 7422,
      "ol , ": 7423,
      "ows ": 7424,
      "that he was ": 7425,
      "for example , ": 7426,
      "with two ": 7427,
      "in the same ": 7428,
      "earn": 7429,
      "deities ": 7430,
      "it a ": 7431,
      "oods ": 7432,
      "nothing ": 7433,
      ", and was ": 7434,
      "perfect ": 7435,
      "shel": 7436,
      "Stone ": 7437,
      "scop": 7438,
      "edom ": 7439,
      "desire ": 7440,
      "ment , ": 7441,
      "aware ": 7442,
      "pressur": 7443,
      "crip": 7444,
      "charter ": 7445,
      "esses ": 7446,
      "interior ": 7447,
      ". Because ": 7448,
      "about a ": 7449,
      "withdraw": 7450,
      "Three ": 7451,
      "1993 ": 7452,
      "airport ": 7453,
      "fuel ": 7454,
      "appeared ": 7455,
      "series ' ": 7456,
      "direction ": 7457,
      "green ": 7458,
      "officer ": 7459,
      "continues ": 7460,
      "1960s ": 7461,
      "request": 7462,
      "Mah": 7463,
      "Boy ": 7464,
      "claimed that ": 7465,
      "value ": 7466,
      "replacement ": 7467,
      "episodes ": 7468,
      "Regim": 7469,
      "Six ": 7470,
      "involvement ": 7471,
      "pilot ": 7472,
      "happy ": 7473,
      "habitat ": 7474,
      "Simone ": 7475,
      "pair of ": 7476,
      "championship ": 7477,
      "rhyth": 7478,
      "Family ": 7479,
      "Maryland ": 7480,
      "Constantine ": 7481,
      "Nesbitt ": 7482,
      "wooden ": 7483,
      "eanwhile , ": 7484,
      "Observ": 7485,
      "ynasty ": 7486,
      "noisy min": 7487,
      "track and field ": 7488,
      "franch": 7489,
      ". Additionally ": 7490,
      ". Among ": 7491,
      "Abu @-@ Jamal ": 7492,
      "' , ": 7493,
      "72 ": 7494,
      "Cel": 7495,
      "Sa": 7496,
      "We": 7497,
      "abe": 7498,
      "cab": 7499,
      "cited ": 7500,
      "dal": 7501,
      "gate ": 7502,
      "gree ": 7503,
      "gates ": 7504,
      "ipp": 7505,
      "key": 7506,
      "tren": 7507,
      "ston": 7508,
      "chron": 7509,
      "ush ": 7510,
      "used by ": 7511,
      "degree ": 7512,
      "spr": 7513,
      "tic , ": 7514,
      "Stev": 7515,
      "obal ": 7516,
      "assist ": 7517,
      "son and ": 7518,
      "Austri": 7519,
      "decade ": 7520,
      "monit": 7521,
      "evelop": 7522,
      ". Mc": 7523,
      "substitu": 7524,
      "appearances ": 7525,
      "trial ": 7526,
      "ful , ": 7527,
      ". They are ": 7528,
      "controvers": 7529,
      "appropri": 7530,
      "fungu": 7531,
      "basic ": 7532,
      "skin ": 7533,
      "Plunket": 7534,
      "type of ": 7535,
      "transfer ": 7536,
      "McCar": 7537,
      "watch": 7538,
      "partment of ": 7539,
      "book , ": 7540,
      "Magazine ": 7541,
      "Jerus": 7542,
      "penalty ": 7543,
      "roadway ": 7544,
      "Nether": 7545,
      "difficulty ": 7546,
      "defini": 7547,
      "achieved ": 7548,
      "services ": 7549,
      "Trujill": 7550,
      "Khánh ": 7551,
      "astronom": 7552,
      "Walpole ": 7553,
      "Sunday ": 7554,
      "Anthony ": 7555,
      "specifically ": 7556,
      "Iguanodon ": 7557,
      "27 , ": 7558,
      "57 ": 7559,
      "Fel": 7560,
      "If ": 7561,
      "Mul": 7562,
      "Mast": 7563,
      "Medi": 7564,
      "Out": 7565,
      "gover": 7566,
      "journey ": 7567,
      "lu": 7568,
      "lum": 7569,
      "tell ": 7570,
      "yri": 7571,
      "zen": 7572,
      "throw ": 7573,
      "iness ": 7574,
      "represent ": 7575,
      "a , the ": 7576,
      "es that the ": 7577,
      "is and ": 7578,
      "is located ": 7579,
      "at its ": 7580,
      "acts ": 7581,
      "@-@ year @-@ old ": 7582,
      "evil ": 7583,
      "parts of the ": 7584,
      "ake , ": 7585,
      "first down ": 7586,
      "ogen": 7587,
      "rang ": 7588,
      "display": 7589,
      "ment of the ": 7590,
      "guil": 7591,
      "motion ": 7592,
      "render ": 7593,
      "offered ": 7594,
      "offense ": 7595,
      ". Of ": 7596,
      ". Over ": 7597,
      "man , ": 7598,
      "nie ": 7599,
      "starts ": 7600,
      "releg": 7601,
      "where it ": 7602,
      "ampions ": 7603,
      "made his ": 7604,
      "dream ": 7605,
      "operated ": 7606,
      "lot of ": 7607,
      ". We ": 7608,
      "burg ": 7609,
      "Hibar": 7610,
      "jok": 7611,
      "gives ": 7612,
      "considerable ": 7613,
      "delay": 7614,
      "Walter ": 7615,
      "sites ": 7616,
      "magaz": 7617,
      "career , ": 7618,
      "compil": 7619,
      "hydro": 7620,
      "Company , ": 7621,
      "myth": 7622,
      "suffer": 7623,
      "everthel": 7624,
      "looked ": 7625,
      "label ": 7626,
      "volunte": 7627,
      "administration ": 7628,
      "Archae": 7629,
      "peaked at number ": 7630,
      "extremely ": 7631,
      "accompani": 7632,
      "Water": 7633,
      "credited ": 7634,
      "oulder ": 7635,
      "younger ": 7636,
      "Alexander ": 7637,
      "sufficient ": 7638,
      "poetry ": 7639,
      "receive ": 7640,
      "Hindu ": 7641,
      "5 , and ": 7642,
      "Bishop ": 7643,
      "DNA ": 7644,
      "Go": 7645,
      "Mu": 7646,
      "Ré": 7647,
      "Rod": 7648,
      "Sal": 7649,
      "big": 7650,
      "cities ": 7651,
      "jaz": 7652,
      "jump ": 7653,
      "may": 7654,
      "rates ": 7655,
      "rying ": 7656,
      "tee": 7657,
      "wise ": 7658,
      "yth": 7659,
      "y .\n": 7660,
      "alli": 7661,
      "in July ": 7662,
      "in December ": 7663,
      "station": 7664,
      "al to ": 7665,
      "amber ": 7666,
      "ammy ": 7667,
      "ustin ": 7668,
      "diver": 7669,
      "with \" ": 7670,
      "gh , ": 7671,
      "had to be ": 7672,
      "share ": 7673,
      "ingale ": 7674,
      "portion of ": 7675,
      "; however , ": 7676,
      ". In this ": 7677,
      "ranean ": 7678,
      "ruli ": 7679,
      "offers ": 7680,
      "start of the ": 7681,
      "goes ": 7682,
      "before being ": 7683,
      "ed , but ": 7684,
      "trip ": 7685,
      "certain": 7686,
      "described as ": 7687,
      "load ": 7688,
      "city of ": 7689,
      "orders ": 7690,
      "advoc": 7691,
      "baseball ": 7692,
      "considered a ": 7693,
      "sequently ": 7694,
      "medieval ": 7695,
      "sense ": 7696,
      "reaching ": 7697,
      "someone ": 7698,
      "Barrow ": 7699,
      "tropical depression ": 7700,
      "right to ": 7701,
      "equiv": 7702,
      "east of the ": 7703,
      "sports ": 7704,
      "occurr": 7705,
      "expensive ": 7706,
      "K '": 7707,
      "granted ": 7708,
      "target ": 7709,
      "picked ": 7710,
      "spacing ": 7711,
      "surrounded ": 7712,
      "collection of ": 7713,
      "Ceres ": 7714,
      "Offic": 7715,
      "chemical ": 7716,
      "emotional ": 7717,
      "Howard ": 7718,
      "getting ": 7719,
      "Industry ": 7720,
      "ceremony ": 7721,
      "shooting ": 7722,
      "intelligence ": 7723,
      "europium ": 7724,
      "14": 7725,
      "Ali ": 7726,
      "Mem": 7727,
      "RE": 7728,
      "Spr": 7729,
      "ao ": 7730,
      "danc": 7731,
      "fec": 7732,
      "fish ": 7733,
      "ield ": 7734,
      "lb": 7735,
      "× ": 7736,
      "ān": 7737,
      "ins , ": 7738,
      "ren ": 7739,
      "rey ": 7740,
      "tially ": 7741,
      "of whom ": 7742,
      "er @-@ ": 7743,
      "in April ": 7744,
      "as and ": 7745,
      "aten ": 7746,
      "ick , ": 7747,
      "ist , ": 7748,
      "fortun": 7749,
      "acent ": 7750,
      "The C": 7751,
      "univer": 7752,
      "beach ": 7753,
      "leuk": 7754,
      "abs": 7755,
      "expec": 7756,
      "tioned ": 7757,
      "spar": 7758,
      "so that ": 7759,
      "crime ": 7760,
      "tual ": 7761,
      "Anonymous ": 7762,
      "Carter ": 7763,
      "Art ": 7764,
      "followed ": 7765,
      "ology , ": 7766,
      "@,@ 000 copies ": 7767,
      "found the ": 7768,
      "Leon": 7769,
      "1986 ": 7770,
      ". With": 7771,
      "results ": 7772,
      ". No ": 7773,
      "authors ": 7774,
      "River , ": 7775,
      "example ": 7776,
      "Morrison ": 7777,
      "New York City ": 7778,
      "command": 7779,
      "include the ": 7780,
      "villag": 7781,
      "refus": 7782,
      "divine ": 7783,
      "Depression ": 7784,
      "provinc": 7785,
      "carried out ": 7786,
      "identified ": 7787,
      "labor": 7788,
      "rate of ": 7789,
      "Five ": 7790,
      "Prime ": 7791,
      "alternative ": 7792,
      "railway ": 7793,
      "witn": 7794,
      "escape ": 7795,
      "window ": 7796,
      "hospital ": 7797,
      "distinct ": 7798,
      "documentary ": 7799,
      "facilities ": 7800,
      "Victoria ": 7801,
      "recommended ": 7802,
      "pattern ": 7803,
      "Civil War ": 7804,
      "knowledge ": 7805,
      "Daniel ": 7806,
      "Daily ": 7807,
      "3D ": 7808,
      "71 ": 7809,
      "77 ": 7810,
      "Dann": 7811,
      "IV ": 7812,
      "It 's ": 7813,
      "Jif": 7814,
      "Mur": 7815,
      "RA": 7816,
      "Team ": 7817,
      "bes": 7818,
      "cut": 7819,
      "fare ": 7820,
      "lings ": 7821,
      "us of ": 7822,
      "ív": 7823,
      "ero": 7824,
      "ara ": 7825,
      "ing an ": 7826,
      "to use ": 7827,
      "m and ": 7828,
      "is known ": 7829,
      "was given ": 7830,
      "pleas": 7831,
      "for The ": 7832,
      "by his ": 7833,
      "evol": 7834,
      "apol": 7835,
      "aprang ": 7836,
      "note ": 7837,
      "had no ": 7838,
      "ate and ": 7839,
      "dern ": 7840,
      "turns ": 7841,
      "boy": 7842,
      "this , ": 7843,
      "secret ": 7844,
      ". Som": 7845,
      "annivers": 7846,
      "ed a new ": 7847,
      "landed ": 7848,
      "sever": 7849,
      "Ann": 7850,
      "producers ": 7851,
      ". This is ": 7852,
      "position of ": 7853,
      "Life ": 7854,
      "singing ": 7855,
      "highligh": 7856,
      "ione": 7857,
      "said that the ": 7858,
      "viewers ": 7859,
      "back to the ": 7860,
      ". Wil": 7861,
      "Janeir": 7862,
      "strike ": 7863,
      "during his ": 7864,
      "battalions ": 7865,
      "in 188": 7866,
      "pitch ": 7867,
      "candi": 7868,
      "club 's ": 7869,
      "notes that ": 7870,
      "launch ": 7871,
      "growth ": 7872,
      "integ": 7873,
      "violence ": 7874,
      "Airport ": 7875,
      "expansion ": 7876,
      "literary ": 7877,
      "Military ": 7878,
      "strongly ": 7879,
      "apparent ": 7880,
      "storyline ": 7881,
      "Yankovic ": 7882,
      "watersh": 7883,
      "Simpsons ": 7884,
      "Clark": 7885,
      "Rihanna ": 7886,
      "ock Haven ": 7887,
      "Gordon ": 7888,
      "o de Janeir": 7889,
      "veget": 7890,
      "those of ": 7891,
      "anniversary ": 7892,
      "22 , ": 7893,
      "24 , ": 7894,
      "Bir": 7895,
      "Fox ": 7896,
      "Most ": 7897,
      "Row": 7898,
      "WW": 7899,
      "Wim": 7900,
      "West": 7901,
      "fic ": 7902,
      "gal": 7903,
      "gone ": 7904,
      "kers ": 7905,
      "kets ": 7906,
      "kitsun": 7907,
      "van ": 7908,
      ", , and ": 7909,
      "till": 7910,
      "and an ": 7911,
      "ensu": 7912,
      "in that ": 7913,
      "in February ": 7914,
      "ing with ": 7915,
      "to find ": 7916,
      "atom": 7917,
      "ics , ": 7918,
      "itan ": 7919,
      "was originally ": 7920,
      "adic": 7921,
      "cong": 7922,
      "superi": 7923,
      "from their ": 7924,
      "absor": 7925,
      "vide": 7926,
      "port , ": 7927,
      "versions ": 7928,
      "commod": 7929,
      "mean ": 7930,
      "Alan ": 7931,
      "t of a ": 7932,
      "resembl": 7933,
      "she had ": 7934,
      "follows ": 7935,
      "cap ": 7936,
      "fun ": 7937,
      "poly": 7938,
      "film , ": 7939,
      "New Jer": 7940,
      "10 @,@ 000 ": 7941,
      "history of ": 7942,
      "along with the ": 7943,
      "defended ": 7944,
      "drama ": 7945,
      "basin ": 7946,
      "leader ": 7947,
      "profess": 7948,
      "reported that ": 7949,
      "females ": 7950,
      "wanted ": 7951,
      "Recording ": 7952,
      "easily ": 7953,
      "squad ": 7954,
      "Richard": 7955,
      "praised ": 7956,
      "commented that ": 7957,
      "tracks ": 7958,
      "learned ": 7959,
      "celeb": 7960,
      "must be ": 7961,
      "colonial ": 7962,
      "principal ": 7963,
      "aggres": 7964,
      "purchas": 7965,
      "Friends ": 7966,
      "Colonel ": 7967,
      "wealth ": 7968,
      "vehicles ": 7969,
      "twenty @-@ ": 7970,
      "Tessa ": 7971,
      "Public ": 7972,
      "Venus ": 7973,
      "academic ": 7974,
      "bledon ": 7975,
      "circum": 7976,
      "Wimbledon ": 7977,
      "02 ": 7978,
      "58 ": 7979,
      "59 ": 7980,
      "63 ": 7981,
      "93 ": 7982,
      "Crown ": 7983,
      "Eliz": 7984,
      "Hall of ": 7985,
      "Kenn": 7986,
      "Mot": 7987,
      "Mass": 7988,
      "MTV ": 7989,
      "Ul": 7990,
      "Win": 7991,
      "by": 7992,
      "kno": 7993,
      "nest": 7994,
      "pay": 7995,
      "stic": 7996,
      "wants ": 7997,
      "x , ": 7998,
      "y to ": 7999,
      "of @-@ ": 8000,
      "of War ": 8001,
      "on an ": 8002,
      "channel ": 8003,
      "of the game ": 8004,
      "emperor ": 8005,
      "'s death ": 8006,
      "ett ": 8007,
      ". Ab": 8008,
      "noting ": 8009,
      "partial ": 8010,
      "on the island ": 8011,
      "; a ": 8012,
      "boats ": 8013,
      "who is ": 8014,
      "committee ": 8015,
      "flank ": 8016,
      "acknowle": 8017,
      "decline ": 8018,
      "she is ": 8019,
      "Brian ": 8020,
      "tions of the ": 8021,
      "coordin": 8022,
      "muscar": 8023,
      "locations ": 8024,
      "engine ": 8025,
      "ario ": 8026,
      "found in the ": 8027,
      "Gerard ": 8028,
      "prior to ": 8029,
      "episode of the ": 8030,
      "discipl": 8031,
      "require ": 8032,
      "south of the ": 8033,
      "north @-@ ": 8034,
      "effectively ": 8035,
      "noted that the ": 8036,
      "control of the ": 8037,
      "personnel ": 8038,
      "felt that ": 8039,
      "compared to ": 8040,
      "alized ": 8041,
      "Romani ": 8042,
      "civilian ": 8043,
      "machin": 8044,
      "territories ": 8045,
      "discuss": 8046,
      "° C ": 8047,
      "assistant ": 8048,
      "chapel ": 8049,
      "everything ": 8050,
      "extrat": 8051,
      "weapons ": 8052,
      "Studio": 8053,
      "Territ": 8054,
      "experienced ": 8055,
      "technique ": 8056,
      "actress ": 8057,
      "threaten": 8058,
      "photograph": 8059,
      "systems ": 8060,
      "assigned to ": 8061,
      "Nichol": 8062,
      "Radio ": 8063,
      "adjacent ": 8064,
      "Jerusalem ": 8065,
      "leukem": 8066,
      "Aston ": 8067,
      "Komb": 8068,
      "Nam": 8069,
      "Rhy": 8070,
      "Today ": 8071,
      "ativ": 8072,
      "dry ": 8073,
      "sar": 8074,
      "u , ": 8075,
      "weigh": 8076,
      "ardo ": 8077,
      "alry ": 8078,
      "and to ": 8079,
      "aton ": 8080,
      "essive ": 8081,
      "was appointed ": 8082,
      "why ": 8083,
      "for two ": 8084,
      "convo": 8085,
      "ents of ": 8086,
      "rail ": 8087,
      "proved ": 8088,
      "from its ": 8089,
      "department ": 8090,
      "recre": 8091,
      "partly ": 8092,
      "iday ": 8093,
      "ish , ": 8094,
      ". Shor": 8095,
      "when it ": 8096,
      "resh ": 8097,
      "a , a ": 8098,
      "marked ": 8099,
      "torney ": 8100,
      "airline ": 8101,
      "second @-@ ": 8102,
      "consider ": 8103,
      "became the first ": 8104,
      "dams ": 8105,
      "hero ": 8106,
      "to reach ": 8107,
      "Formul": 8108,
      "somewhat ": 8109,
      "raised ": 8110,
      "birth": 8111,
      "Mortal ": 8112,
      "coupl": 8113,
      "Quin": 8114,
      "Night ": 8115,
      "introduced ": 8116,
      "workers ": 8117,
      "Department of ": 8118,
      "added to the ": 8119,
      "heart ": 8120,
      "Hornung ": 8121,
      "depicted ": 8122,
      "France , ": 8123,
      "soil ": 8124,
      "arrangement ": 8125,
      "Northern Ireland ": 8126,
      "judg": 8127,
      "possession ": 8128,
      "awarded the ": 8129,
      "associated with ": 8130,
      "incorporated ": 8131,
      "thousands of ": 8132,
      "incident ": 8133,
      "Smith ": 8134,
      "Independent ": 8135,
      "isolated ": 8136,
      "Oslo ": 8137,
      "article ": 8138,
      "Isabell": 8139,
      "Alice in Chains ": 8140,
      "Kombat ": 8141,
      ". Shortly ": 8142,
      "Formula ": 8143,
      "Mortal Kombat ": 8144,
      "Cas": 8145,
      "Despite ": 8146,
      "Fur": 8147,
      "La ": 8148,
      "Lenn": 8149,
      "NBC ": 8150,
      "Tal": 8151,
      "Wy": 8152,
      "gall": 8153,
      "gets ": 8154,
      "hin": 8155,
      "hos": 8156,
      "kick": 8157,
      "lb ": 8158,
      "pon ": 8159,
      "wine ": 8160,
      "ange ": 8161,
      "orist ": 8162,
      "a ; ": 8163,
      "ender ": 8164,
      "ing that the ": 8165,
      "to become ": 8166,
      "itual ": 8167,
      "at his ": 8168,
      "acre ": 8169,
      "asp": 8170,
      "lip": 8171,
      "lives ": 8172,
      "( M": 8173,
      "( and ": 8174,
      "( 18": 8175,
      "or in ": 8176,
      "ation for ": 8177,
      "e of his ": 8178,
      "its own ": 8179,
      "also be ": 8180,
      "avo": 8181,
      "disrup": 8182,
      "who were ": 8183,
      "ishop": 8184,
      "shif": 8185,
      "I was ": 8186,
      "flood ": 8187,
      "only a ": 8188,
      "resol": 8189,
      "ance to ": 8190,
      "serves ": 8191,
      "niston ": 8192,
      "regional ": 8193,
      "grass": 8194,
      "ropol": 8195,
      "That ": 8196,
      "Third ": 8197,
      "Park , ": 8198,
      "it was not ": 8199,
      "relative ": 8200,
      "missions ": 8201,
      "places ": 8202,
      "graph ": 8203,
      "as \" the ": 8204,
      "basket": 8205,
      "criticis": 8206,
      "bring ": 8207,
      "novel": 8208,
      "Attorney ": 8209,
      "scenes ": 8210,
      "Miss ": 8211,
      "days later ": 8212,
      "hundre": 8213,
      "identifi": 8214,
      "connection ": 8215,
      "account ": 8216,
      "Italy ": 8217,
      "occupi": 8218,
      "appli": 8219,
      "supported by ": 8220,
      "normally ": 8221,
      "family , ": 8222,
      "Television ": 8223,
      "Football League ": 8224,
      "Origin": 8225,
      "agricultural ": 8226,
      "Columbia ": 8227,
      "reputation ": 8228,
      "Douglas ": 8229,
      "68 ": 8230,
      "A @-@ ": 8231,
      "Hud": 8232,
      "Luc": 8233,
      "Sul": 8234,
      "bank ": 8235,
      "dence ": 8236,
      "gé ": 8237,
      "kesp": 8238,
      "smo": 8239,
      "tells ": 8240,
      "yon ": 8241,
      "āda ": 8242,
      "ined ": 8243,
      ", with the ": 8244,
      "rement ": 8245,
      "repair": 8246,
      "in Australia ": 8247,
      "at B": 8248,
      "champion ": 8249,
      "amate": 8250,
      "sible ": 8251,
      "whel": 8252,
      "distric": 8253,
      "conqu": 8254,
      "it of ": 8255,
      "20 , ": 8256,
      "ette ": 8257,
      "sewhere ": 8258,
      "ooth ": 8259,
      "ooking ": 8260,
      "2 @,@ 000 ": 8261,
      "but was ": 8262,
      "s and a ": 8263,
      "has an ": 8264,
      "overwhel": 8265,
      "phase ": 8266,
      "in 193": 8267,
      "Alla": 8268,
      "when a ": 8269,
      "marks ": 8270,
      "Brien ": 8271,
      "production of ": 8272,
      "surpris": 8273,
      "goal": 8274,
      "1996 ": 8275,
      "being a ": 8276,
      "number one ": 8277,
      "gie ": 8278,
      "1964 ": 8279,
      "Australians ": 8280,
      "resulted in ": 8281,
      "intendo ": 8282,
      "considered the ": 8283,
      "opened in ": 8284,
      "medium ": 8285,
      "maintain ": 8286,
      "designed to ": 8287,
      "ockey ": 8288,
      "Super": 8289,
      "equipp": 8290,
      "Manag": 8291,
      "watch ": 8292,
      "in which he ": 8293,
      "ling Stone ": 8294,
      "competitions ": 8295,
      "olutionary ": 8296,
      "rapid ": 8297,
      "Johnston ": 8298,
      "Op. ": 8299,
      "responsibility ": 8300,
      "altern": 8301,
      "immediate ": 8302,
      "Christ ": 8303,
      "multi @-@ ": 8304,
      "soft ": 8305,
      "progress": 8306,
      ". Only ": 8307,
      "dropp": 8308,
      "Office ": 8309,
      "Peninsul": 8310,
      "ninth ": 8311,
      "regime ": 8312,
      "ekān": 8313,
      "has also been ": 8314,
      "Philadelphia ": 8315,
      "safety ": 8316,
      "tailed ": 8317,
      "taneously ": 8318,
      "paintings ": 8319,
      "Theatre ": 8320,
      "twelve ": 8321,
      "erogative ": 8322,
      "Mississippi ": 8323,
      "of Mexico ": 8324,
      ". Federer ": 8325,
      "Frederick ": 8326,
      "kespear": 8327,
      "DA": 8328,
      "Fame ": 8329,
      "IGN ": 8330,
      "NC": 8331,
      "Of ": 8332,
      "Sil": 8333,
      "Tour": 8334,
      "Top ": 8335,
      "Ye": 8336,
      "hotel ": 8337,
      "iec": 8338,
      "lot ": 8339,
      "sle": 8340,
      "ust": 8341,
      "− ": 8342,
      "inaug": 8343,
      "and D": 8344,
      "er , and ": 8345,
      "in South ": 8346,
      "to see ": 8347,
      "stal": 8348,
      "is often ": 8349,
      "items ": 8350,
      "at that ": 8351,
      "at home ": 8352,
      "ure , ": 8353,
      "accommod": 8354,
      "ema": 8355,
      "agan ": 8356,
      "const": 8357,
      "0 – ": 8358,
      "ted for ": 8359,
      "spot ": 8360,
      "twor": 8361,
      "ume ": 8362,
      "lowest ": 8363,
      "worth ": 8364,
      "@.@ 5 ": 8365,
      "illa ": 8366,
      "awn ": 8367,
      "in 194": 8368,
      ". Between ": 8369,
      "decid": 8370,
      "made it ": 8371,
      "Joe ": 8372,
      "1991 ": 8373,
      "1994 ": 8374,
      "step ": 8375,
      "risk ": 8376,
      "ation of a ": 8377,
      "prior to the ": 8378,
      "understanding ": 8379,
      "wrot": 8380,
      "considered to be ": 8381,
      "North American ": 8382,
      "victim": 8383,
      ". Even ": 8384,
      "Protest": 8385,
      "initiative ": 8386,
      "Charlie ": 8387,
      "patro": 8388,
      "clean ": 8389,
      "reviewer ": 8390,
      "holding ": 8391,
      "surviving ": 8392,
      "black @-@ ": 8393,
      ". While the ": 8394,
      "identity ": 8395,
      "standards ": 8396,
      "narrow": 8397,
      "indicate ": 8398,
      "life , ": 8399,
      "efforts ": 8400,
      "USA ": 8401,
      "reason": 8402,
      "coast of ": 8403,
      "estimated at ": 8404,
      "declared ": 8405,
      ". As a result , ": 8406,
      "speed ": 8407,
      "volume ": 8408,
      "Calver": 8409,
      "Somali ": 8410,
      "Roxas ": 8411,
      "circumst": 8412,
      "06 ": 8413,
      "98 ": 8414,
      "Age ": 8415,
      "AML ": 8416,
      "Boy": 8417,
      "CB": 8418,
      "Dom": 8419,
      "NL ": 8420,
      "Pine ": 8421,
      "Pres": 8422,
      "cí": 8423,
      "fea": 8424,
      "gros": 8425,
      "hl ": 8426,
      "ided ": 8427,
      "les": 8428,
      "lob": 8429,
      "win the ": 8430,
      "alp": 8431,
      "til": 8432,
      "a ' ": 8433,
      "on 1 ": 8434,
      "ing in the ": 8435,
      "ing , and ": 8436,
      "ing him ": 8437,
      "to , ": 8438,
      "to give ": 8439,
      "stadium ": 8440,
      "illi": 8441,
      "at and ": 8442,
      "\" is a ": 8443,
      "acres ( ": 8444,
      "of the same ": 8445,
      "rian ": 8446,
      "emple ": 8447,
      "plane ": 8448,
      "plants ": 8449,
      "uscrip": 8450,
      "oss ": 8451,
      ". The most ": 8452,
      "prop": 8453,
      "exha": 8454,
      "ation for the ": 8455,
      "spring ": 8456,
      "ed to have ": 8457,
      ". In 198": 8458,
      "pupil": 8459,
      "at the age of ": 8460,
      ". Throughout ": 8461,
      "played in ": 8462,
      "essential ": 8463,
      "Bridge ": 8464,
      "way , ": 8465,
      "America , ": 8466,
      "within a ": 8467,
      "line of ": 8468,
      "Norman ": 8469,
      "point of ": 8470,
      "rise ": 8471,
      "populations ": 8472,
      "same time ": 8473,
      "1940 ": 8474,
      "Guardi": 8475,
      "responded ": 8476,
      "issues ": 8477,
      "town of ": 8478,
      "listen": 8479,
      "cycle ": 8480,
      "Palmy": 8481,
      "saw the ": 8482,
      "sourc": 8483,
      "narrow ": 8484,
      "sung ": 8485,
      "memor": 8486,
      "battery ": 8487,
      "dedicated ": 8488,
      "junction ": 8489,
      "batsman ": 8490,
      "Korean ": 8491,
      "Institute of ": 8492,
      "Director ": 8493,
      "romantic ": 8494,
      "beauti": 8495,
      "expedition ": 8496,
      "goddes": 8497,
      "0s , the ": 8498,
      "8 , and ": 8499,
      "Ell": 8500,
      "Ho": 8501,
      "His ": 8502,
      "Jean ": 8503,
      "Journ": 8504,
      "Kir": 8505,
      "Mov": 8506,
      "Nintendo ": 8507,
      "Patt": 8508,
      "fast": 8509,
      "mine ": 8510,
      "mitted ": 8511,
      "males ": 8512,
      "oes ": 8513,
      "pack": 8514,
      "psy": 8515,
      "th , and ": 8516,
      "erranean ": 8517,
      "t ( ": 8518,
      "answ": 8519,
      ", were ": 8520,
      "orchestr": 8521,
      ". ) ": 8522,
      "ti ": 8523,
      "in 1": 8524,
      "ing .\n": 8525,
      "stopp": 8526,
      "eless ": 8527,
      "chn": 8528,
      "\" in the ": 8529,
      "\" ) , ": 8530,
      "isions ": 8531,
      "whit": 8532,
      "@-@ off ": 8533,
      "convers": 8534,
      "conference ": 8535,
      "prohi": 8536,
      "deem": 8537,
      "it .\n": 8538,
      "exter": 8539,
      "eton ": 8540,
      "ock , ": 8541,
      "ocean ": 8542,
      "predat": 8543,
      "ts Creek ": 8544,
      "5 and ": 8545,
      "fired ": 8546,
      "Ste": 8547,
      "Stef": 8548,
      "3 @,@ 000 ": 8549,
      "Chart ": 8550,
      "; in ": 8551,
      "boy ": 8552,
      "7 and ": 8553,
      "sector ": 8554,
      "guitar": 8555,
      "would have been ": 8556,
      "rements ": 8557,
      "eeded to ": 8558,
      "Anc": 8559,
      "upon the ": 8560,
      "surfac": 8561,
      "related to ": 8562,
      "wins ": 8563,
      "million in ": 8564,
      "episode \" ": 8565,
      "sponsor": 8566,
      "what he ": 8567,
      "Canter": 8568,
      "sequenc": 8569,
      "ich , ": 8570,
      "Activision ": 8571,
      "importance ": 8572,
      "netic ": 8573,
      "ldn 't ": 8574,
      "stated that the ": 8575,
      "consisting of ": 8576,
      "discovered ": 8577,
      "News ": 8578,
      "narrative ": 8579,
      "Jerem": 8580,
      "indicated ": 8581,
      "effort ": 8582,
      "schools ": 8583,
      "classical ": 8584,
      "° F ": 8585,
      "editerranean ": 8586,
      "regular season ": 8587,
      "belief ": 8588,
      "truth ": 8589,
      "Florida Atlantic ": 8590,
      "Governor ": 8591,
      "Sarajev": 8592,
      "interest in ": 8593,
      "treatment ": 8594,
      "policy ": 8595,
      "expressed ": 8596,
      "statis": 8597,
      "Singles ": 8598,
      "inside the ": 8599,
      "split ": 8600,
      "specimen ": 8601,
      "willing to ": 8602,
      "parallel ": 8603,
      "Premier League ": 8604,
      "reveals ": 8605,
      "Muslim ": 8606,
      "Stephen ": 8607,
      "equivalent ": 8608,
      "basketball ": 8609,
      "'ve ": 8610,
      "09 ": 8611,
      "3 , and ": 8612,
      "Flight ": 8613,
      "Gall": 8614,
      "Goff": 8615,
      "Hea": 8616,
      "Hill": 8617,
      "However , ": 8618,
      "Link ": 8619,
      "NE": 8620,
      "OK ": 8621,
      "OT ": 8622,
      "Rho": 8623,
      "Satur": 8624,
      "Type ": 8625,
      "ban ": 8626,
      "bone ": 8627,
      "cells ": 8628,
      "grow ": 8629,
      "kgra": 8630,
      "led to the ": 8631,
      "sin": 8632,
      "zen ": 8633,
      "ād": 8634,
      "ing on ": 8635,
      "elabor": 8636,
      "itage ": 8637,
      "of the United States ": 8638,
      "@-@ in @-@ ": 8639,
      "ads ": 8640,
      "consul": 8641,
      "ents and ": 8642,
      ". The next ": 8643,
      "in the United Kingdom ": 8644,
      "sump": 8645,
      "opher ": 8646,
      "hi ": 8647,
      "apart ": 8648,
      "ar ( ": 8649,
      "ters , ": 8650,
      "persist": 8651,
      "parliament ": 8652,
      "firing ": 8653,
      "firm ": 8654,
      "aker ": 8655,
      "ignor": 8656,
      "block ": 8657,
      "attle ": 8658,
      "rugby ": 8659,
      "formally ": 8660,
      "assad": 8661,
      "interc": 8662,
      "regist": 8663,
      "Arts ": 8664,
      "following a ": 8665,
      "song 's ": 8666,
      "pointed ": 8667,
      "considers ": 8668,
      "ton , ": 8669,
      "origin ": 8670,
      "developing ": 8671,
      "Color": 8672,
      "does": 8673,
      "team 's ": 8674,
      "Wilde ": 8675,
      "funds ": 8676,
      "pitched ": 8677,
      "global ": 8678,
      "Grammy ": 8679,
      "show 's ": 8680,
      "Prov": 8681,
      ": \" I ": 8682,
      "stands ": 8683,
      "Adam ": 8684,
      "away from the ": 8685,
      "published by ": 8686,
      "Europe , ": 8687,
      "organized ": 8688,
      "mountain": 8689,
      "doctr": 8690,
      "Rio de Janeir": 8691,
      "houses ": 8692,
      "separated ": 8693,
      "honor": 8694,
      "measures ": 8695,
      "Hamilton ": 8696,
      "dominant ": 8697,
      "involved in ": 8698,
      "Rugby ": 8699,
      "beginning of the ": 8700,
      "FIA ": 8701,
      "Israel": 8702,
      "floor ": 8703,
      "shape ": 8704,
      "challenge ": 8705,
      "purpose ": 8706,
      "Republic of ": 8707,
      "lasted ": 8708,
      "Bolív": 8709,
      "Arabic ": 8710,
      "Following the ": 8711,
      "titude ": 8712,
      "Cardinal @-@ ": 8713,
      "Chief ": 8714,
      "franchise ": 8715,
      "Rhodes": 8716,
      "kgraf ": 8717,
      "2 , and ": 8718,
      "250 ": 8719,
      "B. ": 8720,
      "Fall": 8721,
      "Gran": 8722,
      "My": 8723,
      "Many ": 8724,
      "Pul": 8725,
      "Rome ": 8726,
      "Ridge ": 8727,
      "Sav": 8728,
      "Usta": 8729,
      "Wol": 8730,
      "Well": 8731,
      "bow ": 8732,
      "bited ": 8733,
      "hits ": 8734,
      "job": 8735,
      "ks and ": 8736,
      "lav": 8737,
      "lose ": 8738,
      "pist": 8739,
      "zon": 8740,
      "ár": 8741,
      "inde": 8742,
      "anz": 8743,
      "ed into the ": 8744,
      ". Ch": 8745,
      "reserve ": 8746,
      "represents ": 8747,
      "ene ": 8748,
      "eness ": 8749,
      "to have been ": 8750,
      "to create ": 8751,
      "icks ": 8752,
      "an of ": 8753,
      "an important ": 8754,
      "amino ": 8755,
      "tion was ": 8756,
      "l @-@ ": 8757,
      "diag": 8758,
      "( D": 8759,
      "raise ": 8760,
      "seiz": 8761,
      "Star": 8762,
      "portion of the ": 8763,
      "manuscrip": 8764,
      "3 and ": 8765,
      "have the ": 8766,
      "assembl": 8767,
      "prerogative ": 8768,
      ". Before ": 8769,
      "\" , while ": 8770,
      "grounds ": 8771,
      "monument ": 8772,
      "with , ": 8773,
      "lock ": 8774,
      "complain": 8775,
      "film was ": 8776,
      "mature ": 8777,
      "Liber": 8778,
      "heavi": 8779,
      "winner ": 8780,
      "operating ": 8781,
      "years old ": 8782,
      "draf": 8783,
      "innings ": 8784,
      "warm ": 8785,
      "version of ": 8786,
      "band 's ": 8787,
      "infra": 8788,
      "ensure ": 8789,
      "Charl": 8790,
      "partn": 8791,
      "District ": 8792,
      "schem": 8793,
      "New York Times ": 8794,
      "Committee ": 8795,
      "relationships ": 8796,
      "once again ": 8797,
      "carried ": 8798,
      "Minister ": 8799,
      "materi": 8800,
      "launched ": 8801,
      "learning ": 8802,
      "Sweet ": 8803,
      "convection ": 8804,
      "relationship with ": 8805,
      "Lords ": 8806,
      "finished the ": 8807,
      "Imperial ": 8808,
      "chorus ": 8809,
      "address": 8810,
      "extreme ": 8811,
      "appeal ": 8812,
      "abandoned ": 8813,
      "opponents ": 8814,
      "Meyerbeer ": 8815,
      "rescu": 8816,
      "NC State ": 8817,
      "Admiral ": 8818,
      "poorly ": 8819,
      "Dota 2 ": 8820,
      "Plunketts Creek ": 8821,
      "Ustaš": 8822,
      "91 ": 8823,
      "Aniston ": 8824,
      "Bond ": 8825,
      "Bud": 8826,
      "Bron": 8827,
      "Cur": 8828,
      "CE ": 8829,
      "IM": 8830,
      "Kent ": 8831,
      "King of ": 8832,
      "Mediterranean ": 8833,
      "NS": 8834,
      "PA ": 8835,
      "Pope ": 8836,
      "Rh": 8837,
      "Raff": 8838,
      "Temple ": 8839,
      "You": 8840,
      "Your ": 8841,
      "bann": 8842,
      "fit ": 8843,
      "gan": 8844,
      "grown ": 8845,
      "hang": 8846,
      "hood ": 8847,
      "ive ": 8848,
      "nic ": 8849,
      "yer ": 8850,
      "inland ": 8851,
      "ins to ": 8852,
      "resum": 8853,
      "onto the ": 8854,
      "ons of ": 8855,
      "online ": 8856,
      "a of ": 8857,
      "a Man ": 8858,
      "enh": 8859,
      "es . ": 8860,
      "is of ": 8861,
      "is that ": 8862,
      "itation ": 8863,
      "iss ": 8864,
      "urity ": 8865,
      "was un": 8866,
      "was created ": 8867,
      "righ": 8868,
      "confron": 8869,
      "depos": 8870,
      "abund": 8871,
      "apar": 8872,
      "spot": 8873,
      "try , ": 8874,
      "impress": 8875,
      ". Around ": 8876,
      "aine ": 8877,
      "estine ": 8878,
      "ote ": 8879,
      "pupp": 8880,
      "awa ": 8881,
      "at the end of the ": 8882,
      "after being ": 8883,
      "ia 's ": 8884,
      ". He had ": 8885,
      "played the ": 8886,
      "annually ": 8887,
      "when she ": 8888,
      "served as ": 8889,
      "regard ": 8890,
      "fill ": 8891,
      "Bridg": 8892,
      ". For": 8893,
      "survey ": 8894,
      "entitl": 8895,
      "known as \" ": 8896,
      "match , ": 8897,
      "used in the ": 8898,
      "1947 ": 8899,
      "drain": 8900,
      "ati ": 8901,
      "sentim": 8902,
      "showed ": 8903,
      "allows ": 8904,
      "loss": 8905,
      "compounds ": 8906,
      "came to ": 8907,
      "Barbar": 8908,
      "attacked ": 8909,
      "development of ": 8910,
      "weak ": 8911,
      "lands , ": 8912,
      "replaced ": 8913,
      "garian ": 8914,
      "Kingdom Hear": 8915,
      "women 's ": 8916,
      "harb": 8917,
      "track , ": 8918,
      "God of War ": 8919,
      "Revolution ": 8920,
      "might be ": 8921,
      "actual ": 8922,
      "Keam": 8923,
      "Congress ": 8924,
      "dhood ": 8925,
      "source of ": 8926,
      "dynam": 8927,
      "opportun": 8928,
      "foundation ": 8929,
      "an interview ": 8930,
      "ceremon": 8931,
      "Samuel ": 8932,
      "sampl": 8933,
      "dramatic ": 8934,
      "wife , ": 8935,
      "submarine ": 8936,
      "Los Angeles ": 8937,
      "Everglades ": 8938,
      "abeth ": 8939,
      "controversy ": 8940,
      "lbw ": 8941,
      "110 ": 8942,
      "69 ": 8943,
      "76": 8944,
      "Av": 8945,
      "By": 8946,
      "CD ": 8947,
      "Doc": 8948,
      "Fron": 8949,
      "Hok": 8950,
      "ND": 8951,
      "Not ": 8952,
      "P @-@ ": 8953,
      "RNA ": 8954,
      "SA ": 8955,
      "Ton": 8956,
      "Tig": 8957,
      "Water ": 8958,
      "atively ": 8959,
      "crop": 8960,
      "eer": 8961,
      "fine ": 8962,
      "ot , ": 8963,
      "sanc": 8964,
      "wood": 8965,
      "ym ": 8966,
      "zone ": 8967,
      "orbit ": 8968,
      "al , the ": 8969,
      "alities ": 8970,
      "remin": 8971,
      "reconn": 8972,
      "a series of ": 8973,
      "on \" ": 8974,
      "to get ": 8975,
      "ator": 8976,
      "icop": 8977,
      "itch ": 8978,
      "chec": 8979,
      "forest": 8980,
      "esh": 8981,
      "amp ": 8982,
      "'s , ": 8983,
      "uset": 8984,
      "agents ": 8985,
      "district ": 8986,
      "impos": 8987,
      "eafter ": 8988,
      "ts .\n": 8989,
      "ts . The ": 8990,
      "timate ": 8991,
      "worship ": 8992,
      "has not ": 8993,
      "this was ": 8994,
      "achuset": 8995,
      "up to the ": 8996,
      "son of ": 8997,
      "only the ": 8998,
      "deck ": 8999,
      "angular ": 9000,
      "cool": 9001,
      "helicop": 9002,
      "accused ": 9003,
      "them , ": 9004,
      "Parv": 9005,
      "rival ": 9006,
      "New Yor": 9007,
      "said the ": 9008,
      "dog ": 9009,
      ". Writ": 9010,
      "depth ": 9011,
      "result of the ": 9012,
      "deli": 9013,
      "Hergé ": 9014,
      "leadership ": 9015,
      "senal ": 9016,
      "statu": 9017,
      "deman": 9018,
      "residential ": 9019,
      "role of ": 9020,
      "On the ": 9021,
      "extension ": 9022,
      "contained ": 9023,
      "coup ": 9024,
      "valley ": 9025,
      "racy ": 9026,
      "arrived ": 9027,
      "ammuni": 9028,
      "short": 9029,
      "sales ": 9030,
      "Turner ": 9031,
      "addition to ": 9032,
      "missing ": 9033,
      "dinosaur": 9034,
      "combination of ": 9035,
      "required to ": 9036,
      "tomb ": 9037,
      "NY 38 ": 9038,
      "treaty ": 9039,
      "driven ": 9040,
      "favorite ": 9041,
      "terms of ": 9042,
      "Air Force ": 9043,
      "apparently ": 9044,
      "there is no ": 9045,
      "Area ": 9046,
      "NHL ": 9047,
      "Chelsea ": 9048,
      "Dominican ": 9049,
      "earthquake ": 9050,
      "Crazy in Love \" ": 9051,
      "jackra": 9052,
      "wrong ": 9053,
      "Réunion ": 9054,
      "teeth ": 9055,
      "ythosaurus ": 9056,
      "severely ": 9057,
      "muscaria ": 9058,
      "Aman": 9059,
      "Bart ": 9060,
      "Hamp": 9061,
      "J ": 9062,
      "MD ": 9063,
      "With": 9064,
      "fat": 9065,
      "hill ": 9066,
      "io ": 9067,
      "ie , ": 9068,
      "ka ": 9069,
      "la ": 9070,
      "way": 9071,
      "yce ": 9072,
      ". the ": 9073,
      "and \" ": 9074,
      "in C": 9075,
      "to support ": 9076,
      "to help ": 9077,
      "as being ": 9078,
      "eleven ": 9079,
      " , he ": 9080,
      "illy ": 9081,
      "an in": 9082,
      "rid ": 9083,
      "ading ": 9084,
      "consum": 9085,
      "1930 ": 9086,
      "ay , ": 9087,
      "prey ": 9088,
      ". Ap": 9089,
      "notic": 9090,
      "2 / ": 9091,
      "manner ": 9092,
      "; it was ": 9093,
      "4 @,@ ": 9094,
      "ble , ": 9095,
      "scatter": 9096,
      "has since ": 9097,
      "183": 9098,
      "184": 9099,
      "commit": 9100,
      "presence of ": 9101,
      "after he ": 9102,
      "would not be ": 9103,
      "kness ": 9104,
      "renew": 9105,
      "decad": 9106,
      "What ": 9107,
      "ongst ": 9108,
      "colour": 9109,
      "him the ": 9110,
      "end the ": 9111,
      "angle ": 9112,
      "producing ": 9113,
      "subst": 9114,
      "subspecies ": 9115,
      "1992 ": 9116,
      "engage ": 9117,
      "teacher ": 9118,
      "1980s ": 9119,
      "mun ": 9120,
      "borne ": 9121,
      "understood ": 9122,
      "brig": 9123,
      "even though ": 9124,
      "ing , \" ": 9125,
      "high school ": 9126,
      "men 's ": 9127,
      ". Ex": 9128,
      "south of ": 9129,
      "north of the ": 9130,
      "role in the ": 9131,
      "that he had ": 9132,
      "performances ": 9133,
      "cannot be ": 9134,
      "10th ": 9135,
      "one of his ": 9136,
      "! \" ": 9137,
      "concerned ": 9138,
      "short @-@ ": 9139,
      "part of a ": 9140,
      "television series ": 9141,
      "consists of ": 9142,
      "observed ": 9143,
      "Iron ": 9144,
      ". For the ": 9145,
      "Techn": 9146,
      ". Initi": 9147,
      "learn ": 9148,
      "ures of ": 9149,
      "umpty ": 9150,
      "advanced ": 9151,
      "Treat": 9152,
      "majority of the ": 9153,
      "scholars ": 9154,
      "fallen ": 9155,
      "seems to ": 9156,
      "theatre ": 9157,
      "scientific ": 9158,
      "partially ": 9159,
      "served as the ": 9160,
      "Donald ": 9161,
      "km2 ) ": 9162,
      "custom": 9163,
      ". Simil": 9164,
      "protagonist ": 9165,
      "Athletic ": 9166,
      "capacity ": 9167,
      "stopped ": 9168,
      "chairman ": 9169,
[...]
